<unk>	0
<s>	0
</s>	0
▁a	-2.49329
.	-2.66182
▁A	-3.13385
▁in	-3.25576
▁the	-3.63129
▁on	-3.86166
▁and	-3.88697
▁is	-3.96067
▁man	-3.98337
▁of	-4.01733
▁with	-4.08872
,	-4.44307
▁woman	-4.62477
▁are	-4.67047
▁to	-4.80406
▁Two	-4.83487
▁at	-4.89513
▁wearing	-4.9241
▁people	-5.03465
▁white	-5.106
▁shirt	-5.10629
▁black	-5.17873
▁young	-5.2012
▁while	-5.21652
▁his	-5.23661
▁blue	-5.24824
▁an	-5.27942
▁red	-5.35366
▁sitting	-5.41262
▁girl	-5.46498
▁standing	-5.47622
▁boy	-5.48595
▁dog	-5.49993
▁men	-5.50273
▁playing	-5.52216
-	-5.55866
▁street	-5.60408
▁down	-5.64075
▁front	-5.64924
▁group	-5.65363
▁her	-5.67185
▁walking	-5.68238
▁holding	-5.73867
▁water	-5.90249
▁by	-5.92607
s	-5.94759
▁The	-5.96386
▁one	-5.97771
▁green	-6.02989
▁up	-6.04171
▁looking	-6.05911
▁An	-6.08022
▁for	-6.08507
▁women	-6.09096
▁child	-6.09138
▁outside	-6.13198
▁large	-6.13913
▁Three	-6.14666
▁yellow	-6.15823
▁as	-6.16355
▁brown	-6.18268
▁two	-6.19446
▁through	-6.2253
▁little	-6.22556
▁person	-6.26433
▁hat	-6.27412
▁from	-6.27838
▁their	-6.28206
▁other	-6.29409
▁ball	-6.31536
▁children	-6.34354
▁next	-6.35955
▁into	-6.36929
▁over	-6.373
▁small	-6.4011
▁out	-6.43378
▁dressed	-6.43434
▁People	-6.45871
▁building	-6.46489
▁jacket	-6.47172
▁another	-6.47306
▁running	-6.4767
▁riding	-6.48691
▁around	-6.5321
▁orange	-6.55204
▁some	-6.55638
▁near	-6.58058
▁field	-6.58586
▁stands	-6.61188
▁crowd	-6.61317
▁background	-6.61506
▁pink	-6.62177
▁beach	-6.62214
▁behind	-6.63108
▁sidewalk	-6.64264
▁table	-6.68085
▁jumping	-6.69411
▁sits	-6.71651
▁snow	-6.72375
▁grass	-6.73725
▁Man	-6.74372
▁that	-6.75717
'	-6.76227
▁bike	-6.76514
▁looks	-6.77875
▁top	-6.79213
▁girls	-6.79852
▁camera	-6.80461
▁air	-6.81894
▁stand	-6.82652
▁wall	-6.84198
▁player	-6.84535
▁dogs	-6.86197
▁city	-6.86819
▁off	-6.875
▁hair	-6.87932
▁working	-6.88944
▁has	-6.89169
▁gray	-6.90269
▁dress	-6.91413
▁something	-6.92627
▁older	-6.93699
▁talking	-6.93941
▁it	-6.95401
▁soccer	-6.95464
▁shorts	-6.96787
▁him	-6.97166
▁blond	-6.97418
▁park	-6.97473
▁guitar	-6.98427
▁pants	-6.98796
▁walks	-6.9974
▁picture	-7.00174
▁hand	-7.00615
▁jeans	-7.02901
▁Asian	-7.03258
▁plays	-7.0378
▁lady	-7.03789
▁smiling	-7.03843
▁play	-7.04397
▁along	-7.05829
▁boys	-7.06575
▁game	-7.08953
▁dark	-7.0926
▁car	-7.10112
▁carrying	-7.10365
▁together	-7.10768
▁road	-7.10822
▁food	-7.11256
▁them	-7.12215
▁holds	-7.12394
▁bench	-7.12513
▁walk	-7.14526
▁Four	-7.14778
▁side	-7.14935
▁long	-7.15616
▁face	-7.1756
▁glasses	-7.18771
▁stage	-7.19196
▁head	-7.20772
▁sit	-7.21199
▁baby	-7.21307
▁back	-7.24122
▁hands	-7.24476
▁bicycle	-7.24636
▁tree	-7.24827
▁taking	-7.25908
▁doing	-7.27402
▁watching	-7.27416
▁pool	-7.28013
▁old	-7.28077
▁rock	-7.28975
▁each	-7.30169
▁area	-7.30932
▁who	-7.3186
▁ground	-7.31993
▁Several	-7.32441
▁couple	-7.32824
▁baseball	-7.33669
▁dirt	-7.34315
▁t	-7.34356
▁he	-7.35087
▁male	-7.35537
▁being	-7.35669
▁boat	-7.36257
shirt	-7.36709
▁performing	-7.38287
▁race	-7.38301
▁striped	-7.38588
▁day	-7.38593
▁coat	-7.39785
▁look	-7.39822
▁middle	-7.40048
▁suit	-7.40138
▁female	-7.40562
▁guy	-7.40563
▁room	-7.40669
▁mouth	-7.41061
▁across	-7.41428
▁jumps	-7.41448
▁purple	-7.42242
▁sunglasses	-7.45216
▁Young	-7.45617
▁eating	-7.45628
▁under	-7.47123
▁sign	-7.47386
▁horse	-7.48439
▁There	-7.50251
▁football	-7.50484
▁using	-7.51706
▁band	-7.52001
▁microphone	-7.52053
▁uniform	-7.52388
▁runs	-7.52463
▁sand	-7.52671
▁reading	-7.53022
▁helmet	-7.53804
▁three	-7.53995
▁be	-7.54297
haired	-7.54425
▁watch	-7.55298
▁or	-7.55432
▁tennis	-7.55521
▁its	-7.57743
▁players	-7.58175
▁store	-7.58364
▁construction	-7.59271
▁watches	-7.59775
▁toy	-7.60648
▁floor	-7.61175
▁all	-7.62
▁Woman	-7.62353
▁work	-7.62815
▁wooden	-7.62838
▁cap	-7.63143
▁train	-7.63276
▁window	-7.63335
▁against	-7.63424
▁rides	-7.63631
▁chair	-7.64046
▁about	-7.6421
▁mountain	-7.64238
▁basketball	-7.6572
▁dancing	-7.66102
▁clothing	-7.66509
▁during	-7.66606
▁ocean	-7.66805
▁bag	-7.67562
▁waiting	-7.68551
▁team	-7.68592
▁One	-7.69478
▁busy	-7.69486
▁getting	-7.69999
▁having	-7.70312
▁climbing	-7.70843
▁past	-7.70901
▁elderly	-7.71579
▁trees	-7.71679
▁kids	-7.72156
▁restaurant	-7.72158
▁workers	-7.72404
▁outdoor	-7.72923
▁colorful	-7.73827
▁swimming	-7.73835
▁making	-7.74817
▁inside	-7.77055
▁shirts	-7.77102
▁posing	-7.77148
▁they	-7.77617
▁singing	-7.78053
▁covered	-7.78738
▁trying	-7.79193
▁fence	-7.8062
▁light	-7.81074
▁tan	-7.81529
▁market	-7.83165
▁line	-7.83469
▁brick	-7.836
▁"	-7.83778
▁skateboard	-7.84918
▁she	-7.85101
▁ice	-7.85323
▁very	-7.86561
▁high	-7.86917
▁ride	-7.87037
▁hats	-7.87235
▁big	-7.8743
▁sweater	-7.87537
▁towards	-7.90364
▁cellphone	-7.91617
▁open	-7.9184
▁cart	-7.9203
▁lake	-7.9214
▁bright	-7.92397
▁surrounded	-7.92405
▁beside	-7.92531
▁kitchen	-7.92535
▁truck	-7.93315
▁motorcycle	-7.93723
▁hill	-7.93824
▁book	-7.93908
▁path	-7.94118
▁This	-7.94119
▁laying	-7.94522
▁jump	-7.95689
▁track	-7.95848
▁body	-7.95885
▁Men	-7.96136
▁grassy	-7.96309
▁outdoors	-7.96331
▁vest	-7.96533
▁arms	-7.97054
▁umbrella	-7.97377
▁clothes	-7.97502
▁stick	-7.98315
▁river	-7.98745
▁bus	-7.99113
▁others	-7.99341
▁piece	-7.99467
▁tank	-8.00153
▁outfit	-8.01888
▁colored	-8.0259
▁several	-8.04485
▁night	-8.04633
▁shopping	-8.04781
▁swing	-8.04942
▁painting	-8.06167
▁enjoying	-8.06429
▁above	-8.06431
▁uniforms	-8.06572
▁event	-8.07022
▁stone	-8.07828
▁worker	-8.083
▁many	-8.08604
▁snowy	-8.09367
▁metal	-8.09478
▁paper	-8.09525
▁drinking	-8.09651
▁Five	-8.0979
▁hanging	-8.10105
▁hard	-8.10256
▁full	-8.1056
▁ready	-8.10707
▁run	-8.10932
▁trick	-8.11557
▁sleeping	-8.11994
▁music	-8.12123
▁right	-8.13615
▁Children	-8.14246
▁Many	-8.14453
▁away	-8.14497
▁guys	-8.14632
▁house	-8.14798
▁like	-8.15058
▁arm	-8.15462
▁gathered	-8.1573
▁takes	-8.16079
▁shoes	-8.1611
▁phone	-8.16116
▁backpack	-8.1642
▁toddler	-8.16452
▁bridge	-8.17386
▁going	-8.17396
▁set	-8.17459
▁shop	-8.17626
▁onto	-8.1853
▁dance	-8.18811
▁adults	-8.19123
▁pole	-8.19159
▁board	-8.19621
▁both	-8.19765
▁wave	-8.19847
▁smiles	-8.20447
▁rope	-8.20701
▁photo	-8.21411
▁leaning	-8.21852
▁after	-8.21861
▁crowded	-8.22112
▁what	-8.22202
▁catch	-8.22319
▁lot	-8.2247
▁left	-8.22732
▁steps	-8.2278
▁pose	-8.22991
▁flowers	-8.23051
▁skirt	-8.23538
▁preparing	-8.23801
▁short	-8.24057
▁rocks	-8.24067
▁gear	-8.24385
hair	-8.24661
▁family	-8.25244
▁bar	-8.25567
▁sunny	-8.25973
▁have	-8.2634
▁subway	-8.2634
▁which	-8.26523
▁fishing	-8.26909
▁kid	-8.27
▁costume	-8.27166
▁hockey	-8.27262
▁four	-8.27631
▁racing	-8.28381
▁fire	-8.28841
▁between	-8.29322
▁African	-8.29812
▁flag	-8.29819
▁cowboy	-8.30198
▁fountain	-8.30772
"	-8.31056
▁machine	-8.31547
▁chairs	-8.32721
▁setting	-8.32789
▁corner	-8.3279
▁laughing	-8.32988
▁wood	-8.33094
▁public	-8.33547
▁instruments	-8.33588
▁glass	-8.34548
▁volleyball	-8.34566
▁plaid	-8.35146
▁drink	-8.35284
▁shirtless	-8.35387
▁appears	-8.36461
▁stairs	-8.368
▁selling	-8.36992
▁graffiti	-8.37997
▁plastic	-8.38015
▁concrete	-8.38428
▁couch	-8.39048
▁number	-8.39188
▁adult	-8.39417
▁tall	-8.39674
▁Some	-8.40099
▁sweatshirt	-8.40894
▁forest	-8.40939
▁seated	-8.4138
▁bags	-8.41495
▁someone	-8.424
▁scarf	-8.43245
▁computer	-8.43485
▁midair	-8.43531
▁cooking	-8.43535
▁putting	-8.4375
▁2	-8.43972
▁American	-8.44142
▁woods	-8.44261
▁equipment	-8.44627
▁object	-8.45073
▁beard	-8.4544
▁toward	-8.45709
▁beautiful	-8.45728
ing	-8.46166
▁ramp	-8.4636
▁asian	-8.46366
▁edge	-8.46581
▁take	-8.46807
▁slide	-8.46823
▁boots	-8.46869
▁sky	-8.47721
▁pushing	-8.47767
▁mountains	-8.47912
▁does	-8.48679
▁bed	-8.4875
▁there	-8.48857
▁view	-8.4905
▁nearby	-8.49375
▁sun	-8.49597
▁distance	-8.49832
▁throwing	-8.49844
▁get	-8.512
▁fish	-8.51442
▁pictures	-8.51482
▁jersey	-8.51918
▁where	-8.51944
▁just	-8.52182
▁audience	-8.5242
▁bikes	-8.52992
▁poses	-8.53493
▁performs	-8.53602
▁crossing	-8.53638
▁eyes	-8.53691
▁door	-8.54082
▁Little	-8.54103
▁pulling	-8.54109
▁rider	-8.54335
▁ladies	-8.54346
▁playground	-8.54349
▁buildings	-8.54743
▁Women	-8.54833
▁police	-8.55074
▁instrument	-8.55306
▁vehicle	-8.5555
▁winter	-8.55555
▁trail	-8.56723
▁lawn	-8.57305
▁cigarette	-8.57541
▁party	-8.5779
▁leaves	-8.57815
▁parade	-8.58764
▁driving	-8.58818
▁smoking	-8.58818
▁works	-8.58996
▁cleaning	-8.5908
▁statue	-8.59593
▁painted	-8.59598
▁filled	-8.59843
▁lying	-8.60872
▁horses	-8.61162
▁giving	-8.61392
▁yard	-8.61393
▁cutting	-8.61393
▁Frisbee	-8.6162
▁station	-8.62158
▁beer	-8.6246
▁rocky	-8.62483
aged	-8.62645
▁few	-8.63235
▁safety	-8.63235
▁apron	-8.63236
▁skateboarder	-8.63248
▁net	-8.635
▁cream	-8.64027
▁cross	-8.65069
▁gloves	-8.65161
ed	-8.6558
▁concert	-8.662
▁structure	-8.66204
▁friends	-8.66331
▁roof	-8.66402
▁gentleman	-8.67024
▁art	-8.67188
▁smile	-8.67288
▁fruit	-8.67591
▁hit	-8.67868
▁court	-8.68133
▁cars	-8.68293
▁reads	-8.68761
▁shoulder	-8.68993
▁martial	-8.69256
▁showing	-8.69275
▁perform	-8.69509
▁carries	-8.69539
▁school	-8.698
▁Group	-8.70121
▁no	-8.70348
▁drums	-8.7064
▁newspaper	-8.70697
▁cup	-8.70985
▁shore	-8.71217
▁bottle	-8.71552
t	-8.71903
▁hold	-8.72114
▁parked	-8.72215
▁bowling	-8.72717
▁suits	-8.72812
▁box	-8.72936
▁jackets	-8.7316
▁dock	-8.73244
▁drinks	-8.73375
▁rodeo	-8.73579
▁pointing	-8.73583
▁home	-8.73598
▁Girl	-8.7361
▁goggles	-8.73876
▁wet	-8.73884
▁costumes	-8.73997
▁display	-8.74163
▁3	-8.74168
▁practicing	-8.74764
▁prepares	-8.74883
▁bunch	-8.75058
▁arts	-8.75347
▁vests	-8.7564
▁listening	-8.75968
▁teams	-8.76129
▁counter	-8.76251
▁talks	-8.76502
▁rain	-8.76546
▁Someone	-8.76571
▁mother	-8.76601
▁facing	-8.76873
▁	-8.77178
▁dresses	-8.77204
;	-8.7779
▁bathing	-8.77795
▁feet	-8.78406
▁flying	-8.78413
▁make	-8.78442
▁scene	-8.78715
▁ladder	-8.78759
▁vendor	-8.78762
▁different	-8.79017
▁sports	-8.79142
▁gold	-8.7965
▁show	-8.79657
▁onlookers	-8.79667
▁pile	-8.79687
▁parking	-8.79782
▁paint	-8.80599
▁tent	-8.80622
▁bull	-8.80637
▁mask	-8.80946
▁gather	-8.81244
▁bucket	-8.81282
▁wedding	-8.81546
▁speaking	-8.81551
▁swinging	-8.81592
▁staring	-8.81871
▁cliff	-8.81909
▁desk	-8.81919
▁bird	-8.81922
▁biker	-8.81959
▁makes	-8.82138
▁coffee	-8.82186
▁railing	-8.82258
▁tie	-8.82449
▁before	-8.82831
▁time	-8.83201
▁snowboarder	-8.83211
▁grill	-8.83483
▁surfer	-8.83541
▁leather	-8.83805
▁match	-8.84108
▁sort	-8.84169
▁younger	-8.84394
▁stop	-8.84524
▁waves	-8.84632
▁flower	-8.84805
▁blanket	-8.84853
▁flags	-8.84914
▁kicking	-8.85467
▁empty	-8.85759
▁Person	-8.85782
▁Boy	-8.85851
▁attire	-8.86438
▁skateboarding	-8.86508
▁basket	-8.8652
▁talk	-8.86837
▁purse	-8.87193
▁conversation	-8.87521
▁items	-8.87545
▁foreground	-8.88139
▁swim	-8.88216
▁spectators	-8.88829
▁overlooking	-8.88856
▁legs	-8.89057
▁various	-8.89501
▁silver	-8.89511
▁competition	-8.89857
▁leans	-8.89905
▁can	-8.89905
▁same	-8.90204
▁cement	-8.90883
▁flip	-8.90987
▁writing	-8.91253
▁bowl	-8.92001
▁leaps	-8.92377
▁go	-8.92561
▁life	-8.92666
▁shot	-8.93114
▁this	-8.93385
▁attempting	-8.93391
▁lined	-8.93422
▁place	-8.93468
▁animal	-8.93481
▁meal	-8.9383
▁outfits	-8.94404
▁kneeling	-8.9447
▁musical	-8.94533
▁climbs	-8.94647
▁students	-8.94928
▁electric	-8.95192
▁bicycles	-8.95545
▁tables	-8.95549
▁business	-8.95556
▁Six	-8.9593
▁surfboard	-8.95998
▁alley	-8.963
▁stroller	-8.96405
▁gets	-8.96712
▁signs	-8.96725
▁way	-8.96758
▁balloon	-8.96779
▁tries	-8.97043
▁Indian	-8.97514
▁site	-8.97958
▁rail	-8.98234
▁vegetables	-8.98247
▁sings	-8.98255
▁bearded	-8.9895
▁chasing	-8.99301
▁gathering	-8.99327
▁helmets	-9.00048
▁kissing	-9.00077
▁says	-9.00099
▁leg	-9.00113
▁screen	-9.00165
▁wears	-9.00243
▁lap	-9.00561
▁bikini	-9.00571
▁bride	-9.00837
▁skier	-9.00966
▁lit	-9.01238
▁fighting	-9.01629
▁sunset	-9.02005
▁military	-9.02396
▁blowing	-9.02403
▁surfing	-9.02407
▁ski	-9.02423
▁wait	-9.02489
▁cake	-9.02519
▁bald	-9.02769
▁In	-9.02809
▁platform	-9.03291
▁balloons	-9.03466
▁kick	-9.0367
▁among	-9.03671
▁violin	-9.03712
▁classroom	-9.03981
▁hot	-9.03981
▁walkway	-9.04087
y	-9.04152
▁base	-9.04492
▁uses	-9.04913
▁diving	-9.0559
▁gym	-9.05591
▁close	-9.05698
▁class	-9.05928
▁alone	-9.05997
▁break	-9.06099
▁ledge	-9.06118
▁laptop	-9.06142
▁coming	-9.06405
▁Construction	-9.06502
▁sandy	-9.06866
▁throw	-9.06923
▁scooter	-9.06961
▁streets	-9.07003
▁hiking	-9.07226
▁resting	-9.07238
▁competing	-9.07639
▁faces	-9.07741
▁bubbles	-9.07785
▁wooded	-9.08091
▁foot	-9.08469
d	-9.08492
▁traffic	-9.08655
▁males	-9.08699
▁course	-9.08889
▁Black	-9.08889
▁shows	-9.09242
▁huge	-9.09313
▁meat	-9.09462
▁pass	-9.09675
▁trunks	-9.10236
▁officer	-9.10749
▁son	-9.10839
▁town	-9.1101
▁helping	-9.11023
▁passing	-9.1103
▁upside	-9.11065
▁artist	-9.11319
▁opposing	-9.11437
▁well	-9.11438
▁headphones	-9.11442
▁collar	-9.11996
▁sandals	-9.12312
▁garden	-9.12462
▁fun	-9.12634
▁swings	-9.12637
▁waving	-9.12736
▁traditional	-9.12737
▁made	-9.13174
▁goal	-9.13177
▁lights	-9.13282
▁plate	-9.13334
▁urban	-9.13611
▁brightly	-9.13637
▁wheel	-9.1373
▁mirror	-9.13749
▁brunette	-9.13754
▁stadium	-9.14494
▁skiing	-9.14519
▁block	-9.14634
▁country	-9.14936
▁musicians	-9.15145
▁held	-9.15386
▁skating	-9.15834
▁marathon	-9.16284
▁Kids	-9.16345
▁karate	-9.16737
▁sliding	-9.16737
▁performance	-9.16738
▁cat	-9.16761
▁waits	-9.1704
▁church	-9.17191
▁doorway	-9.17193
▁leaping	-9.17198
▁father	-9.17368
▁teenage	-9.17643
▁drum	-9.17704
▁tracks	-9.18528
▁cafe	-9.18567
▁hole	-9.18763
▁video	-9.1903
e	-9.19102
▁clown	-9.1923
▁fixing	-9.19504
▁seen	-9.19505
▁clear	-9.19642
▁shovel	-9.19677
▁Christmas	-9.19963
▁five	-9.19964
▁type	-9.2064
▁digging	-9.20904
▁photographer	-9.21119
▁office	-9.21374
▁ring	-9.22018
▁coats	-9.22045
▁sticks	-9.22281
▁pier	-9.22333
▁dirty	-9.22405
▁turn	-9.2251
▁shallow	-9.22516
▁shoulders	-9.22782
▁desert	-9.23454
▁sculpture	-9.23513
▁toys	-9.23667
▁T	-9.23726
▁straw	-9.23781
▁golf	-9.24238
▁balls	-9.24289
▁below	-9.2476
▁attached	-9.2476
▁mud	-9.24762
▁microscope	-9.2548
▁multicolored	-9.25749
▁asleep	-9.25814
▁enjoy	-9.25939
▁tattoo	-9.2594
▁circle	-9.25963
▁throws	-9.26065
▁umbrellas	-9.26201
▁leash	-9.26223
▁hugging	-9.26245
▁third	-9.26745
▁makeup	-9.26753
▁members	-9.269
▁eat	-9.26951
▁accordion	-9.26964
▁lab	-9.27145
▁beige	-9.27247
▁moving	-9.27248
▁nose	-9.27484
▁performer	-9.27501
▁seat	-9.2751
▁giant	-9.27752
▁happy	-9.27752
▁produce	-9.27752
▁grocery	-9.27752
▁crying	-9.27753
▁reaching	-9.27761
▁washing	-9.27776
n	-9.28137
▁Chinese	-9.2826
sleeved	-9.28342
▁do	-9.28342
▁photograph	-9.28446
▁telescope	-9.28499
▁sled	-9.28501
▁runner	-9.28508
▁pond	-9.28767
▁catching	-9.28832
▁row	-9.28964
▁dinner	-9.29283
▁neck	-9.29486
▁stream	-9.29486
▁booth	-9.29533
▁deck	-9.29773
▁gun	-9.30058
▁jogging	-9.30317
▁relaxing	-9.30324
▁bat	-9.30517
▁how	-9.30837
▁himself	-9.30838
▁sweeping	-9.31363
▁not	-9.31668
▁canoe	-9.32127
▁windows	-9.3225
▁tire	-9.32279
▁attempts	-9.32543
▁climb	-9.32637
▁hoodie	-9.32672
▁books	-9.32728
▁barefoot	-9.32931
▁underneath	-9.33483
▁closed	-9.33498
▁lays	-9.33605
▁skate	-9.33751
▁teeth	-9.34024
▁tricks	-9.34377
▁mid	-9.34626
▁heads	-9.35093
▁trampoline	-9.35105
▁friend	-9.35381
▁fight	-9.35894
▁cut	-9.35901
▁picnic	-9.362
▁dancers	-9.36405
▁atop	-9.36429
▁kind	-9.36473
▁pulled	-9.36764
▁catches	-9.36767
▁falling	-9.3677
▁individuals	-9.36916
▁fallen	-9.37309
▁roller	-9.37312
▁stuffed	-9.37312
▁van	-9.3756
▁device	-9.37599
▁drawing	-9.376
▁heavy	-9.37867
▁see	-9.38109
▁khaki	-9.38163
▁singer	-9.38165
▁officers	-9.38213
▁center	-9.38429
▁decorated	-9.3843
▁goes	-9.38436
▁matching	-9.38466
▁project	-9.38676
▁cane	-9.38738
▁fair	-9.38973
▁square	-9.39291
▁musician	-9.39301
▁also	-9.39563
▁muddy	-9.39563
▁These	-9.39589
▁racket	-9.39855
▁wear	-9.39864
▁festival	-9.40134
▁including	-9.40134
▁cloth	-9.40396
▁pair	-9.4042
▁cyclist	-9.40445
▁deep	-9.40694
▁pushes	-9.4071
▁plants	-9.40899
▁end	-9.41001
▁wetsuit	-9.41018
▁Dog	-9.41226
▁crosswalk	-9.41287
▁dances	-9.41602
▁chef	-9.41603
▁covering	-9.41609
▁wide	-9.4186
▁hula	-9.41868
▁cold	-9.41869
▁splashing	-9.42461
▁Small	-9.43041
▁tunnel	-9.43041
▁blouse	-9.43041
▁curly	-9.43041
▁wrapped	-9.43041
▁Older	-9.43047
▁jean	-9.4337
▁low	-9.43574
▁camouflage	-9.43621
▁tongue	-9.43954
▁indoor	-9.44098
▁sea	-9.44151
▁carnival	-9.44228
▁taken	-9.44259
▁bicyclist	-9.44563
▁but	-9.44567
▁speaks	-9.44927
▁eats	-9.45142
▁part	-9.45142
▁daughter	-9.45152
▁obstacle	-9.45765
▁Guy	-9.45768
▁mat	-9.4584
▁lone	-9.46027
▁gives	-9.4612
▁4	-9.46235
▁help	-9.4633
skinned	-9.46622
▁denim	-9.46645
▁whilst	-9.46645
▁railroad	-9.46646
▁marching	-9.46652
▁checking	-9.46654
▁picking	-9.46658
▁opening	-9.46745
▁mural	-9.46952
▁button	-9.46972
▁kicks	-9.4705
ly	-9.47206
▁half	-9.47258
▁golden	-9.4726
▁pouring	-9.4726
▁points	-9.47368
▁robe	-9.476
▁balcony	-9.47876
▁flies	-9.47876
▁hooded	-9.47888
▁curb	-9.48494
▁backyard	-9.48499
▁hose	-9.48835
▁Child	-9.49122
▁pavement	-9.49122
▁runners	-9.49446
▁airplane	-9.49476
▁log	-9.49482
▁stunt	-9.49483
▁trash	-9.49728
▁nice	-9.49743
▁surface	-9.49751
▁hitting	-9.49753
▁sleeps	-9.49828
▁appear	-9.49971
▁females	-9.49988
▁boats	-9.50082
▁passes	-9.5039
▁Workers	-9.50425
▁colors	-9.50564
▁infant	-9.50744
▁new	-9.50745
▁cow	-9.51396
▁rolling	-9.5167
▁polo	-9.52001
▁move	-9.52024
▁pot	-9.52038
▁put	-9.52278
▁Lady	-9.52307
▁piano	-9.52307
▁presentation	-9.52308
▁touching	-9.52314
▁overalls	-9.5232
▁hoop	-9.52671
▁bandanna	-9.52675
▁bottom	-9.52704
▁dry	-9.52873
▁laundry	-9.52956
▁paved	-9.52958
▁shooting	-9.52968
▁guitars	-9.53051
▁slides	-9.53065
▁drives	-9.53077
▁protective	-9.5361
▁raised	-9.53613
▁groom	-9.53953
▁prepare	-9.53993
▁seems	-9.54382
▁climber	-9.54672
▁balancing	-9.5493
▁living	-9.5493
▁wrestling	-9.5493
▁landscape	-9.55584
▁knee	-9.55924
▁local	-9.56662
▁direction	-9.56679
▁motorcycles	-9.56933
▁Old	-9.56937
▁luggage	-9.56943
▁sewing	-9.56944
▁White	-9.57624
a	-9.57635
▁round	-9.58007
▁kayak	-9.58701
er	-9.58705
▁image	-9.58732
▁finger	-9.58734
▁papers	-9.58787
▁oriental	-9.58998
▁scaffolding	-9.59006
▁only	-9.59236
▁post	-9.59353
▁keyboard	-9.59418
▁swims	-9.59534
▁navy	-9.59693
▁checkered	-9.59693
▁goods	-9.59903
▁poles	-9.60069
▁sport	-9.60095
▁fall	-9.60106
▁gymnast	-9.60112
▁professional	-9.60114
▁banner	-9.60125
▁tractor	-9.60392
▁pulls	-9.60599
▁puts	-9.60678
▁referee	-9.60824
▁wheelchair	-9.60828
▁skis	-9.60863
▁walls	-9.6105
▁rugby	-9.61097
▁ear	-9.61111
▁fans	-9.61235
▁enjoys	-9.61471
▁slope	-9.61524
▁ship	-9.61806
▁New	-9.62217
▁puddle	-9.62232
▁fabric	-9.62244
▁dancer	-9.62277
▁paints	-9.624
▁shaving	-9.6252
▁belt	-9.62926
▁waterfall	-9.62965
▁stool	-9.62969
▁inflatable	-9.63239
▁staircase	-9.63239
▁reaches	-9.63242
▁rest	-9.63662
▁chest	-9.63668
▁sale	-9.63689
▁swimsuit	-9.63699
▁cone	-9.63701
covered	-9.63943
▁juggling	-9.63964
▁garbage	-9.63966
▁floating	-9.63977
▁5	-9.64018
▁spray	-9.6438
▁without	-9.64387
▁goalie	-9.64698
▁wine	-9.64713
▁lies	-9.64741
".	-9.64929
▁tool	-9.6518
▁harness	-9.65407
▁arena	-9.65466
▁teenagers	-9.65637
▁smoke	-9.65882
▁pipe	-9.65904
▁conversing	-9.6617
▁either	-9.6617
▁examining	-9.6617
▁sheet	-9.66654
▁bubble	-9.66658
▁guitarist	-9.66664
sleeve	-9.66884
▁opposite	-9.66916
▁floral	-9.66916
▁bending	-9.66923
▁shoe	-9.67376
▁saxophone	-9.67399
▁pitcher	-9.67399
▁ears	-9.67949
▁gate	-9.68141
▁driver	-9.6816
▁plane	-9.682
▁podium	-9.68425
▁funny	-9.68426
▁thrown	-9.68447
▁shoveling	-9.6846
▁stares	-9.68557
▁hangs	-9.68611
▁moves	-9.68736
▁guard	-9.68883
▁hammer	-9.68896
▁kiss	-9.69146
▁themselves	-9.69189
▁boxes	-9.692
▁chain	-9.69672
▁soldier	-9.69694
▁birds	-9.69821
▁On	-9.69942
▁serving	-9.69958
▁hay	-9.69959
▁mustache	-9.70434
▁club	-9.70445
▁Blond	-9.70733
▁shaking	-9.70734
▁bent	-9.70735
▁Here	-9.70735
▁riders	-9.70802
▁string	-9.71207
▁crew	-9.7122
▁shade	-9.71238
▁hurdle	-9.71247
▁hiker	-9.71253
▁acoustic	-9.71515
▁neon	-9.71515
▁pedestrians	-9.71617
▁fingers	-9.71814
▁robes	-9.71849
▁clean	-9.71989
▁palm	-9.72018
▁animals	-9.72122
▁lunch	-9.72303
▁cloudy	-9.72306
▁pajamas	-9.72332
▁jerseys	-9.72389
▁plant	-9.72797
▁drummer	-9.72817
▁towel	-9.72826
▁container	-9.72831
▁puppy	-9.73096
▁surf	-9.73547
▁american	-9.73594
▁surrounding	-9.73633
▁steep	-9.73859
▁formal	-9.73891
▁York	-9.73891
▁biking	-9.73896
▁caught	-9.73896
▁foreign	-9.73896
▁porch	-9.73896
▁garb	-9.73898
▁machinery	-9.739
shirts	-9.74286
▁raft	-9.74399
▁lane	-9.74432
▁practice	-9.74438
▁use	-9.74686
▁polka	-9.74702
▁racetrack	-9.74703
▁bucking	-9.74704
▁underwater	-9.74705
▁athletic	-9.75515
▁lots	-9.75916
▁snowboard	-9.76046
▁escalator	-9.76062
like	-9.76497
▁tube	-9.76528
▁cones	-9.76634
▁blocks	-9.76824
▁Girls	-9.77073
▁six	-9.77161
▁marketplace	-9.77161
▁suspended	-9.77161
▁shown	-9.77192
▁pieces	-9.7789
▁(	-9.77994
▁herself	-9.77994
▁hospital	-9.77994
▁observing	-9.77994
▁haircut	-9.78001
▁heels	-9.78009
▁amusement	-9.7811
▁sticking	-9.78123
▁bread	-9.78508
▁print	-9.78519
▁teacher	-9.78552
▁motorbike	-9.78562
▁puck	-9.78831
▁socks	-9.7886
▁style	-9.79385
▁wagon	-9.79395
▁beam	-9.79396
▁flight	-9.79396
▁member	-9.79419
▁bottles	-9.79607
▁intersection	-9.79682
▁money	-9.79683
▁hallway	-9.79683
▁candy	-9.79683
▁was	-9.79686
▁chases	-9.7983
▁backpacks	-9.8018
▁lift	-9.80226
▁try	-9.80528
▁narrow	-9.80537
▁paddling	-9.80537
▁participating	-9.80537
▁raising	-9.80537
▁happily	-9.80537
▁maroon	-9.80537
▁softball	-9.80537
▁backwards	-9.80588
▁trumpet	-9.80797
."	-9.80832
▁tools	-9.80844
▁tattoos	-9.80993
▁barbecue	-9.81099
▁opponent	-9.81132
▁summer	-9.81399
▁first	-9.81399
▁visible	-9.81399
▁fast	-9.81404
▁boxing	-9.81463
▁laughs	-9.81647
▁good	-9.82006
▁meeting	-9.82278
▁things	-9.82318
▁jumpsuit	-9.82881
▁celebrating	-9.83146
▁plaza	-9.83146
▁sheep	-9.83147
▁hood	-9.8371
▁ponytail	-9.83752
▁poster	-9.83774
▁Santa	-9.84031
▁benches	-9.84094
▁waters	-9.84247
▁skirts	-9.84453
▁'	-9.84479
▁pull	-9.84612
▁individual	-9.8466
)	-9.849
▁speech	-9.84924
▁rests	-9.8525
▁bicyclists	-9.85319
up	-9.85375
▁performers	-9.85401
▁sets	-9.85434
▁frame	-9.85544
▁necklace	-9.85558
▁advertisement	-9.85559
▁athlete	-9.8556
▁swimmer	-9.85561
▁crosses	-9.85838
▁sneakers	-9.8584
▁flowered	-9.85872
▁model	-9.86434
▁routine	-9.86455
▁beverage	-9.8647
▁Seven	-9.86734
▁airport	-9.86734
▁frisbee	-9.86734
▁leading	-9.86752
▁mall	-9.86807
▁cheerleaders	-9.86819
▁eye	-9.87337
▁Male	-9.87348
▁carriage	-9.87358
▁laugh	-9.87365
▁headband	-9.87378
▁Brown	-9.87651
▁museum	-9.87651
▁squatting	-9.87651
▁catcher	-9.87834
▁sells	-9.87884
▁color	-9.88276
▁German	-9.88564
▁reflective	-9.88577
▁kneels	-9.88627
▁computers	-9.88771
▁helps	-9.8898
▁cyclists	-9.89004
▁cobblestone	-9.89228
▁firetruck	-9.8923
▁broom	-9.89242
▁teenager	-9.89258
▁peace	-9.89511
▁patio	-9.89511
▁downtown	-9.89512
▁rink	-9.89512
▁teal	-9.89513
▁grilling	-9.89573
▁fenced	-9.89603
▁stripes	-9.89656
▁customers	-9.89697
▁hikers	-9.89828
▁bars	-9.89931
▁warm	-9.90111
▁paddle	-9.90178
m	-9.90384
▁buying	-9.9047
▁mound	-9.91124
▁baskets	-9.91202
▁BMX	-9.91399
▁branch	-9.91403
▁operating	-9.91407
▁courtyard	-9.91408
▁so	-9.91753
▁nap	-9.92097
▁figure	-9.92104
colored	-9.92349
▁space	-9.92352
▁welding	-9.9237
▁boardwalk	-9.92371
▁mostly	-9.92374
▁been	-9.92379
▁brushing	-9.9239
▁caps	-9.93046
▁wire	-9.93061
▁backs	-9.93238
▁ahead	-9.93243
▁Japanese	-9.9334
▁african	-9.9334
▁evening	-9.93346
▁snowboarding	-9.93365
▁tops	-9.93629
▁pan	-9.93642
▁pick	-9.93966
▁forward	-9.94032
▁balance	-9.94045
▁step	-9.94057
▁brush	-9.94295
▁Street	-9.9432
▁airborne	-9.9432
▁garage	-9.9432
▁homeless	-9.94323
▁cheering	-9.94332
▁gas	-9.9435
▁redheaded	-9.94374
▁tub	-9.9441
r	-9.94567
▁handstand	-9.95009
▁student	-9.95047
▁carpet	-9.95265
▁possibly	-9.95311
▁biting	-9.95314
▁repairing	-9.95324
▁you	-9.95349
▁indoors	-9.95854
▁position	-9.95994
▁pitch	-9.96258
▁attention	-9.9631
▁college	-9.9631
▁scuba	-9.9631
▁policeman	-9.96318
▁blows	-9.96532
▁gravel	-9.97277
▁fur	-9.97318
▁Large	-9.9732
▁newborn	-9.9732
▁folding	-9.97324
▁tied	-9.9736
▁Female	-9.98038
▁map	-9.98056
▁compete	-9.98072
▁tag	-9.98075
▁motorcyclist	-9.98075
▁job	-9.98102
▁racer	-9.9814
down	-9.98285
▁weather	-9.98324
▁carry	-9.98337
▁gentlemen	-9.98341
▁sofa	-9.98341
▁crossed	-9.98406
▁smaller	-9.98589
▁smokes	-9.98706
▁sword	-9.98922
amp	-9.99137
▁bikers	-9.99204
▁hits	-9.99317
▁motocross	-9.99372
▁rainbow	-9.99372
▁sleeveless	-9.99372
▁bass	-9.99375
▁sporting	-9.99403
▁rowing	-9.99415
▁tee	-9.9942
▁balding	-9.99428
▁displaying	-9.99446
▁saw	-10.0009
▁crane	-10.0011
▁sell	-10.0012
▁tray	-10.0015
▁item	-10.0015
▁entrance	-10.0041
▁intently	-10.0041
▁objects	-10.0061
▁soldiers	-10.0077
▁cook	-10.0081
▁S	-10.0115
▁liquid	-10.0116
▁shadow	-10.0117
▁fly	-10.0118
▁magazine	-10.012
▁mom	-10.0122
▁fresh	-10.0146
▁spinning	-10.0147
▁barber	-10.0147
▁amongst	-10.0147
▁raises	-10.0158
▁start	-10.0233
▁single	-10.0242
▁orchestra	-10.0253
▁studio	-10.0253
▁knife	-10.0253
▁stove	-10.0253
▁shaped	-10.0254
▁lifting	-10.0256
▁knees	-10.0295
▁skates	-10.0306
in	-10.0339
▁hang	-10.034
▁I	-10.034
▁library	-10.0361
▁neighborhood	-10.0361
▁sharing	-10.0361
▁crouches	-10.0361
▁bushes	-10.0361
▁splashes	-10.0361
▁closeup	-10.0362
▁action	-10.0363
▁ballet	-10.0363
▁skateboards	-10.0379
▁tackle	-10.0434
▁lead	-10.044
▁read	-10.044
▁song	-10.0441
▁tents	-10.0451
▁choir	-10.0469
▁cardboard	-10.0469
▁if	-10.0469
▁turned	-10.0473
▁sing	-10.0548
▁attempt	-10.0549
▁carving	-10.0551
▁formation	-10.0552
▁fruits	-10.0574
▁range	-10.0574
▁medical	-10.0579
▁multiple	-10.0579
▁microphones	-10.0581
▁vehicles	-10.0587
▁lines	-10.0602
▁photos	-10.0635
▁guns	-10.0635
▁cover	-10.066
▁bathroom	-10.066
▁spread	-10.066
▁lamp	-10.0663
▁stops	-10.0668
▁heart	-10.0683
▁cricket	-10.0689
▁Soccer	-10.069
▁rubber	-10.069
▁dishes	-10.0691
▁watched	-10.0711
▁cards	-10.0714
▁handing	-10.0736
▁protest	-10.0769
▁sink	-10.0772
▁ceiling	-10.0772
▁castle	-10.0774
▁storefront	-10.0776
▁buckets	-10.0783
▁corn	-10.0797
▁backdrop	-10.0803
▁stopped	-10.0803
▁stretching	-10.0803
▁pit	-10.0808
▁army	-10.081
▁-	-10.0827
▁ropes	-10.0861
▁wheels	-10.0871
▁headscarf	-10.0884
▁native	-10.0884
▁order	-10.0887
▁taxi	-10.0889
▁pillow	-10.089
▁cups	-10.0907
▁coach	-10.0912
▁strange	-10.0915
▁ceremony	-10.0916
▁conference	-10.0916
▁transportation	-10.0916
flops	-10.0919
▁shoot	-10.0976
▁plates	-10.0985
es	-10.1
▁bank	-10.1001
▁second	-10.1002
▁bouquet	-10.1003
▁elephant	-10.1004
▁creek	-10.1031
▁dining	-10.1031
▁leaving	-10.1031
▁feeding	-10.1032
▁photographs	-10.1091
▁lay	-10.1117
▁tile	-10.112
▁village	-10.1147
▁birthday	-10.1147
▁outstretched	-10.1147
▁City	-10.1147
▁naked	-10.1148
▁called	-10.1148
▁pack	-10.1231
▁suitcase	-10.1238
▁electronic	-10.1238
▁barrel	-10.1238
o	-10.1256
▁land	-10.126
▁push	-10.126
▁jewelry	-10.1265
▁patterned	-10.1266
▁pigeons	-10.1273
▁doors	-10.1276
▁cuts	-10.1322
▁blow	-10.1353
▁float	-10.1354
▁waist	-10.1355
▁knit	-10.1356
▁chicken	-10.1357
▁skater	-10.1359
▁fix	-10.138
!	-10.1381
▁excited	-10.1383
▁beneath	-10.1384
▁married	-10.1384
▁security	-10.1384
▁dreadlocks	-10.1384
▁apartment	-10.139
▁falls	-10.1429
▁directions	-10.1431
▁dune	-10.1478
▁ribbon	-10.1478
▁vegetable	-10.1478
▁rough	-10.1504
▁hall	-10.1505
▁wading	-10.1505
▁horseback	-10.1505
▁checks	-10.1526
▁uniformed	-10.1528
▁balances	-10.1537
▁bow	-10.1595
▁name	-10.1597
▁pizza	-10.1599
▁exercise	-10.16
▁Boys	-10.1601
▁reach	-10.1622
▁pretty	-10.1627
▁rural	-10.1627
▁discussion	-10.1627
▁terrain	-10.1627
▁wings	-10.1627
▁photographed	-10.1631
▁training	-10.1653
▁telephone	-10.1718
▁pen	-10.1718
▁donkey	-10.1723
▁bare	-10.1725
▁gathers	-10.1729
▁artwork	-10.175
▁dimly	-10.175
▁hillside	-10.1753
▁upon	-10.1766
▁star	-10.1796
▁speed	-10.1846
▁converse	-10.1848
▁fisherman	-10.1875
▁attending	-10.1876
▁traveling	-10.1876
▁collared	-10.188
▁passengers	-10.1895
▁youth	-10.191
▁form	-10.1926
▁shovels	-10.1946
▁shops	-10.1947
▁stack	-10.1971
▁trailer	-10.1973
▁observe	-10.1973
▁case	-10.1974
▁barrier	-10.1975
▁dish	-10.1996
▁farm	-10.2
▁casual	-10.2001
▁jungle	-10.2002
▁derby	-10.2002
▁fancy	-10.2002
▁petting	-10.2002
▁unicycle	-10.2102
▁rug	-10.2103
▁control	-10.2103
▁gown	-10.2103
▁doctor	-10.2103
▁power	-10.2128
▁motor	-10.213
▁steel	-10.213
▁straight	-10.213
▁partially	-10.213
▁furry	-10.213
▁applying	-10.213
▁teaching	-10.213
▁pottery	-10.213
▁leads	-10.2161
▁kite	-10.2233
▁card	-10.2259
▁calf	-10.226
▁still	-10.226
▁slightly	-10.226
▁&	-10.226
▁discussing	-10.226
▁kayaking	-10.2264
▁turning	-10.2265
▁tug	-10.23
▁cleans	-10.2304
▁sides	-10.231
▁seats	-10.2329
▁Caucasian	-10.2359
▁act	-10.2361
▁patient	-10.2362
▁snack	-10.2362
▁wrestle	-10.2363
▁billboard	-10.2364
▁tight	-10.2364
▁jockey	-10.2365
▁teammate	-10.2365
▁ethnic	-10.2391
▁broken	-10.2391
▁dusk	-10.2391
▁fluffy	-10.2391
▁furniture	-10.2391
▁mobile	-10.2391
▁more	-10.2391
▁had	-10.2391
▁shaved	-10.2392
▁camping	-10.2392
▁tattooed	-10.2396
▁bath	-10.2403
▁thumbs	-10.2404
▁clouds	-10.2407
▁P	-10.2411
▁soda	-10.2497
▁fan	-10.2498
▁greyhound	-10.2498
▁customer	-10.2498
▁Police	-10.2524
▁religious	-10.2525
▁clapping	-10.2525
▁clay	-10.2525
▁great	-10.2525
▁crouching	-10.2525
▁engaged	-10.2525
▁bleachers	-10.2525
▁overhead	-10.2527
▁rainy	-10.2529
▁parents	-10.2534
▁tower	-10.2629
▁Crowd	-10.2631
▁craft	-10.2631
▁live	-10.2631
▁cheek	-10.2633
▁dust	-10.2653
▁most	-10.2659
▁sandwich	-10.2659
▁advertising	-10.266
▁flipping	-10.266
▁mixing	-10.266
▁protesting	-10.2662
▁numbers	-10.2696
▁jet	-10.2723
▁buy	-10.2731
▁present	-10.2765
▁doll	-10.2769
▁trunk	-10.277
▁engine	-10.2796
▁similar	-10.2796
▁factory	-10.2797
▁gymnasium	-10.2797
▁slacks	-10.2797
▁clad	-10.2797
▁coloring	-10.28
▁candles	-10.2812
of	-10.2844
▁finish	-10.2931
▁though	-10.2932
▁calm	-10.2932
American	-10.2934
▁thin	-10.2935
▁fencing	-10.2936
▁placing	-10.2936
▁section	-10.2936
▁grinding	-10.2936
▁downhill	-10.2936
▁inspecting	-10.2936
▁loading	-10.2937
▁follows	-10.2952
▁crafts	-10.2963
▁cooks	-10.2971
▁wind	-10.3044
▁drill	-10.3044
▁bear	-10.3046
▁share	-10.3048
▁drive	-10.3048
▁flute	-10.3049
▁hug	-10.3049
▁tourist	-10.305
▁splash	-10.3072
▁ornate	-10.3076
▁chalk	-10.3076
▁written	-10.3076
▁chinese	-10.3076
▁creating	-10.3076
▁yoga	-10.3076
▁filling	-10.3077
▁following	-10.3078
▁starting	-10.3079
▁tape	-10.3079
▁gymnastics	-10.3083
▁bends	-10.3093
▁examines	-10.3099
▁tourists	-10.3103
▁C	-10.311
▁covers	-10.311
▁paddles	-10.3116
▁races	-10.3143
▁glove	-10.3192
▁teen	-10.3195
▁Football	-10.3219
▁Middle	-10.3219
▁folded	-10.322
▁branches	-10.322
al	-10.3228
▁bricks	-10.3249
go	-10.3257
▁athletes	-10.3261
▁rows	-10.3294
▁check	-10.3333
▁leap	-10.3334
▁come	-10.3338
▁Multiple	-10.3364
▁weaving	-10.3364
▁spraying	-10.3368
▁amidst	-10.3372
▁carts	-10.3372
▁point	-10.3479
▁spoon	-10.348
▁kilt	-10.3482
▁cello	-10.3482
▁moment	-10.3482
▁duck	-10.3483
▁cage	-10.3483
▁material	-10.3485
▁batter	-10.351
▁tea	-10.351
▁dead	-10.3511
▁variety	-10.3511
▁free	-10.3512
▁closely	-10.3514
▁wheelie	-10.3514
▁laptops	-10.3608
▁stroll	-10.3631
▁stall	-10.3632
▁It	-10.3633
▁dive	-10.3633
▁sprinkler	-10.3634
▁tropical	-10.3661
▁fake	-10.3661
▁theater	-10.3661
▁beanie	-10.3661
▁belly	-10.3661
▁fireman	-10.3662
▁whom	-10.3671
▁pins	-10.3679
▁gestures	-10.3681
▁listens	-10.3686
▁larger	-10.3693
▁games	-10.376
▁loom	-10.3782
▁seem	-10.3783
▁trashcan	-10.3784
▁chase	-10.3784
war	-10.3785
▁patch	-10.3805
▁relax	-10.3808
▁chess	-10.3812
▁groceries	-10.3812
▁scenic	-10.3812
▁nature	-10.3812
▁hotel	-10.3812
▁crouched	-10.3812
▁coaster	-10.3812
▁nighttime	-10.3813
▁pale	-10.3813
▁pours	-10.3818
▁viewing	-10.3826
▁ages	-10.3829
▁tires	-10.3842
▁swimmers	-10.3857
▁practices	-10.3862
▁parachute	-10.3929
▁forehead	-10.3934
▁listen	-10.3935
▁iron	-10.3935
▁ATV	-10.3937
▁television	-10.3937
▁silhouette	-10.3937
▁repair	-10.3937
▁leaf	-10.3937
▁participate	-10.3937
▁word	-10.394
▁far	-10.3963
▁venue	-10.3966
▁aisle	-10.3966
▁world	-10.3966
▁scenery	-10.3966
▁messy	-10.3966
▁done	-10.3967
▁casually	-10.3967
▁pathway	-10.3967
▁placed	-10.3971
▁stare	-10.3989
▁observes	-10.3998
▁1	-10.402
▁turns	-10.4051
▁speak	-10.4093
▁reflection	-10.4093
▁apple	-10.4096
▁puppies	-10.4122
▁grabbing	-10.4122
▁juice	-10.4122
▁rally	-10.4122
▁circular	-10.4122
▁carefully	-10.4122
▁firemen	-10.4123
▁tossing	-10.4123
▁saying	-10.4123
▁sized	-10.4123
▁opens	-10.4127
▁notes	-10.4134
▁peers	-10.4134
▁jumped	-10.4142
▁firefighters	-10.4147
▁hugs	-10.4152
▁cameras	-10.4154
▁played	-10.4172
▁mop	-10.4252
▁flat	-10.4252
▁moped	-10.4255
▁dot	-10.426
▁s	-10.4266
▁canvas	-10.4281
▁chatting	-10.4281
▁rollerskating	-10.4281
▁chalkboard	-10.4281
▁shoreline	-10.4282
▁chewing	-10.4282
▁wares	-10.4282
▁approaching	-10.4282
▁binoculars	-10.4283
i	-10.4291
▁lighting	-10.431
▁lifts	-10.433
▁surfs	-10.4334
▁eastern	-10.4382
▁exhibit	-10.4411
▁wheelbarrow	-10.4413
S	-10.4414
▁masks	-10.4415
round	-10.4417
▁displays	-10.4425
▁celebration	-10.4442
▁missing	-10.4442
▁yarn	-10.4442
▁hind	-10.4442
▁rollerblading	-10.4442
▁skinny	-10.4442
▁supplies	-10.4442
▁tiny	-10.4442
▁touches	-10.4443
▁adjusting	-10.4443
▁pigtails	-10.4443
▁snowshoes	-10.4443
▁rolled	-10.4444
▁presents	-10.4473
▁houses	-10.4543
▁couples	-10.4551
▁bowls	-10.4564
▁score	-10.4577
▁logo	-10.458
▁firefighter	-10.458
▁passenger	-10.458
▁bite	-10.458
▁own	-10.4603
▁Eight	-10.4606
▁environment	-10.4606
▁oven	-10.4606
▁umpire	-10.4606
▁descent	-10.4606
▁London	-10.4606
▁Elderly	-10.4606
▁sunlight	-10.4606
▁alleyway	-10.4606
▁Red	-10.4607
▁kisses	-10.4607
▁sweeps	-10.4615
▁teammates	-10.4639
re	-10.4647
▁shadows	-10.4648
▁shades	-10.4662
▁hoops	-10.4674
▁design	-10.4741
▁examine	-10.4745
▁vendors	-10.4748
▁seven	-10.4773
▁dough	-10.4773
▁silly	-10.4773
▁learning	-10.4773
▁tiled	-10.4774
▁win	-10.4775
▁modern	-10.4798
ers	-10.4804
▁lecture	-10.4896
▁stones	-10.4897
▁flips	-10.49
▁movie	-10.4913
▁tripod	-10.4913
▁embrace	-10.4914
▁horn	-10.4914
▁expression	-10.4915
▁wig	-10.4922
▁While	-10.4942
▁arcade	-10.4942
▁embracing	-10.4942
▁frozen	-10.4942
▁overweight	-10.4942
▁makeshift	-10.4942
▁chainsaw	-10.4942
▁quickly	-10.4942
▁landing	-10.4945
▁rollerskates	-10.4946
▁almost	-10.4951
▁products	-10.4962
▁eggs	-10.4964
▁racers	-10.4988
▁roll	-10.5083
▁turban	-10.5085
▁rod	-10.5086
▁Couple	-10.5087
▁stripe	-10.5087
▁camel	-10.5088
▁6	-10.5092
▁midst	-10.5093
▁torch	-10.5112
▁march	-10.5112
▁butterfly	-10.5115
▁medium	-10.5115
▁Students	-10.5117
▁rapids	-10.5118
▁printed	-10.5118
▁shakes	-10.5124
▁pads	-10.5131
▁crates	-10.5132
▁words	-10.5144
▁comes	-10.5146
▁machines	-10.5179
▁mini	-10.5182
▁serve	-10.5259
▁cheer	-10.5259
▁rack	-10.526
▁stump	-10.526
▁shower	-10.526
▁notebook	-10.5262
▁hut	-10.5263
▁lounge	-10.5263
▁ballerina	-10.5263
side	-10.5277
▁Baseball	-10.529
▁chocolate	-10.529
▁gallery	-10.529
▁industrial	-10.529
▁suspenders	-10.529
▁trench	-10.529
▁Baby	-10.529
▁spotted	-10.529
▁interacting	-10.5291
▁Pedestrians	-10.5292
▁pine	-10.5293
▁bagpipes	-10.53
▁Olympics	-10.5315
▁rolls	-10.5317
▁within	-10.5402
▁stomach	-10.5437
▁leotard	-10.5442
▁gift	-10.5442
▁owner	-10.5442
h	-10.5443
▁pay	-10.5466
▁hills	-10.5467
▁admiring	-10.5469
▁bamboo	-10.5469
▁valley	-10.5469
▁decorative	-10.5469
▁bulldozer	-10.5469
▁perched	-10.5469
▁debris	-10.5469
▁drawn	-10.547
▁scrubs	-10.547
▁rooftop	-10.5473
▁camels	-10.5496
▁cool	-10.5534
▁blankets	-10.5614
▁strip	-10.5619
▁nail	-10.5621
▁hike	-10.5623
▁tricycle	-10.5624
camera	-10.5648
▁semi	-10.565
▁Various	-10.565
▁bouncing	-10.565
▁rice	-10.565
▁lacrosse	-10.5651
▁built	-10.5651
▁turquoise	-10.5651
▁licking	-10.5651
▁knitting	-10.5651
▁underwear	-10.5652
▁dusty	-10.5652
▁begins	-10.5668
▁dives	-10.5683
▁tights	-10.5687
▁headed	-10.57
▁wires	-10.5701
▁toddlers	-10.5759
looking	-10.5772
▁skiers	-10.5778
▁indian	-10.5804
▁chin	-10.5805
▁bin	-10.5809
▁sailboat	-10.5809
▁boxer	-10.5814
▁contest	-10.5834
▁poor	-10.5835
▁helicopter	-10.5836
▁monument	-10.5836
▁stairway	-10.5836
▁Cheerleaders	-10.5836
▁playfully	-10.5837
▁rollerblades	-10.5838
▁brass	-10.5839
▁cute	-10.5839
▁Tourists	-10.5843
▁cameraman	-10.5844
▁B	-10.5852
or	-10.5864
▁give	-10.5893
▁swimsuits	-10.5904
▁lean	-10.5994
▁handrail	-10.5996
▁chat	-10.5997
▁hotdog	-10.5998
▁Olympic	-10.5998
▁diver	-10.5998
▁crown	-10.5998
▁wrestler	-10.5999
▁aprons	-10.6024
▁odd	-10.6024
▁joy	-10.6024
▁Mohawk	-10.6024
▁bathtub	-10.6024
▁contraption	-10.6024
▁demonstration	-10.6024
▁located	-10.6024
▁lounging	-10.6024
▁merchandise	-10.6024
▁pinata	-10.6024
▁trolley	-10.6024
▁monkey	-10.6024
▁approaches	-10.6025
▁praying	-10.6025
▁stretches	-10.6025
▁mower	-10.6025
▁tackled	-10.6026
▁beads	-10.6029
▁wheeled	-10.6033
▁writes	-10.6035
▁boards	-10.6128
▁scooters	-10.6148
▁trip	-10.6152
▁link	-10.6185
▁meet	-10.6186
▁motion	-10.6187
▁human	-10.6189
▁angel	-10.6189
▁gesture	-10.619
▁Kid	-10.619
▁newspapers	-10.6202
▁wash	-10.6205
▁cape	-10.6211
▁DJ	-10.6214
▁touch	-10.6216
▁surgery	-10.6217
▁company	-10.6217
▁wife	-10.6217
▁mohawk	-10.6217
▁motorized	-10.6217
▁story	-10.6217
▁brushes	-10.6217
▁highway	-10.6218
▁mountainside	-10.6222
▁tour	-10.6222
on	-10.6238
▁mouths	-10.6292
▁cans	-10.6366
▁load	-10.638
▁briefcase	-10.6385
▁location	-10.6413
▁shaggy	-10.6413
▁tiger	-10.6413
▁heavily	-10.6413
▁demonstrating	-10.6413
▁sledding	-10.6413
▁were	-10.6413
▁interesting	-10.6413
▁stilts	-10.6414
▁pretending	-10.6414
▁entertaining	-10.6414
▁followed	-10.6414
▁loaded	-10.6414
▁fishes	-10.6416
▁lifted	-10.6417
▁cargo	-10.6424
▁gazes	-10.6428
▁jogs	-10.643
▁un	-10.6506
▁curve	-10.658
▁scaffold	-10.6581
▁pumpkin	-10.6585
▁portrait	-10.6585
▁sack	-10.6585
▁pedestrian	-10.6586
lined	-10.6593
▁milk	-10.661
▁wild	-10.6612
▁information	-10.6612
▁burgundy	-10.6613
▁workshop	-10.6613
▁cycling	-10.6613
▁strapped	-10.6613
▁breakdancing	-10.6613
▁shiny	-10.6613
▁homemade	-10.6613
▁Band	-10.6613
▁displayed	-10.6624
▁teens	-10.665
▁figures	-10.6668
▁posters	-10.6674
▁St	-10.668
▁places	-10.6763
▁bib	-10.6783
▁rear	-10.6783
▁call	-10.6785
▁double	-10.6788
▁shawl	-10.6789
▁goat	-10.679
▁farmer	-10.6791
style	-10.6801
▁tail	-10.6801
▁banjo	-10.6817
▁cotton	-10.6817
▁hiding	-10.6817
▁containing	-10.6817
▁shining	-10.6817
▁policemen	-10.6817
▁punching	-10.6818
▁packed	-10.682
▁stringed	-10.6821
▁snowball	-10.6823
▁sidelines	-10.6824
▁clearing	-10.6826
▁tired	-10.683
▁colorfully	-10.6831
▁Dogs	-10.6838
▁containers	-10.6886
▁rings	-10.6932
▁lime	-10.6995
▁stoop	-10.6995
▁pillar	-10.6996
▁rifle	-10.6998
▁dig	-10.6999
▁egg	-10.6999
▁pin	-10.7001
▁nets	-10.7024
▁2012	-10.7024
▁elaborate	-10.7024
▁SUV	-10.7025
▁aerial	-10.7025
▁laboratory	-10.7025
▁miniature	-10.7025
▁Army	-10.7025
▁consisting	-10.7025
▁burning	-10.7025
▁studying	-10.7026
▁mountainous	-10.7027
▁planting	-10.7031
▁cast	-10.7032
▁adjusts	-10.7034
▁cab	-10.7037
▁wrestlers	-10.7055
▁images	-10.7106
▁pots	-10.7112
▁chefs	-10.7122
dressed	-10.7174
▁beret	-10.7206
▁sleep	-10.7208
▁complete	-10.7209
▁amount	-10.721
▁nun	-10.721
▁jumper	-10.7219
▁p	-10.7228
▁will	-10.7235
▁blood	-10.7237
▁soap	-10.7237
▁axe	-10.7237
▁sad	-10.7237
▁autumn	-10.7238
▁graduation	-10.7238
▁laundromat	-10.7238
▁leggings	-10.7238
▁science	-10.7238
▁Blue	-10.7238
▁chopping	-10.7238
▁vending	-10.7238
▁shepherd	-10.7238
▁stepping	-10.7238
▁tournament	-10.7238
▁headdress	-10.7238
▁businessman	-10.7239
▁stretched	-10.7239
▁entering	-10.724
▁underground	-10.724
▁Lots	-10.7241
▁splashed	-10.7241
▁handling	-10.7243
▁kicked	-10.7247
▁lips	-10.7252
▁sleeves	-10.7254
▁columns	-10.7254
▁re	-10.7266
▁ducks	-10.7277
▁snacks	-10.7281
▁beverages	-10.7301
▁artists	-10.7371
▁too	-10.7393
▁D	-10.7397
▁support	-10.7422
▁jeep	-10.7424
▁target	-10.7424
▁snowsuit	-10.7426
▁plain	-10.7427
▁highchair	-10.7427
▁brother	-10.7428
▁pet	-10.7429
▁grab	-10.7429
and	-10.7453
▁Asia	-10.7454
▁identical	-10.7455
▁Family	-10.7455
▁crosscountry	-10.7455
▁gazing	-10.7455
▁gesturing	-10.7455
▁tackling	-10.7455
▁toothbrush	-10.7455
▁warehouse	-10.7455
▁socializing	-10.7455
▁Hockey	-10.7455
▁stuck	-10.7455
▁driveway	-10.7455
▁attractive	-10.7456
▁washes	-10.7456
▁boarding	-10.7483
▁designs	-10.749
▁He	-10.7502
▁aged	-10.7538
▁statues	-10.763
▁dad	-10.7646
▁follow	-10.7647
▁cheese	-10.7648
▁mannequin	-10.765
▁pirate	-10.765
▁bend	-10.7651
▁tuxedo	-10.7651
▁strike	-10.7651
▁product	-10.7651
▁speaker	-10.7651
▁menu	-10.7671
▁department	-10.7678
▁flannel	-10.7678
▁involving	-10.7678
▁kiosk	-10.7678
▁reception	-10.7678
▁somewhere	-10.7678
▁supermarket	-10.7678
▁conductor	-10.7678
▁projector	-10.7679
▁daytime	-10.7679
▁belongings	-10.7679
▁sailing	-10.7679
▁framed	-10.768
th	-10.7681
▁Runners	-10.7683
▁squats	-10.7684
▁skills	-10.7684
▁crayons	-10.7686
▁cellphones	-10.7687
▁operates	-10.7695
▁grabs	-10.7705
▁repairs	-10.7716
▁care	-10.7721
▁picks	-10.7738
age	-10.7777
▁types	-10.7805
▁keep	-10.7865
▁retriever	-10.7873
▁TV	-10.7873
▁marble	-10.7874
▁service	-10.7875
▁cloud	-10.7877
▁spot	-10.7878
▁employee	-10.7878
▁bra	-10.7891
▁process	-10.7902
▁unusual	-10.7904
▁auditorium	-10.7905
▁caucasian	-10.7905
▁terminal	-10.7905
▁Hawaiian	-10.7905
▁sideways	-10.7905
▁cherry	-10.7905
▁dragging	-10.7905
▁scaling	-10.7905
▁clock	-10.7905
▁skyline	-10.7906
▁topless	-10.7909
▁decorations	-10.7914
▁guards	-10.7985
▁bottoms	-10.7999
▁cows	-10.8
▁logs	-10.8002
▁we	-10.8011
▁bikinis	-10.8064
▁pattern	-10.8106
▁dumpster	-10.8106
▁lasso	-10.8107
▁battle	-10.8108
▁spotlight	-10.8109
▁shape	-10.8109
▁drag	-10.8109
▁nurse	-10.8111
▁handle	-10.8118
▁Asians	-10.8127
▁8	-10.8137
▁School	-10.8137
▁British	-10.8137
▁activity	-10.8137
▁meadow	-10.8137
▁Shirtless	-10.8137
▁blurry	-10.8137
▁eyeglasses	-10.8137
▁Oriental	-10.8137
▁Spectators	-10.8138
▁marked	-10.8138
▁casting	-10.814
▁fireworks	-10.8141
▁letters	-10.8147
▁waterway	-10.8149
▁U	-10.8191
le	-10.8215
▁cowboys	-10.8229
▁age	-10.8242
▁photographers	-10.8271
▁They	-10.8281
▁build	-10.8306
▁mug	-10.8348
▁candle	-10.8349
▁upward	-10.8353
▁focus	-10.8371
▁festive	-10.8374
▁Mexican	-10.8375
▁babies	-10.8375
▁campfire	-10.8375
▁champagne	-10.8375
▁facial	-10.8375
▁featuring	-10.8375
▁foliage	-10.8375
▁harbor	-10.8375
▁hydrant	-10.8375
▁lining	-10.8375
▁passersby	-10.8375
▁Mother	-10.8375
▁browsing	-10.8375
▁blurred	-10.8376
▁tarp	-10.8376
▁blazer	-10.8376
▁whistle	-10.8376
▁bedroom	-10.8376
▁relaxes	-10.8376
▁visiting	-10.8376
▁bundled	-10.8376
▁scissors	-10.8376
▁crashing	-10.8377
▁peering	-10.8377
▁whose	-10.8377
▁skies	-10.8378
▁shoppers	-10.8379
▁beers	-10.8385
▁groups	-10.8404
▁hotdogs	-10.8409
▁magazines	-10.8436
▁signing	-10.8438
▁tags	-10.8438
▁booths	-10.85
▁Shepherd	-10.8588
▁instructor	-10.8589
▁disc	-10.859
▁canal	-10.859
l	-10.8602
▁thick	-10.8619
▁horizon	-10.8619
▁Canadian	-10.8619
▁Hispanic	-10.8619
▁aquarium	-10.8619
▁scarves	-10.8619
▁skull	-10.8619
▁series	-10.8619
▁transit	-10.8619
▁victory	-10.8619
▁staff	-10.8619
▁zone	-10.8619
▁shelf	-10.862
▁yelling	-10.862
▁surprised	-10.862
▁really	-10.862
▁ingredients	-10.862
▁focused	-10.8621
▁electrical	-10.8622
▁trucks	-10.8622
▁upper	-10.8623
▁bystanders	-10.8623
▁pauses	-10.863
▁blocking	-10.8631
▁protesters	-10.8632
▁characters	-10.8637
▁bananas	-10.8641
lit	-10.8643
▁digs	-10.8651
▁boxers	-10.8657
▁advertisements	-10.8704
▁G	-10.8713
▁than	-10.8812
▁enter	-10.8837
▁huddle	-10.8841
▁purchase	-10.8841
▁raise	-10.8842
▁tablecloth	-10.8842
▁monitor	-10.8846
▁Smiling	-10.8869
▁chopsticks	-10.8869
▁temple	-10.8869
▁else	-10.8869
▁emergency	-10.8869
▁fellow	-10.8869
▁bronco	-10.8869
▁extended	-10.887
▁draped	-10.887
▁checked	-10.8872
▁pushed	-10.8873
▁grinds	-10.8875
▁earrings	-10.888
▁got	-10.8882
▁inspects	-10.889
▁numbered	-10.889
▁stars	-10.8923
▁floats	-10.8926
▁heading	-10.8955
▁clowns	-10.9015
▁foods	-10.9018
▁us	-10.9041
top	-10.908
▁camp	-10.9093
▁travel	-10.9094
▁celebrate	-10.9098
▁muzzle	-10.9098
▁raincoat	-10.9098
▁handbag	-10.9098
▁ticket	-10.9099
▁crate	-10.9099
▁here	-10.9099
▁amid	-10.9126
▁Square	-10.9126
▁casino	-10.9126
▁christmas	-10.9126
▁community	-10.9126
▁digital	-10.9126
▁dinosaur	-10.9126
▁morning	-10.9126
▁natural	-10.9126
▁receiving	-10.9126
▁buffet	-10.9126
▁snake	-10.9126
▁China	-10.9126
▁Native	-10.9126
▁stirring	-10.9126
▁lion	-10.9126
▁earphones	-10.9126
▁paperwork	-10.9126
▁bush	-10.9127
▁filming	-10.9127
▁tv	-10.9128
▁finishing	-10.913
▁prepared	-10.913
▁Firefighters	-10.9131
▁used	-10.9131
▁mic	-10.9132
▁sprayed	-10.9132
▁passed	-10.9136
▁overlooks	-10.9141
▁costumed	-10.9142
man	-10.9142
▁me	-10.9142
▁sorting	-10.9143
▁roses	-10.9143
▁farmers	-10.916
▁lighted	-10.9164
▁pictured	-10.9183
▁motorcyclists	-10.9193
▁jumpsuits	-10.9205
an	-10.9299
▁desks	-10.9344
▁stores	-10.9351
▁sharp	-10.9356
▁razor	-10.9357
▁ATM	-10.9359
▁olive	-10.9359
▁Skateboarder	-10.9359
▁curtain	-10.936
▁wrap	-10.9361
▁marker	-10.9362
▁poodle	-10.9362
▁McDonald	-10.9362
▁ten	-10.9376
▁punch	-10.9384
green	-10.9387
▁bartender	-10.9389
▁bmx	-10.9389
▁harmonica	-10.9389
▁injured	-10.9389
▁personnel	-10.9389
▁establishment	-10.9389
▁lush	-10.9389
▁buried	-10.9389
▁afternoon	-10.9389
▁tribal	-10.9389
▁European	-10.9389
▁deer	-10.939
▁Eastern	-10.939
▁pointed	-10.9392
▁paying	-10.9392
▁presenting	-10.9393
▁asking	-10.9396
▁dryer	-10.9414
▁employees	-10.942
▁serves	-10.9429
▁sheets	-10.9484
▁sail	-10.9531
▁7	-10.9546
▁trains	-10.9583
▁treat	-10.9628
▁find	-10.9631
▁awning	-10.9631
▁level	-10.9631
▁garment	-10.9632
▁tutu	-10.9632
▁begin	-10.9633
white	-10.9657
▁India	-10.9658
▁main	-10.9659
▁Dark	-10.9659
▁eight	-10.9659
▁raking	-10.9659
▁when	-10.9659
▁Basketball	-10.9659
▁Closeup	-10.9659
▁icy	-10.9659
▁laid	-10.9659
▁portable	-10.9659
▁directly	-10.9659
▁sniffing	-10.9659
▁twirling	-10.966
▁bay	-10.966
▁tending	-10.966
▁freshly	-10.9661
▁recording	-10.9661
▁rafting	-10.9667
▁crops	-10.9668
▁tuba	-10.967
▁cigarettes	-10.9675
▁pad	-10.9687
▁sweaters	-10.9696
▁bites	-10.9704
▁pipes	-10.9758
▁M	-10.986
▁paintings	-10.9873
▁purses	-10.9877
▁pilot	-10.9905
▁antique	-10.9905
▁vacuum	-10.9907
▁trim	-10.9909
▁boulder	-10.991
▁cleaner	-10.991
▁cheerleader	-10.9911
▁flock	-10.9934
▁fetch	-10.9934
shaped	-10.9935
▁fashion	-10.9935
▁competitive	-10.9936
▁intense	-10.9936
▁late	-10.9936
▁apart	-10.9937
▁alcohol	-10.9937
▁commercial	-10.9937
▁maintenance	-10.9937
▁striking	-10.9937
▁surgical	-10.9937
▁suburban	-10.9937
▁much	-10.9937
▁perhaps	-10.9937
▁protection	-10.9937
▁beginning	-10.9937
▁rowboat	-10.9937
▁screaming	-10.9937
▁Protesters	-10.9937
▁flowing	-10.9937
▁backseat	-10.9937
▁labeled	-10.9938
▁tying	-10.9938
▁system	-10.9938
▁driven	-10.994
▁contents	-10.994
▁waterskiing	-10.994
▁drilling	-10.9941
▁acting	-10.9942
▁clothed	-10.9946
▁photographing	-10.9949
▁entertains	-10.9955
▁scouts	-10.9955
▁lower	-10.9964
▁oranges	-10.9966
▁apples	-10.9985
▁youths	-10.9997
▁speeds	-10.9997
▁shoots	-11.0002
▁de	-11.0036
k	-11.0044
▁kayaks	-11.0046
▁climbers	-11.0052
▁stunts	-11.0057
▁khakis	-11.0071
▁piles	-11.0179
▁quarterback	-11.0191
▁surround	-11.0192
▁experiment	-11.0192
▁feather	-11.0193
▁text	-11.0193
▁pencil	-11.0194
▁rickshaw	-11.0194
▁thumb	-11.0196
▁stretch	-11.0218
▁pony	-11.0222
▁racquet	-11.0223
▁With	-11.0223
▁bicycling	-11.0223
▁completing	-11.0223
▁medieval	-11.0223
▁progress	-11.0223
▁reddish	-11.0223
▁unhappy	-11.0223
▁wilderness	-11.0223
▁fedora	-11.0223
▁unknown	-11.0223
▁last	-11.0223
▁Green	-11.0223
▁hardwood	-11.0223
▁cave	-11.0223
▁fat	-11.0223
▁goatee	-11.0223
▁US	-11.0223
▁peeking	-11.0223
▁dragon	-11.0223
▁awaiting	-11.0224
▁exiting	-11.0224
▁warmly	-11.0225
▁juggles	-11.0225
▁stacked	-11.0227
▁workout	-11.0228
▁barefooted	-11.0232
▁Adults	-11.0236
▁seagulls	-11.0241
out	-11.0242
▁draws	-11.0244
I	-11.0247
▁feathers	-11.0249
▁pillars	-11.0259
▁upwards	-11.026
▁skaters	-11.0288
▁pillows	-11.0291
▁necklaces	-11.0308
▁hurdles	-11.0322
▁pig	-11.0442
▁record	-11.0476
▁Toddler	-11.0485
▁fill	-11.0486
▁bounce	-11.0488
▁sailor	-11.0488
▁package	-11.0489
▁official	-11.0489
▁pocket	-11.049
▁mountaintop	-11.0491
▁golfer	-11.0493
▁wheeler	-11.0493
▁arch	-11.0494
sized	-11.0504
▁stuff	-11.0513
▁rescue	-11.0515
▁America	-11.0516
▁soft	-11.0516
▁unique	-11.0516
▁lens	-11.0516
▁flaming	-11.0517
▁Jenga	-11.0517
▁accident	-11.0517
▁asphalt	-11.0517
▁vegetation	-11.0517
▁vintage	-11.0517
▁During	-11.0517
▁least	-11.0517
▁social	-11.0517
▁cafeteria	-11.0517
▁propped	-11.0517
▁convention	-11.0517
▁sparring	-11.0517
▁metro	-11.0517
▁cries	-11.0517
▁mechanical	-11.0517
▁frying	-11.0517
▁conducting	-11.0517
▁sparks	-11.0519
▁named	-11.052
▁bowler	-11.0523
▁Musicians	-11.0528
▁snowman	-11.0531
▁chips	-11.0532
P	-11.0535
to	-11.0537
▁aqua	-11.0576
▁greyhounds	-11.0576
▁rocking	-11.061
▁aiming	-11.062
▁belts	-11.0628
▁jog	-11.073
▁strollers	-11.0734
▁ties	-11.077
▁classic	-11.0783
▁separate	-11.0786
▁sound	-11.0788
▁stance	-11.0788
▁say	-11.0792
▁plank	-11.0792
▁task	-11.0793
▁fist	-11.0793
▁bracelet	-11.0793
▁banana	-11.0793
▁watermelon	-11.0794
▁cop	-11.0794
▁love	-11.0802
▁riot	-11.0817
▁Miami	-11.082
▁badminton	-11.082
▁canopy	-11.082
▁cattle	-11.082
▁hammock	-11.082
▁nightclub	-11.082
▁pacifier	-11.082
▁pyramid	-11.082
▁substance	-11.082
▁greenery	-11.082
▁hunched	-11.082
▁cluttered	-11.082
▁caution	-11.082
▁exercising	-11.082
▁illuminated	-11.082
▁USA	-11.082
▁bookstore	-11.082
▁tosses	-11.082
▁sundress	-11.082
▁crawling	-11.082
▁mixer	-11.082
▁completely	-11.0821
▁uphill	-11.0821
▁mess	-11.0822
▁texting	-11.0822
▁early	-11.0823
▁fashioned	-11.0823
▁checkers	-11.0824
▁fog	-11.0826
▁paws	-11.0833
▁tips	-11.0837
▁scales	-11.0839
▁hips	-11.0845
▁forested	-11.0845
g	-11.0859
▁nails	-11.0865
▁jockeys	-11.0882
▁ribbons	-11.0888
▁beams	-11.0917
▁siting	-11.0924
▁news	-11.0949
ts	-11.1011
▁war	-11.1055
▁fields	-11.1084
▁butcher	-11.11
T	-11.11
▁fit	-11.1101
▁holiday	-11.1103
▁puppet	-11.1103
▁peak	-11.1104
▁spike	-11.1104
▁test	-11.1105
▁waiter	-11.1106
▁even	-11.1127
▁Number	-11.113
▁Claus	-11.1131
▁quiet	-11.1132
▁fell	-11.1132
▁potato	-11.1132
▁sat	-11.1132
▁deli	-11.1132
▁Spanish	-11.1132
▁applies	-11.1132
▁excitement	-11.1132
▁mascot	-11.1132
▁murky	-11.1132
▁muscular	-11.1132
▁numerous	-11.1132
▁trophy	-11.1132
▁buggy	-11.1132
▁cheerleading	-11.1132
▁harp	-11.1132
▁bunny	-11.1132
▁involved	-11.1132
▁collection	-11.1132
▁carrier	-11.1132
▁fireplace	-11.1132
▁visor	-11.1132
▁facility	-11.1132
▁Nike	-11.1133
▁ruins	-11.1133
▁braided	-11.1133
▁bakery	-11.1133
▁mounted	-11.1133
▁steering	-11.1134
▁countryside	-11.1134
▁served	-11.1134
▁dribbles	-11.1134
▁vacuuming	-11.1135
▁fatigues	-11.1136
▁newly	-11.1136
▁waterfront	-11.1137
▁whole	-11.1141
▁includes	-11.1142
▁roadside	-11.1147
▁gardening	-11.1148
▁accompanied	-11.1149
▁skin	-11.1161
▁travels	-11.1165
▁monitors	-11.1166
▁merr	-11.1173
▁parka	-11.1181
▁doctors	-11.1198
▁looked	-11.1204
▁nearly	-11.1204
▁watering	-11.1214
▁swords	-11.1214
A	-11.1273
▁surfers	-11.1397
▁inspect	-11.1422
▁Muslim	-11.1423
▁engage	-11.1424
▁treadmill	-11.1425
▁archway	-11.1425
▁senior	-11.1427
▁cigar	-11.1427
▁hip	-11.1427
▁stair	-11.1429
▁viewer	-11.1437
▁shelter	-11.1453
filled	-11.1453
▁foam	-11.1454
▁waitress	-11.1454
▁Numerous	-11.1455
▁Walmart	-11.1455
▁because	-11.1455
▁canyon	-11.1455
▁lobby	-11.1455
▁riverbank	-11.1455
▁megaphone	-11.1455
▁radio	-11.1455
▁Bull	-11.1455
▁inflated	-11.1455
▁sponsored	-11.1455
▁weird	-11.1455
▁cash	-11.1455
▁directing	-11.1456
▁collecting	-11.1456
▁harvesting	-11.1456
▁fixes	-11.1456
▁mixed	-11.1456
▁Friends	-11.1456
▁soup	-11.1457
▁finished	-11.1459
▁roadway	-11.146
▁lands	-11.1461
▁ordering	-11.1461
▁L	-11.1471
▁breaking	-11.1472
▁flames	-11.1478
pong	-11.1492
▁spots	-11.1493
▁horns	-11.1506
▁tiles	-11.153
▁these	-11.1554
▁motorbikes	-11.1559
▁sprays	-11.1575
▁rails	-11.1689
▁cruise	-11.1753
▁change	-11.1757
▁clarinet	-11.1759
▁elevator	-11.176
▁bundle	-11.176
▁guide	-11.176
▁companion	-11.176
▁toilet	-11.1761
▁diner	-11.1761
▁monk	-11.1762
▁baton	-11.1763
▁avoid	-11.1771
▁steam	-11.1783
▁polish	-11.1784
▁rush	-11.1786
legged	-11.1786
▁incline	-11.1787
▁Military	-11.1788
▁activities	-11.1788
▁bungee	-11.1788
▁carousel	-11.1788
▁Coca	-11.1788
▁lipstick	-11.1788
▁wiping	-11.1788
▁enclosed	-11.1788
▁foggy	-11.1788
▁jack	-11.1788
▁salon	-11.1788
▁easel	-11.1788
▁bored	-11.1788
▁peach	-11.1788
▁kickboxing	-11.1788
▁dried	-11.1789
▁stopping	-11.1789
▁tomatoes	-11.1789
▁sculpting	-11.1789
▁mowing	-11.1789
▁may	-11.1789
▁length	-11.1789
▁Customers	-11.179
▁curved	-11.179
▁silhouetted	-11.1791
▁clothesline	-11.1791
▁licks	-11.1791
▁Times	-11.1791
▁ping	-11.1792
▁shines	-11.1793
▁upset	-11.1796
▁bridesmaids	-11.1799
▁years	-11.1802
▁strikes	-11.1829
▁pets	-11.183
▁opened	-11.1834
▁divers	-11.1835
▁stacks	-11.186
▁pro	-11.1919
▁canoes	-11.1961
▁c	-11.1961
p	-11.2038
▁organ	-11.2053
▁dunk	-11.2102
▁barricade	-11.2104
▁peer	-11.2105
▁operate	-11.2105
▁beat	-11.2105
▁scientist	-11.2105
▁gaze	-11.2108
▁painter	-11.2113
▁arrow	-11.2128
jump	-11.213
▁special	-11.2132
▁serious	-11.2132
▁Scottish	-11.2133
▁breakfast	-11.2133
▁unfinished	-11.2133
▁yawning	-11.2133
▁slam	-11.2133
▁Nine	-11.2133
▁oil	-11.2133
▁torn	-11.2133
▁varying	-11.2133
▁South	-11.2133
▁quad	-11.2133
▁shelves	-11.2133
▁napping	-11.2133
▁worn	-11.2133
▁explaining	-11.2133
▁baked	-11.2133
▁grand	-11.2134
▁cityscape	-11.2134
▁huddled	-11.2135
w	-11.2137
▁speeding	-11.2139
▁Soldiers	-11.2139
▁braids	-11.2142
▁hammering	-11.2143
▁blocked	-11.2147
ment	-11.2149
▁redhead	-11.215
▁lanterns	-11.2151
▁shaves	-11.2155
▁nurses	-11.2173
▁sacks	-11.218
▁sprinklers	-11.2196
▁strolls	-11.2196
▁materials	-11.2197
▁cheeks	-11.2202
▁walked	-11.2235
▁opponents	-11.2242
▁fountains	-11.2271
▁microscopes	-11.2324
▁10	-11.234
▁weight	-11.2342
▁floors	-11.2416
▁file	-11.2419
▁sleeve	-11.2421
▁picket	-11.2421
▁grills	-11.2425
▁coast	-11.2457
▁R	-11.2457
▁spring	-11.2459
▁draw	-11.2459
▁stay	-11.246
▁interact	-11.246
▁elbow	-11.246
▁Snowboarder	-11.246
▁elder	-11.2461
▁zip	-11.2461
▁headset	-11.2462
▁column	-11.2462
▁turkey	-11.2462
▁Cowboy	-11.2463
▁sister	-11.2463
▁kimono	-11.2463
▁cookie	-11.2464
▁cable	-11.2464
C	-11.2472
▁approach	-11.2486
clad	-11.2488
▁flour	-11.2489
▁complex	-11.249
▁Beautiful	-11.249
▁gliding	-11.249
▁piggyback	-11.249
▁preparation	-11.249
▁slicing	-11.249
▁sunbathing	-11.249
▁trimming	-11.249
▁woven	-11.249
▁mouse	-11.249
▁threw	-11.249
▁massive	-11.249
▁maybe	-11.249
▁skydiving	-11.249
▁Elmo	-11.249
▁connected	-11.249
▁barren	-11.2491
▁those	-11.2491
▁baggy	-11.2491
▁mass	-11.2491
▁parasailing	-11.2491
▁unloading	-11.2491
▁filmed	-11.2492
▁pickup	-11.2492
▁prayer	-11.2492
▁leashes	-11.2493
▁nicely	-11.2495
▁rag	-11.2495
▁parallel	-11.2502
▁pressure	-11.2503
▁picker	-11.2507
▁Cyclists	-11.2508
▁ambulance	-11.2509
▁spins	-11.2512
▁monks	-11.2519
▁watermelons	-11.2522
▁handles	-11.2534
▁helmeted	-11.2561
▁bows	-11.257
▁banners	-11.263
▁n	-11.263
▁mats	-11.2651
▁Guys	-11.2652
▁toe	-11.2658
yo	-11.2687
▁F	-11.2725
one	-11.2752
▁e	-11.2764
▁maneuver	-11.2829
▁tracksuit	-11.283
▁circuit	-11.2831
▁John	-11.2831
▁automobile	-11.2832
▁swan	-11.2832
▁possession	-11.2833
▁leader	-11.2833
▁character	-11.2834
▁cooler	-11.2835
▁offering	-11.2835
▁flame	-11.2835
▁Bald	-11.2858
wheeled	-11.2859
▁sold	-11.286
▁vertical	-11.286
▁robot	-11.286
▁period	-11.2861
▁boogie	-11.2861
▁Brunette	-11.2861
▁barbecuing	-11.2861
▁exploring	-11.2861
▁handheld	-11.2861
▁political	-11.2861
▁Father	-11.2861
▁elevated	-11.2861
▁seafood	-11.2861
▁utility	-11.2861
▁dropping	-11.2861
▁University	-11.2861
▁scattered	-11.2861
▁such	-11.2861
▁typing	-11.2861
▁wrapping	-11.2861
▁wool	-11.2861
▁league	-11.2861
▁ridden	-11.2861
▁cartoon	-11.2861
▁overpass	-11.2861
▁adorned	-11.2861
▁clutching	-11.2861
▁descending	-11.2862
▁coveralls	-11.2862
▁muzzled	-11.2862
▁barking	-11.2862
▁similarly	-11.2863
▁patiently	-11.2863
▁Ice	-11.2863
▁Dancers	-11.2863
▁focusing	-11.2864
▁Sooners	-11.2864
▁strolling	-11.2866
▁handlebars	-11.2866
▁pop	-11.2866
▁sawing	-11.2868
▁thought	-11.2871
▁stirs	-11.2872
▁deserted	-11.2874
▁tends	-11.2879
▁ancient	-11.288
▁posed	-11.2885
▁suite	-11.2885
▁tow	-11.2905
▁multi	-11.2932
▁dolls	-11.2934
▁shirted	-11.2935
▁forms	-11.2941
▁E	-11.2948
▁sweatshirts	-11.2959
3	-11.296
▁handed	-11.2988
▁b	-11.3019
▁parts	-11.3029
▁We	-11.3067
▁phones	-11.3096
▁ax	-11.3124
sh	-11.3142
ist	-11.3156
land	-11.3157
▁hook	-11.3184
▁ladders	-11.3191
nd	-11.3199
▁wakeboard	-11.3208
▁register	-11.3212
▁mill	-11.3214
▁film	-11.3215
▁sight	-11.3215
cart	-11.3215
▁xylophone	-11.3215
▁mime	-11.3216
▁terrier	-11.3216
▁partner	-11.3217
▁drop	-11.3218
▁rose	-11.3219
▁parent	-11.3219
▁kayaker	-11.3222
▁note	-11.3228
▁smooth	-11.3243
▁soil	-11.3244
▁extreme	-11.3244
▁Orange	-11.3245
▁bridal	-11.3245
▁crazy	-11.3245
▁dishwasher	-11.3245
▁distant	-11.3245
▁families	-11.3245
▁floppy	-11.3245
▁javelin	-11.3245
▁measuring	-11.3245
▁relay	-11.3245
▁retrieving	-11.3245
▁salad	-11.3245
▁self	-11.3245
▁somewhat	-11.3245
▁struggling	-11.3245
▁sweatpants	-11.3245
▁campsite	-11.3245
▁crib	-11.3245
▁campus	-11.3245
▁angry	-11.3245
▁abandoned	-11.3245
▁synchronized	-11.3245
▁checkout	-11.3246
▁thinking	-11.3246
▁headgear	-11.3246
▁earth	-11.3246
▁my	-11.3247
▁harnesses	-11.3247
▁overcoat	-11.3248
▁leafy	-11.3248
▁fetching	-11.3248
▁chased	-11.3248
▁demonstrates	-11.3255
▁buses	-11.3257
▁drying	-11.3258
▁feeds	-11.3262
▁citizens	-11.3263
▁walker	-11.3264
▁Race	-11.3273
▁packages	-11.328
▁celebrates	-11.3286
▁gifts	-11.3304
▁ballerinas	-11.3305
▁dots	-11.3312
▁sheer	-11.337
ll	-11.3378
▁strings	-11.338
▁dressing	-11.3425
c	-11.3442
▁award	-11.3442
air	-11.3508
▁violins	-11.3512
▁screens	-11.3522
ball	-11.3534
▁H	-11.3547
line	-11.3549
▁toes	-11.3559
▁chisel	-11.3613
▁dump	-11.3616
▁turtle	-11.3616
▁attendant	-11.3616
▁blower	-11.3616
▁innertube	-11.3617
▁pie	-11.3617
▁bodysuit	-11.3618
▁coconut	-11.3618
▁strap	-11.3618
▁scout	-11.3619
▁lip	-11.3619
▁pigeon	-11.3619
▁Worker	-11.3619
▁lie	-11.3619
▁aboard	-11.3621
▁yo	-11.3622
▁panel	-11.3627
▁Park	-11.3643
▁led	-11.3643
▁saddle	-11.3644
▁vibrant	-11.3644
▁mailbox	-11.3645
▁cannon	-11.3645
▁hung	-11.3645
▁Jewish	-11.3645
▁collie	-11.3645
▁dilapidated	-11.3645
▁dribbling	-11.3645
▁enclosure	-11.3645
▁everywhere	-11.3645
▁flea	-11.3645
▁guiding	-11.3645
▁itself	-11.3645
▁purchasing	-11.3645
▁unseen	-11.3645
▁iPod	-11.3645
▁removing	-11.3645
▁fuzzy	-11.3645
▁halter	-11.3645
▁padded	-11.3645
▁cultural	-11.3645
▁moon	-11.3645
▁fleece	-11.3645
▁sucking	-11.3645
▁apparently	-11.3645
▁happening	-11.3646
▁backstroke	-11.3646
▁tulips	-11.3646
▁railway	-11.3646
▁basement	-11.3647
▁dyed	-11.3647
▁excitedly	-11.3648
▁somebody	-11.3648
▁crawls	-11.3652
▁toast	-11.3654
▁pitching	-11.3654
▁markings	-11.3655
▁guests	-11.3656
▁helped	-11.3657
▁skateboarders	-11.3658
▁hooping	-11.366
▁You	-11.3664
▁chews	-11.3667
ling	-11.3667
▁pedals	-11.367
▁stockings	-11.3671
▁barn	-11.3672
▁fully	-11.3675
▁cookies	-11.3676
▁She	-11.3693
u	-11.3704
b	-11.3725
▁m	-11.3757
able	-11.378
▁whiteboard	-11.3781
▁trainer	-11.3803
▁singers	-11.3843
▁cats	-11.3889
▁All	-11.3914
ting	-11.3989
▁railings	-11.3991
▁veil	-11.403
▁entertain	-11.403
▁Food	-11.4032
▁shave	-11.4032
▁height	-11.4032
▁mule	-11.4033
▁acrobatic	-11.4035
▁split	-11.4035
▁seagull	-11.4035
▁stocking	-11.4036
▁clap	-11.4038
it	-11.4039
piece	-11.4042
▁signal	-11.4049
▁scale	-11.4059
M	-11.4059
fashioned	-11.406
▁puzzle	-11.4061
▁Ladies	-11.4062
▁Marathon	-11.4062
▁Yellow	-11.4062
▁bouncy	-11.4062
▁confetti	-11.4062
▁district	-11.4062
▁earmuffs	-11.4062
▁equestrian	-11.4062
▁favorite	-11.4062
▁french	-11.4062
▁leopard	-11.4062
▁probably	-11.4062
▁remote	-11.4062
▁teddy	-11.4062
▁unison	-11.4062
▁wheat	-11.4062
▁storage	-11.4062
▁sipping	-11.4062
▁paintbrush	-11.4062
▁Market	-11.4062
▁mopping	-11.4062
▁English	-11.4062
▁tugging	-11.4062
▁cashier	-11.4062
▁Day	-11.4062
▁floaties	-11.4062
▁reflecting	-11.4062
▁scratching	-11.4062
▁heavyset	-11.4062
▁rusty	-11.4062
▁flooded	-11.4063
▁cause	-11.4063
▁searching	-11.4063
▁windbreaker	-11.4063
▁your	-11.4064
▁upright	-11.4064
wheeler	-11.4065
▁balanced	-11.4067
▁Legos	-11.4067
▁best	-11.4067
▁shaded	-11.4068
▁forming	-11.4069
▁warming	-11.4072
▁persons	-11.4072
▁sausages	-11.4077
▁wades	-11.408
▁likely	-11.4082
▁rabbits	-11.4082
▁films	-11.4091
▁pockets	-11.41
▁tuxedos	-11.4113
▁cheers	-11.4127
▁co	-11.413
▁shed	-11.4137
▁O	-11.4147
▁controls	-11.4151
▁pans	-11.4179
▁snowboards	-11.4204
▁drivers	-11.4213
▁K	-11.4246
▁devices	-11.4268
▁spin	-11.4315
▁hear	-11.4432
id	-11.4434
▁don	-11.4458
▁d	-11.4463
▁attack	-11.4465
▁mitt	-11.4465
▁destination	-11.4465
▁exit	-11.4465
▁pedal	-11.4465
▁rollerblader	-11.4467
▁seesaw	-11.4468
▁cabinet	-11.4468
▁dozen	-11.4468
▁Surfer	-11.4468
▁create	-11.4469
▁dessert	-11.4469
▁adolescent	-11.4469
▁defender	-11.447
▁washer	-11.447
▁powder	-11.4494
▁congregate	-11.4495
▁loose	-11.4496
▁patrol	-11.4497
▁major	-11.4497
▁found	-11.4497
▁Bearded	-11.4497
▁French	-11.4497
▁Very	-11.4497
▁architecture	-11.4497
▁carried	-11.4497
▁cathedral	-11.4497
▁ceremonial	-11.4497
▁corridor	-11.4497
▁exotic	-11.4497
▁hispanic	-11.4497
▁husband	-11.4497
▁liquor	-11.4497
▁operation	-11.4497
▁princess	-11.4497
▁ritual	-11.4497
▁snowcapped	-11.4497
▁wicker	-11.4497
▁Golden	-11.4497
▁array	-11.4497
▁roping	-11.4497
▁baking	-11.4497
▁squad	-11.4497
▁sumo	-11.4497
▁pub	-11.4497
▁residential	-11.4497
▁simultaneously	-11.4497
▁Cafe	-11.4497
▁solo	-11.4497
▁Texas	-11.4497
▁hopping	-11.4497
▁winning	-11.4497
▁arranged	-11.4497
▁snowstorm	-11.4497
▁strawberry	-11.4497
▁metallic	-11.4497
▁curling	-11.4497
▁laden	-11.4497
▁darkened	-11.4497
▁telling	-11.4497
▁trio	-11.4497
▁carved	-11.4497
▁captured	-11.4497
▁hauling	-11.4498
▁wakeboarding	-11.4499
▁milling	-11.4499
▁woodland	-11.4499
▁cabin	-11.45
▁formally	-11.4501
▁designed	-11.4501
▁Teenagers	-11.4503
▁cooked	-11.4504
▁seeds	-11.4505
▁weeds	-11.4506
▁participants	-11.4512
▁flowery	-11.4512
▁receives	-11.4516
▁seating	-11.4517
▁grins	-11.4518
▁pretends	-11.4521
▁took	-11.4523
▁creates	-11.4524
▁ref	-11.4524
▁weights	-11.453
▁muzzles	-11.4543
▁toss	-11.4547
D	-11.4549
▁goats	-11.4555
▁hikes	-11.4562
▁barrels	-11.4598
▁chains	-11.4653
▁rounds	-11.4672
▁kinds	-11.4715
▁island	-11.4717
ry	-11.4748
▁closes	-11.4792
▁f	-11.4863
▁9	-11.4864
▁breath	-11.4905
▁slot	-11.4918
▁protect	-11.4919
▁cubicle	-11.492
▁overlook	-11.4921
▁priest	-11.4921
▁await	-11.4922
▁message	-11.4923
▁dolphin	-11.4924
▁jar	-11.4924
▁sunhat	-11.4924
▁boot	-11.4925
▁rake	-11.4927
▁thing	-11.4927
▁bagpipe	-11.4928
▁downward	-11.4935
?	-11.4943
▁inline	-11.4945
▁mix	-11.4946
▁shack	-11.4948
▁talent	-11.4949
drawn	-11.4949
▁port	-11.4949
▁storm	-11.495
▁collide	-11.495
▁Snow	-11.495
▁tomato	-11.4951
▁Monopoly	-11.4951
▁cardigan	-11.4951
▁concentrating	-11.4951
▁depicting	-11.4951
▁headscarves	-11.4951
▁lavender	-11.4951
▁memorial	-11.4951
▁messenger	-11.4951
▁reclining	-11.4951
▁rubble	-11.4951
▁spatula	-11.4951
▁submerged	-11.4951
▁sunshine	-11.4951
▁daily	-11.4951
▁marina	-11.4951
▁Amish	-11.4951
▁Shoppers	-11.4951
▁professor	-11.4951
▁Arabic	-11.4951
▁Firemen	-11.4951
▁graphic	-11.4951
▁SpongeBob	-11.4951
▁lost	-11.4951
▁spandex	-11.4951
▁everyone	-11.4951
▁obscured	-11.4951
▁alcoholic	-11.4951
▁:	-11.4951
▁tongs	-11.4951
▁teaches	-11.4951
▁sure	-11.4952
▁potatoes	-11.4952
▁Rollerblades	-11.4952
▁constructing	-11.4952
▁businessmen	-11.4952
▁extremely	-11.4952
▁assisting	-11.4953
▁discuss	-11.4953
▁towed	-11.4953
▁given	-11.4954
▁legged	-11.4954
▁fork	-11.4956
▁contains	-11.4958
▁winding	-11.4959
▁carpeted	-11.4959
▁features	-11.4961
▁Players	-11.4961
▁hides	-11.4964
▁oncoming	-11.4968
▁Cars	-11.4973
st	-11.4982
▁sailboats	-11.5018
▁kites	-11.5048
▁exercises	-11.5054
▁Americans	-11.5055
▁chickens	-11.5056
▁elephants	-11.506
▁competes	-11.5074
▁surroundings	-11.5108
x	-11.511
red	-11.5122
▁wheelchairs	-11.513
▁Dirt	-11.514
▁buttons	-11.5157
▁sleds	-11.5199
▁sculptures	-11.5212
▁12	-11.5236
ng	-11.525
rd	-11.5281
▁i	-11.5319
▁hi	-11.536
▁cycle	-11.5384
▁plow	-11.5393
▁steer	-11.5396
▁technician	-11.5397
▁wand	-11.5398
▁pretend	-11.5398
▁Rock	-11.5398
▁smock	-11.5399
▁diaper	-11.5399
▁wrist	-11.5399
▁bowtie	-11.5399
▁newlywed	-11.5399
▁jogger	-11.54
▁write	-11.54
▁limb	-11.54
▁sari	-11.54
▁competitor	-11.5401
▁tip	-11.5402
▁backward	-11.5403
▁angle	-11.5404
▁crash	-11.5423
▁random	-11.5426
▁Easter	-11.5427
▁sash	-11.5427
▁High	-11.5427
▁Disney	-11.5427
▁Gentleman	-11.5427
▁Mouse	-11.5427
▁agility	-11.5427
▁apparatus	-11.5427
▁bronze	-11.5427
▁closing	-11.5427
▁crystal	-11.5427
▁dental	-11.5427
▁ditch	-11.5427
▁elementary	-11.5427
▁engaging	-11.5427
▁ensemble	-11.5427
▁girlfriend	-11.5427
▁overcast	-11.5427
▁resort	-11.5427
▁rising	-11.5427
▁escape	-11.5427
▁tightrope	-11.5427
▁crutches	-11.5427
▁Wall	-11.5427
▁vast	-11.5427
▁Korean	-11.5428
▁gum	-11.5428
▁scope	-11.5428
▁exhibition	-11.5428
▁rooster	-11.5428
▁recently	-11.5428
▁wineglasses	-11.5428
▁cobbled	-11.5428
▁our	-11.5428
▁delivery	-11.5428
▁tanned	-11.5428
▁stained	-11.5428
▁Gray	-11.5428
▁Onlookers	-11.5428
▁Speedo	-11.5428
▁pastries	-11.5428
▁lettering	-11.5429
▁Apple	-11.543
▁feathered	-11.543
▁keeping	-11.5432
▁beating	-11.5433
▁sniffs	-11.5433
▁bearing	-11.5436
▁positioned	-11.5436
▁topped	-11.5438
▁noodles	-11.5439
▁kneel	-11.5439
▁peeks	-11.544
▁directs	-11.5443
▁rounding	-11.5443
▁shit	-11.5446
▁symbols	-11.545
▁competitors	-11.5454
▁docked	-11.5456
▁exits	-11.5457
▁tickets	-11.5478
▁keeps	-11.5485
▁casts	-11.5489
▁views	-11.5509
▁rugs	-11.553
▁donkeys	-11.5534
▁tackles	-11.5548
▁tubes	-11.559
▁guitarists	-11.5604
▁themed	-11.5614
▁wetsuits	-11.5657
▁hate	-11.566
▁W	-11.5672
▁ma	-11.5688
▁v	-11.5693
▁holes	-11.5715
▁artistic	-11.5757
▁sorts	-11.5836
f	-11.5856
▁bell	-11.5869
▁sweep	-11.5882
▁shake	-11.5886
▁Picture	-11.5896
▁ankle	-11.5896
▁chew	-11.5896
▁concession	-11.5897
▁attraction	-11.5897
▁scoop	-11.5898
▁kitten	-11.5898
▁caricature	-11.5899
▁Groups	-11.5899
▁slab	-11.59
▁pancake	-11.59
▁snap	-11.59
▁bale	-11.5901
▁onlooker	-11.5901
hand	-11.5916
high	-11.5918
▁launch	-11.5922
striped	-11.5925
▁culture	-11.5926
▁horizontal	-11.5927
▁zoo	-11.5927
▁peaceful	-11.5927
▁Europe	-11.5927
▁historic	-11.5927
▁Light	-11.5927
▁Boston	-11.5927
▁Great	-11.5927
▁Pizza	-11.5927
▁Professional	-11.5927
▁apparel	-11.5927
▁assortment	-11.5927
▁beyond	-11.5927
▁cemetery	-11.5927
▁cinder	-11.5927
▁confused	-11.5927
▁dangling	-11.5927
▁magnifying	-11.5927
▁parachuting	-11.5927
▁scantily	-11.5927
▁shady	-11.5927
▁contemplating	-11.5927
▁pitbull	-11.5927
▁lumber	-11.5927
▁pinned	-11.5927
▁poking	-11.5927
▁pride	-11.5927
▁combat	-11.5927
▁turtleneck	-11.5927
▁dominoes	-11.5927
▁popping	-11.5927
▁knitted	-11.5928
▁addresses	-11.5928
▁skipping	-11.5928
▁puffy	-11.5928
▁tagged	-11.5928
▁Obama	-11.5928
▁wielding	-11.5928
▁seemingly	-11.5928
▁disk	-11.5928
▁starring	-11.5928
▁captain	-11.5928
▁organized	-11.5928
▁13	-11.5928
▁strewn	-11.5928
▁assembled	-11.5928
▁juggler	-11.5928
▁smelling	-11.5928
▁swimwear	-11.5928
▁interested	-11.5928
▁Star	-11.5929
▁bringing	-11.5929
▁dotted	-11.5929
▁batman	-11.5929
▁hooked	-11.593
▁breathing	-11.593
▁baseman	-11.593
▁chaps	-11.593
▁rubs	-11.593
▁tightly	-11.593
▁dunking	-11.5931
▁gloved	-11.5932
▁extends	-11.5932
▁unit	-11.5932
▁armor	-11.5933
▁emerges	-11.5934
▁streamers	-11.5935
▁Swimmers	-11.5938
▁guarding	-11.5942
▁appearing	-11.5945
▁brownish	-11.5946
▁rises	-11.5946
▁Bicyclists	-11.5949
▁judges	-11.5949
▁fighters	-11.5953
▁besides	-11.5957
▁awaits	-11.5957
▁straps	-11.5961
▁raining	-11.5964
▁crab	-11.5971
▁hilly	-11.5971
▁offers	-11.5974
▁armed	-11.5982
no	-11.5984
▁tricycles	-11.6003
▁theme	-11.6003
▁bit	-11.6003
▁lounges	-11.6006
▁embraces	-11.6009
▁participates	-11.6017
by	-11.6039
▁electronics	-11.6045
▁trays	-11.606
▁rafts	-11.61
▁towels	-11.6102
▁tote	-11.6105
▁saxophones	-11.6112
▁slopes	-11.6124
ar	-11.6125
mp	-11.6132
ion	-11.6155
▁pairs	-11.617
is	-11.6225
▁chip	-11.6317
▁haired	-11.632
▁ran	-11.632
ch	-11.6348
▁join	-11.6391
op	-11.6395
▁tin	-11.6399
▁fold	-11.642
▁attend	-11.6422
▁exchange	-11.6422
▁Team	-11.6422
▁shield	-11.6423
▁mallet	-11.6424
▁snowmobile	-11.6424
▁selection	-11.6425
▁cartwheel	-11.6425
▁vase	-11.6425
▁dandelion	-11.6426
▁weapon	-11.6426
▁State	-11.6427
▁folder	-11.6427
▁Cyclist	-11.6427
▁bug	-11.6427
▁lantern	-11.6428
▁gymnastic	-11.6428
▁protester	-11.6431
▁tend	-11.6439
▁plush	-11.6449
road	-11.645
▁pain	-11.645
▁marsh	-11.6452
▁should	-11.6453
▁retail	-11.6453
▁mist	-11.6453
▁intricate	-11.6453
▁bad	-11.6453
▁curious	-11.6453
▁mattress	-11.6453
▁Bike	-11.6454
▁except	-11.6454
▁janitor	-11.6454
▁France	-11.6454
▁Halloween	-11.6454
▁Oklahoma	-11.6454
▁Rugby	-11.6454
▁artificial	-11.6454
▁assembling	-11.6454
▁assorted	-11.6454
▁backhoe	-11.6454
▁battling	-11.6454
▁better	-11.6454
▁chubby	-11.6454
▁cockpit	-11.6454
▁fishermen	-11.6454
▁index	-11.6454
▁kiddie	-11.6454
▁knives	-11.6454
▁meditating	-11.6454
▁overturned	-11.6454
▁pavilion	-11.6454
▁seaweed	-11.6454
▁skeleton	-11.6454
▁skimpy	-11.6454
▁ultimate	-11.6454
▁Subway	-11.6454
▁conveyor	-11.6454
▁powerpoint	-11.6454
▁ridge	-11.6454
▁salmon	-11.6454
▁rather	-11.6454
▁popcorn	-11.6454
▁stairwell	-11.6454
▁rustic	-11.6454
▁important	-11.6454
▁soars	-11.6454
▁Bride	-11.6454
▁punk	-11.6454
▁Local	-11.6454
▁Big	-11.6454
▁superman	-11.6454
▁cob	-11.6454
▁soaked	-11.6454
▁Long	-11.6454
▁mesh	-11.6454
▁currently	-11.6454
▁mixes	-11.6454
▁accepting	-11.6454
▁grasping	-11.6454
▁glider	-11.6454
▁bookbag	-11.6454
▁cutoff	-11.6455
dot	-11.6455
▁focuses	-11.6455
▁delivering	-11.6455
▁anvil	-11.6455
▁shielding	-11.6456
▁earbuds	-11.6456
▁patriotic	-11.6456
▁chiseling	-11.6457
▁testing	-11.6458
▁goers	-11.6459
▁Performers	-11.646
▁donations	-11.646
▁partly	-11.6461
▁ironing	-11.6461
▁wallet	-11.6462
▁bowing	-11.6463
▁welds	-11.6465
▁beans	-11.6467
▁navigates	-11.6469
▁Mr	-11.6471
▁climbed	-11.6472
▁leashed	-11.6473
▁piled	-11.6474
▁Bikers	-11.6475
▁samples	-11.6476
▁struggles	-11.6479
▁amused	-11.6482
▁saris	-11.6484
▁oversized	-11.6486
▁incoming	-11.6489
▁kayakers	-11.6493
▁cables	-11.6494
▁viewed	-11.6495
▁tutus	-11.6507
▁shapes	-11.6516
▁wigs	-11.6539
▁parachutes	-11.6548
▁kilts	-11.6553
▁winds	-11.6558
▁Crowds	-11.6562
▁gowns	-11.6567
▁dunes	-11.6575
▁suitcases	-11.6578
▁hairy	-11.6588
▁starts	-11.6592
▁brooms	-11.6611
os	-11.6611
▁frames	-11.6616
way	-11.6623
▁dim	-11.6636
▁o	-11.6674
▁coverings	-11.6707
▁cloths	-11.671
en	-11.6721
▁noses	-11.6747
▁pre	-11.6747
▁meats	-11.6805
▁surfboards	-11.6857
ring	-11.6921
▁sweat	-11.697
▁lock	-11.6973
▁need	-11.6977
▁descend	-11.6978
▁mingle	-11.6978
▁dentist	-11.6978
▁pulley	-11.6978
▁language	-11.6978
▁capri	-11.6979
five	-11.698
▁mechanic	-11.698
▁meter	-11.698
▁zombie	-11.6981
▁pail	-11.6981
▁grin	-11.6981
▁sponge	-11.6982
▁jug	-11.6982
▁cord	-11.6982
▁struggle	-11.6982
▁oar	-11.6982
▁symbol	-11.6982
▁rabbit	-11.6983
▁Adult	-11.6983
▁violinist	-11.6983
ish	-11.6995
▁transport	-11.7005
▁vacation	-11.7007
Cola	-11.7007
deep	-11.7007
free	-11.7007
blue	-11.7007
▁sling	-11.7008
▁defensive	-11.7008
▁manual	-11.7008
▁dangerous	-11.7009
▁grown	-11.7009
eyed	-11.7009
▁wineglass	-11.7009
▁baker	-11.7009
▁College	-11.7009
▁adorable	-11.7009
▁changing	-11.7009
▁fluorescent	-11.7009
▁geese	-11.7009
▁interior	-11.7009
▁jazz	-11.7009
▁junk	-11.7009
▁mascara	-11.7009
▁monster	-11.7009
▁rehearsing	-11.7009
▁rubbing	-11.7009
▁snowbank	-11.7009
▁strumming	-11.7009
▁trombone	-11.7009
▁zebra	-11.7009
▁kettle	-11.7009
▁minivan	-11.7009
▁scruffy	-11.7009
▁strong	-11.7009
▁studies	-11.7009
▁ripped	-11.7009
▁vocalist	-11.7009
▁Tennis	-11.7009
▁nine	-11.7009
▁seashore	-11.7009
▁skillet	-11.7009
▁Washington	-11.7009
▁Water	-11.7009
▁contact	-11.7009
▁goofy	-11.7009
▁ferry	-11.7009
▁occupied	-11.7009
▁NY	-11.7009
▁headfirst	-11.701
▁potted	-11.701
▁scary	-11.701
▁Ford	-11.701
▁slowly	-11.701
▁firing	-11.701
▁flipped	-11.701
▁blindfolded	-11.701
▁scared	-11.701
▁damaged	-11.701
▁Members	-11.701
▁ascending	-11.701
▁beaded	-11.701
▁littered	-11.701
▁greeting	-11.7011
▁butter	-11.7011
▁transporting	-11.7011
▁Fans	-11.7012
▁washed	-11.7014
▁billiards	-11.7015
▁reclines	-11.7015
▁playhouse	-11.7015
▁fourth	-11.7016
▁styled	-11.7018
▁pokes	-11.7018
▁wakeboarder	-11.7019
▁keys	-11.7027
▁bounds	-11.7032
▁hamburgers	-11.7035
▁snaps	-11.7039
▁masked	-11.7041
▁limbs	-11.7041
▁kimonos	-11.7052
▁dunks	-11.7053
▁records	-11.7061
▁garments	-11.7066
▁Car	-11.7067
▁McDonalds	-11.7067
▁darker	-11.708
▁leotards	-11.7095
▁owners	-11.7096
▁huts	-11.7097
▁mops	-11.7106
▁Ten	-11.7118
▁bears	-11.712
▁buys	-11.7122
▁barriers	-11.7131
▁lamps	-11.7148
▁someones	-11.7154
▁lanes	-11.7202
▁stools	-11.7226
▁professionals	-11.7232
▁Africans	-11.7252
▁obstacles	-11.7267
▁g	-11.7275
▁ends	-11.728
▁aid	-11.7287
at	-11.7295
▁herd	-11.7315
▁tram	-11.732
▁circles	-11.7324
ic	-11.7329
▁non	-11.7361
▁11	-11.7361
▁Ma	-11.7385
ter	-11.7411
▁shots	-11.745
▁undershirt	-11.7467
ation	-11.748
less	-11.7488
um	-11.7504
▁cushion	-11.7565
▁adjust	-11.7567
▁Bicycle	-11.7568
▁Singer	-11.7568
▁merchant	-11.7568
▁procedure	-11.7568
▁binder	-11.7568
▁welder	-11.7569
▁Outdoor	-11.7569
▁receive	-11.7569
▁beaker	-11.7569
▁tambourine	-11.757
▁grain	-11.757
▁folk	-11.757
▁surgeon	-11.757
▁hamburger	-11.7571
▁citizen	-11.7571
▁earring	-11.7572
ground	-11.7573
▁fighter	-11.7578
▁structures	-11.759
▁steal	-11.7595
▁War	-11.7595
type	-11.7596
The	-11.7596
▁quilt	-11.7596
ir	-11.7596
▁backpacker	-11.7596
▁broad	-11.7596
▁silk	-11.7596
▁elegant	-11.7597
▁gain	-11.7597
▁Photo	-11.7597
▁kit	-11.7597
▁mail	-11.7597
▁Buddhist	-11.7598
▁Eleven	-11.7598
▁alligator	-11.7598
▁arrive	-11.7598
▁blowtorch	-11.7598
▁carpenter	-11.7598
▁cellular	-11.7598
▁clipboard	-11.7598
▁convenience	-11.7598
▁convertible	-11.7598
▁emerging	-11.7598
▁grandmother	-11.7598
▁hopscotch	-11.7598
▁playpen	-11.7598
▁pregnant	-11.7598
▁sauna	-11.7598
▁sleigh	-11.7598
▁slung	-11.7598
▁stethoscope	-11.7598
▁unidentified	-11.7598
▁View	-11.7598
▁might	-11.7598
▁determined	-11.7598
▁Shop	-11.7598
▁Italian	-11.7598
▁United	-11.7598
▁newsstand	-11.7598
▁portion	-11.7598
▁decorating	-11.7598
▁raw	-11.7598
▁Happy	-11.7598
▁Seattle	-11.7598
▁eagle	-11.7598
▁entertainment	-11.7598
▁shouting	-11.7598
▁soaking	-11.7598
▁nothing	-11.7598
▁frowning	-11.7598
▁revealing	-11.7598
▁presses	-11.7598
▁historical	-11.7598
▁breakdancer	-11.7598
▁stoplight	-11.7598
▁selecting	-11.7598
▁addressing	-11.7598
▁punches	-11.7598
▁bucked	-11.7599
▁installing	-11.7599
▁spending	-11.7599
▁rimmed	-11.7599
▁woodworking	-11.7599
▁shined	-11.7599
▁locked	-11.76
▁vaulting	-11.76
▁fed	-11.76
▁smoothing	-11.7601
▁pastel	-11.7601
▁arched	-11.7601
▁trousers	-11.7602
▁pastry	-11.7603
▁Sports	-11.7603
▁Starbucks	-11.7603
▁drumsticks	-11.7605
▁pretzels	-11.7605
off	-11.7607
▁eyed	-11.7607
▁crafting	-11.7607
▁tossed	-11.7608
▁Hikers	-11.7608
▁fairy	-11.761
▁patrons	-11.761
▁greenhouse	-11.7614
▁olympics	-11.7615
▁projected	-11.7616
▁aims	-11.762
▁seeing	-11.7621
▁bottled	-11.7622
▁canoeing	-11.7623
▁sips	-11.7623
▁oars	-11.7626
▁descends	-11.7626
▁shields	-11.7628
▁rakes	-11.7633
▁drops	-11.7639
▁guides	-11.7646
▁bracelets	-11.7651
▁sails	-11.7658
▁poodles	-11.7659
▁bo	-11.7665
",	-11.7677
▁wit	-11.7682
▁bins	-11.7686
▁strips	-11.7687
E	-11.7695
est	-11.7697
▁orders	-11.7742
▁classical	-11.7766
▁ho	-11.7767
▁butt	-11.7864
▁drawings	-11.7895
ie	-11.7957
▁putt	-11.796
▁bee	-11.8
▁any	-11.808
▁isle	-11.8086
▁h	-11.8099
▁spar	-11.8129
▁lid	-11.8164
▁tap	-11.8171
ies	-11.8179
▁mount	-11.8187
▁visit	-11.8188
▁return	-11.8191
▁crest	-11.8191
▁breast	-11.8191
▁gondola	-11.8191
▁paw	-11.8192
▁tunic	-11.8193
▁Motorcycle	-11.8193
▁feed	-11.8193
▁letter	-11.8194
▁capture	-11.8194
▁wade	-11.8194
▁judge	-11.8194
▁taste	-11.8194
▁pause	-11.8195
▁Skier	-11.8195
▁sip	-11.8196
▁sample	-11.8196
▁Bicyclist	-11.8196
▁hairnet	-11.8196
▁decoration	-11.8196
▁year	-11.8196
▁Latin	-11.8219
▁dye	-11.822
K	-11.822
▁list	-11.822
▁study	-11.822
painted	-11.8221
▁magic	-11.8222
▁Teenage	-11.8222
▁loaf	-11.8222
▁gay	-11.8222
▁Japan	-11.8222
▁Concert	-11.8223
▁Nintendo	-11.8223
▁adjacent	-11.8223
▁audio	-11.8223
▁bonfire	-11.8223
▁choppy	-11.8223
▁congregating	-11.8223
▁exterior	-11.8223
▁flotation	-11.8223
▁limo	-11.8223
▁poised	-11.8223
▁problem	-11.8223
▁region	-11.8223
▁saluting	-11.8223
▁satchel	-11.8223
▁shoeshine	-11.8223
▁shrubbery	-11.8223
▁squeezing	-11.8223
▁squinting	-11.8223
▁vessel	-11.8223
▁workbench	-11.8223
▁Chicago	-11.8223
▁banquet	-11.8223
▁scoring	-11.8223
▁Patrick	-11.8223
▁flashlight	-11.8223
▁nude	-11.8223
▁petals	-11.8223
▁possible	-11.8223
▁trap	-11.8223
▁grinning	-11.8223
▁Wii	-11.8223
▁cowgirl	-11.8223
▁spiderman	-11.8223
▁California	-11.8223
▁hidden	-11.8223
▁footbridge	-11.8223
▁windowsill	-11.8223
▁Spiderman	-11.8223
▁poker	-11.8223
▁procession	-11.8223
▁secured	-11.8223
▁canned	-11.8223
▁eagerly	-11.8223
▁function	-11.8223
▁wok	-11.8223
▁warning	-11.8223
▁extending	-11.8223
▁reviewing	-11.8223
▁stationary	-11.8223
▁attaching	-11.8223
▁constructed	-11.8223
▁glowing	-11.8224
▁wanting	-11.8224
▁torches	-11.8224
▁finishes	-11.8224
▁squirting	-11.8225
▁workmen	-11.8227
▁Looks	-11.8227
▁shrubs	-11.8227
▁shingles	-11.8227
▁supported	-11.8228
▁leaned	-11.8228
▁sews	-11.8229
▁matches	-11.8231
▁landed	-11.8232
▁concentrates	-11.8232
▁gated	-11.8232
▁blade	-11.8233
▁fine	-11.8233
▁chops	-11.8236
▁instructions	-11.8236
▁travelers	-11.8236
▁weaves	-11.8237
▁burgers	-11.8239
▁dart	-11.8245
▁retrieves	-11.8246
▁skyscrapers	-11.8246
▁admires	-11.8248
▁bust	-11.825
▁splits	-11.8264
▁coconuts	-11.8265
▁sisters	-11.8271
▁graffitied	-11.8278
▁peaks	-11.8278
▁partying	-11.8279
▁bounces	-11.8281
▁iced	-11.8284
▁brothers	-11.8302
te	-11.8352
▁banks	-11.8375
▁taxis	-11.8377
▁once	-11.8441
as	-11.8447
▁gi	-11.8452
▁hammers	-11.8454
▁posts	-11.8477
▁V	-11.8526
the	-11.8528
▁graying	-11.8529
▁squares	-11.8535
ous	-11.8567
▁telescopes	-11.8571
▁enthusiastic	-11.8577
ce	-11.8603
▁cakes	-11.8677
▁sites	-11.8744
▁fort	-11.8754
▁bulls	-11.8792
▁J	-11.8812
▁mothers	-11.8816
▁knock	-11.8855
▁question	-11.8857
▁squirt	-11.8858
▁thread	-11.8858
▁lizard	-11.8858
▁handkerchief	-11.8859
▁pour	-11.8859
▁pump	-11.886
▁twin	-11.886
▁decide	-11.8861
▁lollipop	-11.8861
▁admire	-11.8861
▁bound	-11.8861
▁w	-11.8861
▁prize	-11.8862
▁state	-11.8862
▁Musician	-11.8863
▁crayon	-11.8863
▁Tourist	-11.8863
▁pajama	-11.8863
▁Biker	-11.8863
▁slip	-11.8885
▁season	-11.8885
▁snorkel	-11.8886
length	-11.8887
screen	-11.8887
swing	-11.8887
▁tribe	-11.8888
▁proud	-11.8888
▁East	-11.8889
▁defense	-11.8889
▁drunk	-11.8889
▁Gymnast	-11.8889
▁Mickey	-11.8889
▁Mountain	-11.8889
▁Passengers	-11.8889
▁assembly	-11.8889
▁cereal	-11.8889
▁could	-11.8889
▁crocodile	-11.8889
▁diamond	-11.8889
▁duffel	-11.8889
▁glancing	-11.8889
▁growing	-11.8889
▁instructing	-11.8889
▁queen	-11.8889
▁shrine	-11.8889
▁solitary	-11.8889
▁somersault	-11.8889
▁spiral	-11.8889
▁university	-11.8889
▁watercraft	-11.8889
▁wizard	-11.8889
▁begging	-11.8889
▁marriage	-11.8889
▁profile	-11.8889
▁slender	-11.8889
▁yet	-11.8889
▁Wearing	-11.8889
▁stainless	-11.8889
▁suds	-11.8889
▁gazebo	-11.8889
▁ridding	-11.8889
▁typewriter	-11.8889
▁passerby	-11.8889
▁machete	-11.8889
▁$	-11.8889
▁30	-11.8889
▁World	-11.8889
▁onesie	-11.8889
▁What	-11.8889
▁weighing	-11.8889
▁Hello	-11.8889
▁windsurfing	-11.8889
▁gig	-11.8889
▁dorm	-11.8889
▁Deere	-11.8889
▁hovering	-11.8889
▁latex	-11.8889
▁dollhouse	-11.8889
▁national	-11.8889
▁Looking	-11.889
▁seal	-11.889
▁tilted	-11.889
▁Jesus	-11.889
▁curled	-11.889
▁coke	-11.889
▁spear	-11.889
▁won	-11.889
▁attentively	-11.889
▁proudly	-11.889
▁sexy	-11.889
▁homework	-11.889
▁circus	-11.889
▁Joe	-11.889
▁interviewed	-11.889
▁sweaty	-11.8891
▁batting	-11.8891
▁marches	-11.8891
▁squirted	-11.8891
▁defending	-11.8891
▁blacksmith	-11.8891
▁tide	-11.8892
▁diverse	-11.8892
▁spiked	-11.8892
▁master	-11.8892
▁bangs	-11.8892
▁glides	-11.8892
▁protecting	-11.8892
▁pedaling	-11.8893
▁fencers	-11.8893
▁barely	-11.8894
▁trimmed	-11.8894
▁dome	-11.8894
▁Vendors	-11.8894
▁conditions	-11.8894
▁mittens	-11.8894
▁waring	-11.8894
▁handmade	-11.8894
▁supporting	-11.8896
▁blown	-11.8896
▁relaxed	-11.8897
▁handful	-11.8897
▁route	-11.8899
▁stacking	-11.8901
▁harnessed	-11.8906
▁sprints	-11.8907
▁prop	-11.8907
▁chested	-11.8908
▁medals	-11.8909
▁backlit	-11.891
▁youngsters	-11.8911
▁necktie	-11.8913
▁slices	-11.8915
▁cupcakes	-11.8915
▁attired	-11.8916
▁states	-11.8916
▁mirrored	-11.8917
▁footballer	-11.8918
▁surgeons	-11.892
▁bales	-11.8926
▁rocker	-11.8928
▁performed	-11.8932
▁drain	-11.894
▁pant	-11.8946
▁fists	-11.895
▁tasks	-11.895
▁fills	-11.8952
▁curtains	-11.896
▁purchases	-11.8963
▁drags	-11.8969
▁walkers	-11.8971
▁pirates	-11.8973
▁crowns	-11.8988
▁expressions	-11.8999
▁worked	-11.9015
▁ramps	-11.9035
▁real	-11.9039
▁para	-11.9049
▁hearts	-11.9058
ance	-11.9061
▁naps	-11.9085
▁boating	-11.9095
▁gates	-11.9139
▁referees	-11.9158
9	-11.9224
enthusiastically	-11.9239
la	-11.9304
ma	-11.9323
▁laps	-11.9385
ine	-11.9393
R	-11.9401
▁snowboarders	-11.9488
▁San	-11.9491
▁carve	-11.9511
▁20	-11.9516
om	-11.9553
▁awe	-11.9554
▁harvest	-11.957
▁vault	-11.957
▁crack	-11.9571
▁defend	-11.9571
▁assist	-11.9572
▁jackhammer	-11.9572
▁locomotive	-11.9572
▁windsurfer	-11.9572
▁haul	-11.9572
▁joke	-11.9574
▁platter	-11.9574
▁learn	-11.9574
▁bring	-11.9574
▁muscle	-11.9574
▁cylinder	-11.9574
▁retrieve	-11.9574
▁reporter	-11.9575
▁remove	-11.9575
▁technique	-11.9575
▁bongo	-11.9575
▁lei	-11.9575
▁wristband	-11.9576
▁vine	-11.9576
▁size	-11.9576
▁skyscraper	-11.9576
▁bone	-11.9576
▁cupcake	-11.9577
▁sausage	-11.9577
▁rise	-11.9577
▁camper	-11.9578
▁let	-11.9578
▁slice	-11.9579
▁maker	-11.9585
handed	-11.9595
▁bun	-11.9596
pipe	-11.9597
▁press	-11.9597
▁border	-11.9599
▁prevent	-11.9601
▁search	-11.9601
&	-11.9601
▁hawk	-11.9602
▁east	-11.9603
▁Jack	-11.9603
▁percussion	-11.9603
▁blur	-11.9603
▁Renaissance	-11.9603
▁aircraft	-11.9603
▁arranging	-11.9603
▁balconies	-11.9603
▁bathrobe	-11.9603
▁bazaar	-11.9603
▁beauty	-11.9603
▁charcoal	-11.9603
▁clerk	-11.9603
▁coral	-11.9603
▁desolate	-11.9603
▁gambling	-11.9603
▁glacier	-11.9603
▁growling	-11.9603
▁metropolitan	-11.9603
▁mingling	-11.9603
▁monopoly	-11.9603
▁ninja	-11.9603
▁parlor	-11.9603
▁poverty	-11.9603
▁providing	-11.9603
▁renaissance	-11.9603
▁situation	-11.9603
▁squirrel	-11.9603
▁tiara	-11.9603
▁tucked	-11.9603
▁tuning	-11.9603
▁2008	-11.9603
▁outcropping	-11.9603
▁peddling	-11.9603
▁quite	-11.9603
▁ravine	-11.9603
▁sushi	-11.9603
▁beagle	-11.9603
▁coca	-11.9603
▁forefront	-11.9603
▁mustard	-11.9603
▁stood	-11.9603
▁diligently	-11.9603
▁romantic	-11.9603
▁trotting	-11.9603
▁forklift	-11.9604
▁drenched	-11.9604
▁nuts	-11.9604
▁assistance	-11.9604
▁presumably	-11.9604
▁scratches	-11.9604
▁eatery	-11.9604
▁lovers	-11.9604
▁waling	-11.9604
▁foil	-11.9604
▁temporary	-11.9604
▁doorstep	-11.9604
▁sculptor	-11.9604
▁mossy	-11.9604
▁hoping	-11.9604
▁mature	-11.9604
▁roasting	-11.9604
▁halfway	-11.9605
▁horizontally	-11.9605
▁glances	-11.9605
▁headdresses	-11.9605
▁quietly	-11.9605
▁mainly	-11.9606
▁sandwiches	-11.9606
▁returning	-11.9606
▁Clause	-11.9606
▁daylight	-11.9606
▁paintball	-11.9606
▁oddly	-11.9606
▁strums	-11.9607
▁scooping	-11.9607
▁rushing	-11.9608
▁breakdances	-11.9609
▁dreads	-11.9609
▁advertises	-11.9609
ds	-11.9611
▁playful	-11.9611
▁calling	-11.9611
▁cooling	-11.9612
▁bathed	-11.9614
▁actors	-11.9615
▁picked	-11.9617
▁spreading	-11.9618
▁couches	-11.9619
▁cleaned	-11.962
▁troops	-11.9623
!"	-11.9623
▁donuts	-11.9625
▁schoolgirls	-11.9627
▁taller	-11.9629
▁darts	-11.9635
▁captures	-11.9635
▁ringing	-11.9638
▁needs	-11.9639
▁cords	-11.9639
▁weapons	-11.9641
▁States	-11.9641
▁higher	-11.9646
▁defenders	-11.9649
▁blackboard	-11.965
▁highly	-11.965
▁flowering	-11.9653
▁personal	-11.9663
▁spikes	-11.9667
▁planks	-11.9669
▁boulders	-11.9675
▁manhole	-11.9684
▁speakers	-11.9695
▁completes	-11.9698
▁angels	-11.9708
▁waterside	-11.9722
▁labor	-11.9749
ding	-11.9757
▁De	-11.9773
end	-11.9783
F	-11.9795
et	-11.9829
▁prints	-11.9846
▁r	-11.985
ally	-11.9857
4	-11.987
▁puddles	-11.9889
ning	-11.9915
▁hoses	-11.9931
▁Bank	-11.9933
▁fires	-11.9943
▁worship	-11.995
▁projects	-11.9967
▁sees	-11.997
▁bats	-11.9999
▁aim	-12.0024
▁restaurants	-12.0033
▁clears	-12.0045
▁watery	-12.0108
▁bases	-12.0121
co	-12.0127
▁25	-12.0185
▁mo	-12.0185
▁collect	-12.0229
▁bl	-12.0282
day	-12.0288
od	-12.0301
▁boa	-12.0334
▁mark	-12.0341
▁gorilla	-12.0341
▁parasol	-12.0341
▁Segway	-12.0341
▁heat	-12.0341
▁wander	-12.0343
▁ollie	-12.0343
▁insect	-12.0343
▁release	-12.0344
▁brochure	-12.0344
▁sweet	-12.0344
▁ornament	-12.0344
▁Well	-12.0344
▁waffle	-12.0345
▁hour	-12.0345
▁fixture	-12.0345
▁sombrero	-12.0345
▁participant	-12.0346
▁entertainer	-12.0346
▁leave	-12.0346
▁badge	-12.0348
ness	-12.0348
▁trade	-12.0359
▁bandage	-12.0361
ful	-12.0362
▁sideline	-12.0362
▁sketch	-12.0368
▁teeter	-12.0371
chested	-12.0371
themed	-12.0371
american	-12.0371
▁multicolor	-12.0371
▁blank	-12.0372
▁brand	-12.0372
▁loud	-12.0372
▁chart	-12.0372
▁quick	-12.0372
▁slow	-12.0372
▁attentive	-12.0372
▁comic	-12.0372
▁Spider	-12.0373
▁rig	-12.0373
▁BMW	-12.0373
▁Kitty	-12.0373
▁Navy	-12.0373
▁Rodeo	-12.0373
▁Yamaha	-12.0373
▁abstract	-12.0373
▁aluminum	-12.0373
▁amplifier	-12.0373
▁baggage	-12.0373
▁clings	-12.0373
▁communicating	-12.0373
▁creature	-12.0373
▁dustpan	-12.0373
▁expanse	-12.0373
▁expensive	-12.0373
▁gingerbread	-12.0373
▁intimate	-12.0373
▁japanese	-12.0373
▁lobster	-12.0373
▁occasion	-12.0373
▁otherwise	-12.0373
▁peanut	-12.0373
▁plywood	-12.0373
▁popsicle	-12.0373
▁quartet	-12.0373
▁recipe	-12.0373
▁releasing	-12.0373
▁shotgun	-12.0373
▁sledgehammer	-12.0373
▁spiky	-12.0373
▁tattered	-12.0373
▁technology	-12.0373
▁tissue	-12.0373
▁troupe	-12.0373
▁velvet	-12.0373
▁videotaping	-12.0373
▁wavy	-12.0373
▁Road	-12.0373
▁chemistry	-12.0373
▁everything	-12.0373
▁handicapped	-12.0373
▁Coke	-12.0373
▁clinging	-12.0373
▁organizing	-12.0373
▁sauce	-12.0373
▁Everyone	-12.0373
▁landmark	-12.0373
▁Train	-12.0373
▁cue	-12.0373
▁galloping	-12.0373
▁Thai	-12.0373
▁letting	-12.0373
▁Busy	-12.0373
▁foundation	-12.0373
▁sparkly	-12.0373
▁gently	-12.0373
▁husky	-12.0373
▁KitchenAid	-12.0373
▁western	-12.0373
▁peeling	-12.0373
▁swampy	-12.0373
▁backflip	-12.0373
▁Good	-12.0373
▁ox	-12.0373
▁populated	-12.0373
▁villagers	-12.0373
▁hunting	-12.0374
▁overhang	-12.0374
▁soldering	-12.0374
▁projection	-12.0374
▁sprinting	-12.0374
▁flashing	-12.0375
▁interviewing	-12.0375
▁label	-12.0375
▁thatched	-12.0375
▁patches	-12.0375
▁save	-12.0375
▁Cola	-12.0376
▁Angeles	-12.0376
▁pitches	-12.0376
▁waterskier	-12.0377
▁dumping	-12.0377
eye	-12.0377
▁lively	-12.0377
▁runway	-12.0377
▁roadwork	-12.0378
▁lowered	-12.0378
▁fliers	-12.0378
▁windy	-12.0379
▁ballgame	-12.0379
▁dolly	-12.038
▁rocket	-12.038
▁lunges	-12.038
▁trots	-12.038
▁cheered	-12.0381
▁professionally	-12.0382
ve	-12.0382
▁Scouts	-12.0383
▁Yankees	-12.0383
▁lonely	-12.0383
▁friendly	-12.0384
▁hairstyle	-12.0384
▁mustached	-12.0385
▁workman	-12.0389
▁blossoms	-12.0389
▁photography	-12.0391
▁chained	-12.0391
▁piercings	-12.0391
▁strides	-12.0393
▁interviews	-12.0396
▁wants	-12.0396
▁sparklers	-12.0398
el	-12.0401
▁lets	-12.0403
▁crowds	-12.0403
▁pumps	-12.0404
▁greenish	-12.0407
▁crop	-12.0411
▁pancakes	-12.0415
▁scoops	-12.0415
▁herding	-12.0417
▁joggers	-12.0418
▁jars	-12.042
▁claps	-12.0424
▁acrobatics	-12.0424
▁roped	-12.0427
▁bundles	-12.0437
▁batons	-12.0438
▁texts	-12.0448
▁surrounds	-12.0448
▁treats	-12.0453
hat	-12.0457
▁mannequins	-12.047
▁ha	-12.0491
men	-12.0509
▁faced	-12.0525
▁shares	-12.0528
▁converses	-12.0548
▁Mom	-12.0557
▁l	-12.0561
▁storefronts	-12.0568
▁positions	-12.0593
ver	-12.0612
▁escalators	-12.0642
v	-12.0665
▁keyboards	-12.0692
ro	-12.0752
▁snowing	-12.084
▁sons	-12.0897
▁breaks	-12.0924
▁ba	-12.0932
rs	-12.0988
ne	-12.0999
▁bi	-12.1049
O	-12.1058
▁cliffs	-12.108
lack	-12.1083
Y	-12.1103
▁homes	-12.1145
wheel	-12.1154
▁stock	-12.1169
▁chunk	-12.1173
▁direct	-12.1174
▁hijab	-12.1175
▁potter	-12.1175
▁hippie	-12.1175
▁tri	-12.1175
▁know	-12.1176
▁price	-12.1176
▁decorate	-12.1177
▁penguin	-12.1177
▁winner	-12.1177
▁contestant	-12.1178
▁cocktail	-12.1178
▁include	-12.1178
▁lesson	-12.1178
▁pamphlet	-12.1178
▁browse	-12.1178
▁civilian	-12.1178
▁graduate	-12.1179
▁sparkler	-12.1179
▁schoolgirl	-12.1179
▁stir	-12.1179
▁bridesmaid	-12.1179
▁key	-12.1179
▁hedge	-12.118
▁skill	-12.1181
▁dis	-12.1186
stand	-12.1189
▁po	-12.1191
▁streetlight	-12.1198
▁rust	-12.12
▁crouch	-12.1202
▁youngster	-12.1203
▁litter	-12.1203
▁No	-12.1204
paved	-12.1204
dotted	-12.1204
▁cluster	-12.1204
▁trouble	-12.1205
▁surprise	-12.1205
▁normal	-12.1205
▁Colorful	-12.1205
▁physical	-12.1205
▁perfect	-12.1205
▁safe	-12.1205
▁solid	-12.1205
▁bunk	-12.1205
▁active	-12.1206
▁hurt	-12.1206
▁every	-12.1206
▁geometric	-12.1206
dyed	-12.1206
▁Beach	-12.1206
▁creme	-12.1206
▁Autumn	-12.1206
▁Berlin	-12.1206
▁Britain	-12.1206
▁Emergency	-12.1206
▁Families	-12.1206
▁Ocean	-12.1206
▁Pokemon	-12.1206
▁Sitting	-12.1206
▁Target	-12.1206
▁amazement	-12.1206
▁applied	-12.1206
▁ceramic	-12.1206
▁cleats	-12.1206
▁congregation	-12.1206
▁doberman	-12.1206
▁drumming	-12.1206
▁dummy	-12.1206
▁globe	-12.1206
▁jamming	-12.1206
▁pierced	-12.1206
▁plugging	-12.1206
▁promoting	-12.1206
▁rectangular	-12.1206
▁refreshing	-12.1206
▁shading	-12.1206
▁spaghetti	-12.1206
▁styrofoam	-12.1206
▁ukulele	-12.1206
▁would	-12.1206
▁wrong	-12.1206
▁enforcement	-12.1206
▁occurring	-12.1206
▁session	-12.1206
▁Union	-12.1206
▁anticipation	-12.1206
▁shaft	-12.1206
▁preschool	-12.1206
▁repelling	-12.1206
▁comfortable	-12.1206
▁Batman	-12.1206
▁oxen	-12.1206
▁Museum	-12.1206
▁compact	-12.1206
▁Outside	-12.1206
▁flexing	-12.1206
▁frosting	-12.1206
▁Roller	-12.1206
▁soaring	-12.1206
▁york	-12.1206
▁holing	-12.1206
▁rainstorm	-12.1206
▁RV	-12.1206
▁herbs	-12.1206
▁controlled	-12.1206
▁passionately	-12.1206
▁Irish	-12.1206
▁turntable	-12.1206
▁must	-12.1206
▁fashionable	-12.1206
▁awkwardly	-12.1206
▁kept	-12.1206
▁leafless	-12.1206
▁Dad	-12.1207
▁grinder	-12.1207
▁responding	-12.1207
▁taught	-12.1207
▁Somebody	-12.1207
▁bassist	-12.1207
▁twisting	-12.1207
▁arches	-12.1207
▁brimmed	-12.1208
▁misty	-12.1208
▁cracked	-12.1208
▁competitively	-12.1208
▁wandering	-12.1208
▁Gate	-12.1209
▁snorkeling	-12.1209
▁bigger	-12.1209
▁hundreds	-12.121
▁netting	-12.121
▁sleepy	-12.1211
▁forrest	-12.1212
▁accents	-12.1212
▁pompoms	-12.1212
▁screams	-12.1212
▁takeout	-12.1213
▁pointy	-12.1213
▁observed	-12.1214
ton	-12.1215
▁rearing	-12.1215
▁closer	-12.1217
▁fingernails	-12.1217
▁peppers	-12.1217
▁kabobs	-12.1219
▁refreshments	-12.1219
▁twirls	-12.1219
▁visitors	-12.1219
▁Los	-12.122
▁started	-12.1221
▁weathered	-12.1221
▁wipes	-12.1222
▁rollerskaters	-12.1222
▁sticker	-12.1223
▁ascends	-12.1224
▁formed	-12.1224
▁barks	-12.123
▁Fire	-12.1233
▁recorder	-12.1235
▁marks	-12.1236
▁sizes	-12.1238
▁carves	-12.1239
▁props	-12.1241
▁questions	-12.1241
▁countertop	-12.1245
▁folks	-12.1245
▁jugs	-12.1248
▁wheeling	-12.125
▁dandelions	-12.125
▁amazing	-12.1252
▁accessories	-12.1252
▁available	-12.1252
▁Bush	-12.1254
▁backpackers	-12.1261
▁dumps	-12.1264
▁maneuvers	-12.1269
▁pasta	-12.1272
▁barricades	-12.1274
ure	-12.128
▁trailing	-12.1284
▁finds	-12.1293
▁wraps	-12.1296
▁markers	-12.1296
▁builds	-12.1306
▁portraits	-12.1325
▁pumpkins	-12.1325
▁adding	-12.1354
▁brave	-12.1362
▁cages	-12.1368
▁La	-12.1392
▁sock	-12.1394
▁cases	-12.1395
▁Bar	-12.1396
▁candid	-12.1405
▁suited	-12.141
▁onlooking	-12.1415
▁topic	-12.1424
▁formations	-12.1424
▁flyer	-12.143
my	-12.146
ian	-12.1464
▁hoods	-12.1478
il	-12.1512
▁pitchers	-12.153
▁tongues	-12.1614
▁ro	-12.1647
▁auto	-12.1647
▁canes	-12.1648
▁sta	-12.1695
▁Dr	-12.1728
▁Re	-12.1732
lo	-12.1736
▁collars	-12.1773
da	-12.178
ast	-12.1805
▁emotion	-12.1881
▁Do	-12.1893
H	-12.19
com	-12.1916
house	-12.1988
▁ga	-12.2013
▁rains	-12.2026
headed	-12.2067
▁force	-12.2074
▁tanks	-12.2075
▁napkin	-12.2081
▁Christian	-12.2081
▁socialize	-12.2081
▁assistant	-12.2081
▁basin	-12.2081
▁comb	-12.2081
▁buck	-12.2082
▁greet	-12.2082
▁unload	-12.2083
hoop	-12.2083
▁beater	-12.2083
▁glow	-12.2084
▁specimen	-12.2084
▁interview	-12.2084
▁parasail	-12.2084
▁dollar	-12.2084
▁drawer	-12.2086
▁want	-12.2086
▁breed	-12.2086
▁llama	-12.2086
▁mushroom	-12.2086
▁quarter	-12.2086
▁Artist	-12.2086
▁arrangement	-12.2087
▁Horse	-12.2087
▁continue	-12.2087
▁Greyhound	-12.2087
▁article	-12.2087
▁lemon	-12.2088
▁hoe	-12.2088
▁stroke	-12.2088
▁donut	-12.2088
▁medal	-12.2088
▁olympic	-12.2088
▁navigate	-12.2088
▁hide	-12.2089
▁squat	-12.2092
teen	-12.21
ier	-12.2109
▁flash	-12.2111
▁interest	-12.2111
circle	-12.2113
kart	-12.2113
person	-12.2113
▁brow	-12.2114
climbing	-12.2114
▁sex	-12.2114
▁stylish	-12.2114
▁law	-12.2114
▁pensive	-12.2114
▁vivid	-12.2114
▁Brazil	-12.2115
▁Rescue	-12.2115
▁Beijing	-12.2115
▁Florida	-12.2115
▁Ikea	-12.2115
▁Italy	-12.2115
▁Labrador	-12.2115
▁Mardi	-12.2115
▁Uniformed	-12.2115
▁Vegas	-12.2115
▁Workmen	-12.2115
▁already	-12.2115
▁colourful	-12.2115
▁croquet	-12.2115
▁embankment	-12.2115
▁granite	-12.2115
▁halloween	-12.2115
▁jagged	-12.2115
▁mariachi	-12.2115
▁mulch	-12.2115
▁oxygen	-12.2115
▁peacock	-12.2115
▁pedestal	-12.2115
▁reindeer	-12.2115
▁ribs	-12.2115
▁seminar	-12.2115
▁strawberries	-12.2115
▁streaks	-12.2115
▁suspension	-12.2115
▁turf	-12.2115
▁tussle	-12.2115
▁yawns	-12.2115
▁footprints	-12.2115
▁government	-12.2115
▁slingshot	-12.2115
▁waking	-12.2115
▁Karate	-12.2115
▁charging	-12.2115
▁claw	-12.2115
▁decals	-12.2115
▁dug	-12.2115
▁lingerie	-12.2115
▁sparkling	-12.2115
▁statute	-12.2115
▁sweatsuit	-12.2115
▁excavator	-12.2115
▁faded	-12.2115
▁Island	-12.2115
▁dropped	-12.2115
▁Radio	-12.2115
▁arid	-12.2115
▁bodies	-12.2115
▁pleasant	-12.2115
▁torso	-12.2115
▁exciting	-12.2115
▁paddy	-12.2115
▁source	-12.2115
▁navigating	-12.2115
▁uncut	-12.2115
▁neatly	-12.2115
▁flatbed	-12.2115
▁Thomas	-12.2115
▁Tour	-12.2115
▁hazard	-12.2115
▁Naked	-12.2115
▁joyfully	-12.2115
▁concerned	-12.2115
▁Summer	-12.2116
▁ornamental	-12.2116
▁came	-12.2116
▁goose	-12.2116
▁panda	-12.2116
▁web	-12.2116
▁Station	-12.2116
▁subject	-12.2116
▁50	-12.2116
▁searches	-12.2116
▁reflected	-12.2116
▁shocked	-12.2116
▁Chi	-12.2116
▁bumpy	-12.2116
▁Tall	-12.2116
▁solider	-12.2116
▁crashes	-12.2116
▁sashes	-12.2116
▁pinstriped	-12.2116
▁rushes	-12.2116
▁comforting	-12.2116
▁wildflowers	-12.2117
▁removed	-12.2117
▁Gras	-12.2117
▁seriously	-12.2117
▁barbed	-12.2118
▁created	-12.2118
▁lovely	-12.2118
▁pressing	-12.2118
▁Tan	-12.2119
▁beak	-12.2119
▁separated	-12.2119
▁operated	-12.2119
▁entertained	-12.2119
▁poorly	-12.2119
▁designer	-12.2119
▁launching	-12.2119
▁lighthouse	-12.2119
▁plowing	-12.2119
▁seaside	-12.212
▁soapy	-12.212
▁towing	-12.2121
▁barred	-12.2121
▁desktop	-12.2121
▁boarder	-12.2121
▁steaming	-12.2121
▁Individuals	-12.2122
▁grimaces	-12.2122
▁examined	-12.2122
▁bumper	-12.2122
▁frog	-12.2123
▁planter	-12.2124
▁heated	-12.2124
▁Athletes	-12.2124
▁explains	-12.2124
▁warmers	-12.2125
▁taped	-12.2126
▁walkie	-12.2127
▁skips	-12.2128
▁fairly	-12.2128
▁cameramen	-12.2129
▁fixed	-12.2129
▁powered	-12.2129
▁surveys	-12.213
▁yells	-12.213
▁smokey	-12.213
▁pineapples	-12.2132
▁steaks	-12.2132
▁treks	-12.2132
▁Farmers	-12.2133
▁packing	-12.2133
▁robed	-12.2134
▁explores	-12.2135
▁kissed	-12.2137
▁guarded	-12.2137
▁frolics	-12.2137
▁braces	-12.2138
▁grate	-12.2138
head	-12.2139
▁intensely	-12.214
▁lockers	-12.2141
hoops	-12.2141
▁shells	-12.2142
▁lemons	-12.2143
▁onions	-12.2143
▁hedges	-12.2145
▁streetlights	-12.2145
▁badges	-12.2148
▁removes	-12.2151
▁assists	-12.2151
▁defends	-12.2151
▁campers	-12.2152
▁decides	-12.2153
ity	-12.2155
▁returns	-12.2156
▁keeper	-12.216
▁attendees	-12.2166
▁adventure	-12.2166
▁slabs	-12.2166
▁steers	-12.2169
▁lighter	-12.2174
▁signals	-12.2178
▁panels	-12.2179
▁coolers	-12.2186
us	-12.219
▁toilets	-12.2193
▁diners	-12.2193
▁downwards	-12.2199
▁officials	-12.2203
▁vacuums	-12.2209
ul	-12.2211
wear	-12.2211
▁mean	-12.2212
cola	-12.2213
▁huddles	-12.2219
cy	-12.222
▁offer	-12.2234
▁rifles	-12.224
ated	-12.2241
▁darkly	-12.2247
▁chats	-12.2254
▁Con	-12.2258
▁turbans	-12.2267
car	-12.2287
ging	-12.2289
▁capes	-12.2293
▁lives	-12.231
▁billboards	-12.2315
▁backed	-12.2375
▁headbands	-12.2404
▁grouped	-12.2407
▁trumpets	-12.2424
ak	-12.2436
▁onion	-12.2455
▁sales	-12.2482
z	-12.2484
▁fabrics	-12.2488
▁shell	-12.249
N	-12.2577
▁fights	-12.2604
▁page	-12.2619
▁necks	-12.2637
ant	-12.2645
se	-12.2687
son	-12.2699
▁se	-12.271
▁airline	-12.2721
▁Sun	-12.2787
▁astride	-12.2797
▁Indians	-12.2842
▁tablet	-12.2848
▁Se	-12.2862
▁meals	-12.2871
rry	-12.2872
do	-12.2878
▁times	-12.296
board	-12.2964
ating	-12.2982
▁lace	-12.3079
▁add	-12.308
▁wake	-12.308
▁Clown	-12.3081
▁operator	-12.3081
▁bake	-12.3081
▁bulldog	-12.3081
▁bill	-12.3083
▁album	-12.3084
▁knight	-12.3084
▁mountaineer	-12.3084
▁rim	-12.3084
▁answer	-12.3085
▁braid	-12.3085
▁lifeguard	-12.3085
▁creation	-12.3085
▁sprint	-12.3086
▁Youth	-12.3086
▁acrobat	-12.3086
▁pasture	-12.3086
▁warrior	-12.3086
▁peek	-12.3086
▁bearer	-12.3086
▁bonnet	-12.3087
▁spout	-12.3087
▁lamb	-12.3087
▁Teen	-12.3087
▁troop	-12.3087
time	-12.3087
▁poncho	-12.3088
▁tune	-12.3088
▁burger	-12.3088
▁coal	-12.3088
▁guest	-12.3088
▁locker	-12.3089
▁movement	-12.309
▁stride	-12.309
▁bead	-12.3091
▁bark	-12.3095
▁per	-12.3099
▁spa	-12.3104
▁%	-12.3106
rimmed	-12.3106
woman	-12.3107
print	-12.3111
▁honor	-12.3112
▁romp	-12.3113
▁hurry	-12.3113
eastern	-12.3113
brown	-12.3113
block	-12.3113
flight	-12.3113
▁Barefoot	-12.3113
▁tether	-12.3113
▁challenge	-12.3114
▁Africa	-12.3114
▁research	-12.3114
▁potential	-12.3114
▁media	-12.3114
▁entire	-12.3114
▁recent	-12.3114
▁slight	-12.3115
▁Music	-12.3115
▁entry	-12.3115
▁dramatic	-12.3115
▁Costumed	-12.3115
▁Hundreds	-12.3115
▁Islamic	-12.3115
▁MacBook	-12.3115
▁Mexico	-12.3115
▁SquarePants	-12.3115
▁Standing	-12.3115
▁Terrier	-12.3115
▁assignment	-12.3115
▁bookshelf	-12.3115
▁camcorder	-12.3115
▁carpentry	-12.3115
▁crotch	-12.3115
▁disposable	-12.3115
▁espresso	-12.3115
▁famous	-12.3115
▁florescent	-12.3115
▁granddaughter	-12.3115
▁incense	-12.3115
▁international	-12.3115
▁landscaping	-12.3115
▁lettuce	-12.3115
▁lottery	-12.3115
▁magenta	-12.3115
▁manipulating	-12.3115
▁martini	-12.3115
▁mixture	-12.3115
▁nursing	-12.3115
▁overgrown	-12.3115
▁pokemon	-12.3115
▁reunion	-12.3115
▁scientific	-12.3115
▁slanted	-12.3115
▁straddling	-12.3115
▁studded	-12.3115
▁swung	-12.3115
▁terrace	-12.3115
▁toboggan	-12.3115
▁transaction	-12.3115
▁trapeze	-12.3115
▁tumbling	-12.3115
▁vista	-12.3115
▁afro	-12.3115
▁chief	-12.3115
▁crime	-12.3115
▁enough	-12.3115
▁facade	-12.3115
▁karaoke	-12.3115
▁mexican	-12.3115
▁octopus	-12.3115
▁vacant	-12.3115
▁About	-12.3115
▁Homeless	-12.3115
▁Parade	-12.3115
▁canister	-12.3115
▁conical	-12.3115
▁slumped	-12.3115
▁barbie	-12.3115
▁dipping	-12.3115
▁losing	-12.3115
▁volcano	-12.3115
▁wintry	-12.3115
▁chopped	-12.3115
▁desperately	-12.3115
▁jewelery	-12.3115
▁toppings	-12.3115
▁Tattooed	-12.3115
▁parading	-12.3115
▁rebound	-12.3115
▁sprawled	-12.3115
▁Central	-12.3115
▁copper	-12.3115
▁equipped	-12.3115
▁further	-12.3115
▁mortar	-12.3115
▁owl	-12.3115
▁paving	-12.3115
▁pullover	-12.3115
▁went	-12.3115
▁grandson	-12.3115
▁motorboat	-12.3115
▁donning	-12.3115
▁speedboat	-12.3115
▁recreational	-12.3115
▁Story	-12.3115
▁pursued	-12.3115
▁Hall	-12.3115
▁padding	-12.3115
▁patrolling	-12.3115
▁splitting	-12.3115
▁exposed	-12.3115
▁Victorian	-12.3115
▁grandfather	-12.3115
▁campground	-12.3115
▁proper	-12.3115
▁related	-12.3115
▁Hotel	-12.3115
▁NYC	-12.3115
▁coastline	-12.3115
▁totter	-12.3115
▁cancer	-12.3116
▁bullhorn	-12.3116
▁19	-12.3116
▁Lone	-12.3116
▁dealer	-12.3116
▁comforter	-12.3116
▁restroom	-12.3116
▁mock	-12.3116
▁sunrise	-12.3116
▁burying	-12.3116
▁hound	-12.3116
▁Walking	-12.3116
▁freeway	-12.3116
▁mad	-12.3116
▁launches	-12.3116
▁safely	-12.3116
▁fitting	-12.3116
▁hoisted	-12.3116
▁broadly	-12.3116
▁drifting	-12.3117
▁released	-12.3117
▁trinkets	-12.3117
▁chores	-12.3117
▁cookout	-12.3117
▁Th	-12.3117
▁wrapper	-12.3117
▁gone	-12.3117
▁heeled	-12.3117
▁collected	-12.3118
▁assisted	-12.3118
▁pressed	-12.3118
▁knocked	-12.3118
▁sketching	-12.3118
▁seasoning	-12.3119
▁bounding	-12.3119
▁pumping	-12.3119
▁upcoming	-12.3119
▁sewer	-12.312
▁artifacts	-12.312
▁contemplates	-12.312
▁wields	-12.312
▁china	-12.312
▁rode	-12.312
▁layup	-12.312
▁Wet	-12.312
▁postal	-12.312
▁attacking	-12.312
▁completed	-12.3121
▁Latino	-12.3121
▁polishing	-12.3122
▁strangely	-12.3122
▁reeds	-12.3122
▁videotapes	-12.3122
▁clams	-12.3123
▁Inside	-12.3123
▁scored	-12.3123
▁beachfront	-12.3123
▁melons	-12.3125
▁treads	-12.3125
▁utensils	-12.3125
?"	-12.3125
▁horned	-12.3126
▁mine	-12.3127
▁curls	-12.3128
▁Jockeys	-12.3128
▁gap	-12.3128
▁caged	-12.3129
▁ballroom	-12.313
▁eyebrows	-12.3131
▁grasps	-12.3131
▁layers	-12.3134
▁dips	-12.3134
▁documents	-12.3137
▁veterans	-12.3137
▁Chefs	-12.314
▁instead	-12.314
▁ponchos	-12.3143
▁tunes	-12.3143
▁pages	-12.3145
▁bucks	-12.3146
▁civilians	-12.3149
▁After	-12.3149
▁sombreros	-12.3152
▁beautifully	-12.3153
▁learns	-12.3154
▁prizes	-12.3157
▁squirts	-12.3157
▁shorter	-12.3158
▁golfing	-12.3163
▁grains	-12.3163
▁canon	-12.3164
▁bicycler	-12.3166
▁sponges	-12.3166
▁violinists	-12.3166
fives	-12.3166
▁attends	-12.3169
▁folders	-12.317
▁grilled	-12.3173
▁cycles	-12.3175
▁dolphins	-12.3178
▁emptying	-12.3186
▁demonstrate	-12.3187
▁pops	-12.3192
▁possessions	-12.3193
▁Cowboys	-12.3195
▁cube	-12.3198
▁scientists	-12.3198
▁arrows	-12.3199
▁pigs	-12.3214
G	-12.3219
▁raincoats	-12.3228
▁grasses	-12.323
▁enters	-12.3231
▁stoops	-12.3254
▁mow	-12.3259
▁motions	-12.3266
ty	-12.327
▁ch	-12.3275
▁notebooks	-12.3281
▁racks	-12.3281
▁scores	-12.3293
▁logos	-12.3294
ups	-12.3297
▁inner	-12.3303
▁leafs	-12.3305
▁looms	-12.3308
ger	-12.331
▁flutes	-12.3323
▁jets	-12.3329
▁beds	-12.3342
▁edges	-12.3363
▁blacktop	-12.3365
shirted	-12.3367
▁outer	-12.3378
▁ra	-12.3384
▁sh	-12.3412
▁shin	-12.3419
▁Art	-12.3431
king	-12.3434
▁models	-12.344
set	-12.345
ick	-12.3512
▁waterfalls	-12.3527
▁ally	-12.3546
▁14	-12.3575
ug	-12.3581
▁st	-12.3582
▁infants	-12.3582
▁daughters	-12.361
ave	-12.3612
▁N	-12.3617
field	-12.3632
▁Go	-12.3673
▁hoodies	-12.3679
ins	-12.3745
▁health	-12.3754
▁fore	-12.3769
▁k	-12.3781
▁4-	-12.3845
de	-12.3859
ue	-12.3886
▁Pe	-12.3896
ches	-12.3918
ley	-12.3932
▁alike	-12.3956
▁onward	-12.3957
▁basketballs	-12.4008
▁conversations	-12.4017
B	-12.4043
2	-12.4147
ized	-12.4184
▁install	-12.4189
▁screwdriver	-12.4192
▁Jeep	-12.4192
▁girder	-12.4192
▁shark	-12.4192
▁devil	-12.4192
▁evergreen	-12.4192
▁Farm	-12.4194
▁Flag	-12.4195
▁cloak	-12.4195
▁rival	-12.4195
▁reflector	-12.4195
▁custom	-12.4195
▁deliver	-12.4195
▁coworker	-12.4196
▁think	-12.4196
▁idea	-12.4197
▁pearl	-12.4197
▁textile	-12.4197
▁beanbag	-12.4198
▁assemble	-12.4198
▁brace	-12.4198
▁coin	-12.4198
▁grip	-12.4198
▁Chef	-12.4199
▁frolic	-12.4199
▁noodle	-12.4199
▁weave	-12.4199
▁rollerskate	-12.4199
▁grind	-12.42
▁piercing	-12.42
▁Runner	-12.42
flop	-12.42
▁marking	-12.4203
▁bagel	-12.4205
▁grounds	-12.4207
▁disco	-12.4209
▁mi	-12.4212
back	-12.4215
▁flood	-12.4222
color	-12.4222
neck	-12.4223
Free	-12.4224
dye	-12.4224
▁thrill	-12.4224
load	-12.4224
▁spend	-12.4224
▁bean	-12.4224
▁cry	-12.4225
Man	-12.4225
▁director	-12.4225
▁architectural	-12.4225
▁creative	-12.4225
▁loving	-12.4225
▁whist	-12.4225
▁current	-12.4225
▁ranch	-12.4226
▁sub	-12.4226
▁Business	-12.4226
▁Arab	-12.4226
▁breeze	-12.4226
▁Foreign	-12.4226
▁triangle	-12.4226
▁twenty	-12.4226
▁Adidas	-12.4226
▁Challenge	-12.4226
▁Ethnic	-12.4226
▁Gentlemen	-12.4226
▁Graffiti	-12.4226
▁Hollywood	-12.4226
▁Martial	-12.4226
▁Passersby	-12.4226
▁Popsicle	-12.4226
▁SCUBA	-12.4226
▁Skynyrd	-12.4226
▁Wonder	-12.4226
▁amazed	-12.4226
▁arrival	-12.4226
▁astronaut	-12.4226
▁brought	-12.4226
▁campaign	-12.4226
▁certificate	-12.4226
▁charity	-12.4226
▁chimney	-12.4226
▁choreographed	-12.4226
▁classmates	-12.4226
▁colonial	-12.4226
▁compartment	-12.4226
▁countries	-12.4226
▁cuddling	-12.4226
▁dingy	-12.4226
▁exchanging	-12.4226
▁extra	-12.4226
▁faucet	-12.4226
▁future	-12.4226
▁gladiator	-12.4226
▁grimacing	-12.4226
▁happiness	-12.4226
▁iPad	-12.4226
▁igloo	-12.4226
▁inverted	-12.4226
▁license	-12.4226
▁limousine	-12.4226
▁livestock	-12.4226
▁matador	-12.4226
▁misses	-12.4226
▁nylon	-12.4226
▁pistol	-12.4226
▁presence	-12.4226
▁primitive	-12.4226
▁refrigerator	-12.4226
▁regalia	-12.4226
▁replacing	-12.4226
▁royal	-12.4226
▁sanitation	-12.4226
▁saxaphone	-12.4226
▁scrimmage	-12.4226
▁sedan	-12.4226
▁shampoo	-12.4226
▁shaping	-12.4226
▁simple	-12.4226
▁sippy	-12.4226
▁situated	-12.4226
▁sowing	-12.4226
▁spanish	-12.4226
▁summit	-12.4226
▁swaddled	-12.4226
▁tassel	-12.4226
▁tasting	-12.4226
▁tasty	-12.4226
▁twilight	-12.4226
▁typical	-12.4226
▁uneven	-12.4226
▁upraised	-12.4226
▁windmill	-12.4226
▁wrangling	-12.4226
▁Francisco	-12.4226
▁Motocross	-12.4226
▁Skiiers	-12.4226
▁Teacher	-12.4226
▁bespectacled	-12.4226
▁bluish	-12.4226
▁deciding	-12.4226
▁delicious	-12.4226
▁exposing	-12.4226
▁healthcare	-12.4226
▁internet	-12.4226
▁lemonade	-12.4226
▁missed	-12.4226
▁paisley	-12.4226
▁pharmacy	-12.4226
▁pursuit	-12.4226
▁scrubbing	-12.4226
▁trendy	-12.4226
▁trough	-12.4226
▁Overhead	-12.4226
▁joking	-12.4226
▁stony	-12.4226
▁straining	-12.4226
▁symphony	-12.4226
▁violet	-12.4226
▁checkerboard	-12.4226
▁gorgeous	-12.4226
▁gripping	-12.4226
▁mermaid	-12.4226
▁rappelling	-12.4226
▁Marching	-12.4226
▁again	-12.4226
▁announcement	-12.4226
▁grating	-12.4226
▁MMA	-12.4226
▁Superman	-12.4226
▁boundary	-12.4226
▁wonderful	-12.4226
▁Toyota	-12.4226
▁Fisherman	-12.4226
▁Spain	-12.4226
▁fifth	-12.4226
▁flung	-12.4226
▁spectate	-12.4226
▁fluid	-12.4226
▁eyeliner	-12.4226
▁graffited	-12.4226
▁sheepdog	-12.4226
▁gang	-12.4226
▁Pink	-12.4226
▁hugged	-12.4226
▁recital	-12.4226
▁solution	-12.4226
▁boom	-12.4226
▁detector	-12.4226
▁Twister	-12.4226
▁dries	-12.4226
▁recliner	-12.4226
▁Grand	-12.4226
▁glittery	-12.4226
▁bustling	-12.4226
▁composed	-12.4226
▁fanny	-12.4226
▁Israeli	-12.4226
▁saving	-12.4226
▁fitted	-12.4227
▁holder	-12.4227
▁clasped	-12.4227
▁unpaved	-12.4227
▁Dressed	-12.4227
▁sharpening	-12.4227
▁Center	-12.4227
▁jetty	-12.4227
▁billowing	-12.4227
▁chessboard	-12.4227
▁flippers	-12.4227
▁Guitar	-12.4227
▁trekking	-12.4227
▁sequined	-12.4227
▁banging	-12.4227
▁loop	-12.4227
▁henna	-12.4227
▁smartphone	-12.4227
▁bout	-12.4227
▁cannot	-12.4227
▁duty	-12.4227
▁tinted	-12.4227
▁twister	-12.4227
▁pep	-12.4227
hooping	-12.4227
▁fishnet	-12.4227
▁applauding	-12.4227
▁whispering	-12.4227
▁distracted	-12.4227
▁wrecked	-12.4227
▁era	-12.4227
▁healthy	-12.4227
▁actively	-12.4228
▁shoeless	-12.4228
▁median	-12.4228
▁netted	-12.4228
▁surveying	-12.4228
▁capturing	-12.4228
▁DS	-12.4228
▁upstairs	-12.4228
▁mike	-12.4228
▁Circus	-12.4228
▁Parents	-12.4228
▁fetches	-12.4228
▁postcards	-12.4228
▁evil	-12.4228
▁blossoming	-12.4228
▁keyboardist	-12.4228
▁peacefully	-12.4228
▁tried	-12.4229
▁hurrying	-12.4229
▁braiding	-12.4229
▁combing	-12.4229
▁bordered	-12.4229
▁stretcher	-12.4229
▁congregated	-12.4229
▁busily	-12.423
▁puzzled	-12.423
▁quilted	-12.423
▁needed	-12.423
▁unusually	-12.423
▁coaches	-12.4231
▁upscale	-12.4231
▁protected	-12.4231
▁alert	-12.4231
▁overflowing	-12.4231
▁joining	-12.4231
▁Crocs	-12.4231
▁consists	-12.4231
▁unwraps	-12.4231
▁flaps	-12.4231
▁33	-12.4231
▁bushy	-12.4232
▁now	-12.4232
▁passage	-12.4232
▁handsome	-12.4232
▁calmly	-12.4233
▁closest	-12.4234
▁Newlyweds	-12.4234
▁cradles	-12.4234
▁observers	-12.4235
▁sunlit	-12.4237
▁due	-12.424
▁Doctors	-12.4241
▁details	-12.4241
▁volunteers	-12.4241
▁zooms	-12.4241
▁presented	-12.4242
▁deeply	-12.4242
▁bowed	-12.4244
▁pews	-12.4244
▁attacked	-12.4245
▁sandal	-12.4246
▁clearly	-12.4246
▁prey	-12.4247
▁vie	-12.4247
▁farming	-12.4247
▁pitched	-12.4247
▁feels	-12.4248
▁grayish	-12.4248
▁protectors	-12.4248
▁server	-12.4248
▁surfboarder	-12.425
▁Photographers	-12.4251
▁grips	-12.4254
▁assembles	-12.4254
▁delivers	-12.4254
▁mates	-12.4256
▁signage	-12.4257
▁answers	-12.4257
▁coals	-12.4257
▁movements	-12.4258
▁Airways	-12.4258
▁parasails	-12.4261
▁articles	-12.4261
▁strokes	-12.4261
▁based	-12.4261
▁fixtures	-12.4267
▁decked	-12.4267
▁bicyclers	-12.4269
▁wristbands	-12.427
▁muscles	-12.427
▁cracks	-12.427
▁poll	-12.4272
▁backside	-12.4277
▁streaming	-12.4278
▁Wars	-12.428
▁apparent	-12.4288
▁approximately	-12.4289
▁shut	-12.4291
▁scrap	-12.4297
▁desserts	-12.43
▁lightly	-12.4307
▁pies	-12.4307
▁rags	-12.4316
▁interacts	-12.4317
▁beats	-12.432
▁cigars	-12.4326
▁manner	-12.4328
▁adolescents	-12.433
▁today	-12.4356
▁mugs	-12.4363
▁trails	-12.4369
▁hilltop	-12.4373
▁supports	-12.4376
▁nuns	-12.4379
▁humans	-12.4396
▁menus	-12.443
▁mopeds	-12.4433
▁lego	-12.4456
bar	-12.4467
li	-12.4473
▁acts	-12.4477
▁knits	-12.4503
▁packs	-12.4507
▁spreads	-12.4524
▁sanding	-12.4538
▁beards	-12.4539
▁jobs	-12.4551
▁informal	-12.4553
▁tubs	-12.4563
▁routines	-12.4591
cross	-12.4597
▁hero	-12.4625
tro	-12.4634
▁drummers	-12.4646
▁bands	-12.465
▁Co	-12.4665
▁lo	-12.4667
▁planes	-12.4667
▁fu	-12.4676
▁chests	-12.4687
▁gymnasts	-12.4705
ON	-12.4728
stride	-12.4745
ped	-12.4747
▁airplanes	-12.476
ow	-12.4766
▁Na	-12.4805
▁rackets	-12.4816
ate	-12.4876
▁streams	-12.4883
▁able	-12.4944
ily	-12.4972
▁fathers	-12.4972
im	-12.4983
ck	-12.5035
ile	-12.5037
▁con	-12.5057
sing	-12.5058
▁pa	-12.5067
tion	-12.5088
ary	-12.5182
U	-12.5194
▁notice	-12.522
let	-12.5223
W	-12.5249
wards	-12.5252
V	-12.5275
▁23	-12.5287
▁sl	-12.5295
▁Love	-12.5342
bed	-12.5379
tops	-12.5392
▁enthusiast	-12.5394
▁Tw	-12.5409
we	-12.5409
,"	-12.5417
▁Back	-12.5418
▁construct	-12.5437
room	-12.5437
work	-12.5438
▁diagram	-12.5442
▁wrangle	-12.5442
▁buoy	-12.5442
▁notepad	-12.5442
▁midriff	-12.5442
▁exam	-12.5442
▁explore	-12.5443
▁fairground	-12.5444
▁host	-12.5444
▁corral	-12.5445
▁ladle	-12.5445
▁santa	-12.5445
▁forearm	-12.5445
▁console	-12.5445
▁wonder	-12.5445
▁dragster	-12.5445
▁controller	-12.5445
▁squeeze	-12.5446
▁weld	-12.5446
▁Garden	-12.5446
▁sibling	-12.5446
▁stem	-12.5447
▁ascend	-12.5447
▁blossom	-12.5447
▁nation	-12.5447
▁pelican	-12.5447
▁Boat	-12.5447
▁fiddle	-12.5447
▁chemical	-12.5448
▁traverse	-12.5448
▁feature	-12.5448
▁root	-12.5448
▁document	-12.5449
▁veteran	-12.5449
▁Photographer	-12.5449
▁chop	-12.5449
▁patron	-12.5449
▁Swimmer	-12.5449
▁Firefighter	-12.545
▁Player	-12.545
▁spectator	-12.545
▁cutout	-12.5452
▁traveler	-12.5453
view	-12.5454
▁handler	-12.5456
▁weed	-12.5458
▁outward	-12.546
cut	-12.5462
▁waterski	-12.5463
made	-12.5463
▁passer	-12.5465
▁15	-12.5466
stone	-12.5466
▁overall	-12.5469
▁crow	-12.5471
truck	-12.5471
▁spell	-12.5471
berry	-12.5473
skating	-12.5473
▁bloom	-12.5474
decker	-12.5474
paneled	-12.5474
orange	-12.5474
brimmed	-12.5474
golf	-12.5474
▁animated	-12.5475
▁fierce	-12.5475
▁Ski	-12.5476
▁sparse	-12.5476
▁extinguish	-12.5476
▁joyous	-12.5476
▁Israel	-12.5476
▁alter	-12.5476
▁Calvin	-12.5476
▁Dozens	-12.5476
▁Elementary	-12.5476
▁Extreme	-12.5476
▁Festival	-12.5476
▁Iowa	-12.5476
▁Klein	-12.5476
▁Michael	-12.5476
▁Pilot	-12.5476
▁Pitcher	-12.5476
▁Quarterback	-12.5476
▁Salvation	-12.5476
▁Vietnamese	-12.5476
▁adobe	-12.5476
▁appropriate	-12.5476
▁atmosphere	-12.5476
▁benefit	-12.5476
▁boyfriend	-12.5476
▁buffalo	-12.5476
▁challenging	-12.5476
▁chorus	-12.5476
▁common	-12.5476
▁comprised	-12.5476
▁correct	-12.5476
▁crevice	-12.5476
▁crisp	-12.5476
▁daycare	-12.5476
▁deflated	-12.5476
▁despite	-12.5476
▁envelope	-12.5476
▁extravagant	-12.5476
▁eyeshadow	-12.5476
▁frilly	-12.5476
▁frustrated	-12.5476
▁fuchsia	-12.5476
▁garter	-12.5476
▁geyser	-12.5476
▁gotten	-12.5476
▁handgun	-12.5476
▁headlamp	-12.5476
▁indigenous	-12.5476
▁loudspeaker	-12.5476
▁mosaic	-12.5476
▁muslim	-12.5476
▁nervous	-12.5476
▁obese	-12.5476
▁opposition	-12.5476
▁palace	-12.5476
▁pantyhose	-12.5476
▁parrot	-12.5476
▁perspective	-12.5476
▁pruning	-12.5476
▁quaint	-12.5476
▁scrambling	-12.5476
▁serene	-12.5476
▁shrimp	-12.5476
▁slalom	-12.5476
▁sloping	-12.5476
▁smoky	-12.5476
▁snuggling	-12.5476
▁spiking	-12.5476
▁stencil	-12.5476
▁stewardess	-12.5476
▁streaked	-12.5476
▁swiftly	-12.5476
▁tailgate	-12.5476
▁tandem	-12.5476
▁timber	-12.5476
▁trophies	-12.5476
▁twenties	-12.5476
▁upturned	-12.5476
▁worried	-12.5476
▁Muzzled	-12.5476
▁Volkswagen	-12.5476
▁concentration	-12.5476
▁distorted	-12.5476
▁lunging	-12.5476
▁rays	-12.5476
▁sightseeing	-12.5476
▁version	-12.5476
▁Birmingham	-12.5476
▁causing	-12.5476
▁dj	-12.5476
▁Collie	-12.5476
▁Fishermen	-12.5476
▁North	-12.5476
▁central	-12.5476
▁droplets	-12.5476
▁ram	-12.5476
▁Dior	-12.5476
▁novelty	-12.5476
▁popular	-12.5476
▁squatted	-12.5476
▁Near	-12.5476
▁briskly	-12.5476
▁grim	-12.5476
▁property	-12.5476
▁Brazilian	-12.5476
▁VW	-12.5476
▁sunbathers	-12.5476
▁Riding	-12.5476
▁dramatically	-12.5476
▁said	-12.5476
▁improvised	-12.5476
▁creepy	-12.5476
▁Cute	-12.5476
▁cellist	-12.5476
▁entryway	-12.5476
▁embroidered	-12.5476
▁frightened	-12.5476
▁varied	-12.5476
▁Lynyrd	-12.5476
▁Penn	-12.5476
▁crossbones	-12.5476
▁opportunity	-12.5476
▁pouch	-12.5476
▁latter	-12.5476
▁shift	-12.5476
▁unpacking	-12.5476
▁Paris	-12.5476
▁boss	-12.5476
▁hello	-12.5476
▁stories	-12.5476
▁Tank	-12.5476
▁dugout	-12.5476
▁camo	-12.5476
▁perches	-12.5476
▁specialized	-12.5476
▁Brightly	-12.5476
▁fitness	-12.5476
▁leisurely	-12.5476
▁solar	-12.5476
▁wile	-12.5476
▁salesman	-12.5476
▁40	-12.5477
▁roman	-12.5477
▁Racing	-12.5477
▁Russian	-12.5477
▁drainage	-12.5477
▁Canada	-12.5477
▁intercept	-12.5477
▁House	-12.5477
▁backdropped	-12.5477
▁housing	-12.5477
▁roaming	-12.5477
▁ethnicity	-12.5477
▁production	-12.5477
▁noise	-12.5477
▁cornfield	-12.5477
▁daring	-12.5477
▁exhausted	-12.5477
▁tech	-12.5477
▁melting	-12.5477
▁union	-12.5477
▁shipping	-12.5477
▁powerful	-12.5477
▁wore	-12.5477
▁chilly	-12.5477
▁cropped	-12.5477
▁shuttered	-12.5477
▁dueling	-12.5477
▁archery	-12.5477
▁manicured	-12.5477
▁pounding	-12.5477
▁featured	-12.5477
▁waste	-12.5477
▁Welcome	-12.5478
▁totem	-12.5478
▁buckle	-12.5478
▁sifting	-12.5478
▁layered	-12.5478
▁tearing	-12.5478
▁dove	-12.5478
▁feeling	-12.5478
▁barbell	-12.5478
▁Commuters	-12.5478
▁dozes	-12.5478
▁executes	-12.5478
▁earpiece	-12.5478
▁tethered	-12.5479
▁access	-12.5479
▁decided	-12.5479
▁Not	-12.5479
▁received	-12.5479
▁directed	-12.5479
▁skilled	-12.5479
▁vertically	-12.5479
▁spare	-12.5479
▁kart	-12.5479
▁talkie	-12.548
▁saddled	-12.548
▁cracking	-12.548
▁picturesque	-12.5481
▁less	-12.5481
▁guided	-12.5481
▁taping	-12.5481
▁Line	-12.5481
▁instruction	-12.5481
▁crashed	-12.5481
▁elaborately	-12.5481
▁sucks	-12.5481
▁God	-12.5482
▁clasps	-12.5482
▁shouts	-12.5482
▁hovers	-12.5482
▁approached	-12.5483
▁bloody	-12.5483
▁toasting	-12.5484
▁ornately	-12.5484
▁hooking	-12.5484
▁maneuvering	-12.5484
▁staying	-12.5485
▁roughly	-12.5485
▁avoiding	-12.5485
▁hearing	-12.5485
▁rafters	-12.5487
▁lowering	-12.5487
▁grapes	-12.5489
▁hops	-12.5489
▁rowers	-12.549
▁shadowy	-12.5491
▁motioning	-12.5492
▁Jets	-12.5493
▁Giants	-12.5493
▁remains	-12.5493
▁backhand	-12.5494
▁showering	-12.5494
▁bot	-12.5495
▁sunbathes	-12.5497
▁End	-12.5498
▁shadowed	-12.5499
▁Riders	-12.5501
▁carrots	-12.5501
▁conducts	-12.5501
▁prays	-12.5501
▁solders	-12.5502
▁camouflaged	-12.5503
▁waterskis	-12.5504
▁roots	-12.5504
ti	-12.5506
▁tubing	-12.5507
▁toned	-12.5507
▁bagels	-12.5508
▁modeling	-12.5509
▁posted	-12.5511
▁grid	-12.5515
▁Greyhounds	-12.5515
▁pamphlets	-12.5519
▁browses	-12.5519
▁decorates	-12.5519
▁posting	-12.552
ra	-12.5522
▁hours	-12.5523
▁ornaments	-12.5523
▁waffles	-12.5523
▁releases	-12.5523
▁sweets	-12.5523
▁entertainers	-12.5524
▁bones	-12.5527
▁brings	-12.5527
▁vines	-12.5527
▁Las	-12.5527
evil	-12.5529
▁twins	-12.553
▁whitewater	-12.5533
▁Skiers	-12.5535
▁tambourines	-12.5538
▁sweats	-12.5542
▁always	-12.5548
▁crabs	-12.5549
▁newlyweds	-12.5553
▁wrists	-12.5553
▁bowties	-12.5553
▁adjustments	-12.5554
▁protects	-12.5557
▁sunhats	-12.5559
▁washers	-12.5563
▁du	-12.5565
▁bodysuits	-12.5568
ey	-12.557
▁hooks	-12.5572
▁backup	-12.559
▁seniors	-12.5591
▁painters	-12.5596
▁tests	-12.5597
▁loves	-12.5598
▁experiments	-12.5606
▁trims	-12.561
▁lu	-12.562
ons	-12.5633
▁lassos	-12.5636
der	-12.5637
ac	-12.5663
▁spool	-12.5665
▁briefcases	-12.5667
▁loads	-12.5667
▁links	-12.567
▁readying	-12.5671
▁Couples	-12.5693
▁rods	-12.5694
▁Ho	-12.5719
▁silhouettes	-12.572
▁Its	-12.573
▁spoons	-12.5732
▁drills	-12.5743
▁sodas	-12.5759
▁wrestles	-12.5762
▁unicycles	-12.577
▁fo	-12.5783
▁pizzas	-12.5786
▁bouquets	-12.5805
old	-12.583
▁ponytails	-12.5906
▁chil	-12.5922
ga	-12.5932
ka	-12.5943
all	-12.595
▁fringe	-12.599
▁locals	-12.6044
erry	-12.606
▁bandannas	-12.6068
ia	-12.6087
ba	-12.6195
ok	-12.6207
ny	-12.6231
ke	-12.6256
am	-12.6312
ber	-12.6321
▁To	-12.6353
▁die	-12.6375
▁res	-12.6387
▁mob	-12.6407
race	-12.6454
▁th	-12.6469
bb	-12.6483
▁awards	-12.6512
formal	-12.6518
▁ways	-12.655
▁fe	-12.6555
can	-12.656
ge	-12.6561
ism	-12.6561
ht	-12.6629
les	-12.6662
▁areas	-12.6681
ent	-12.6681
▁plan	-12.6734
▁drift	-12.6803
water	-12.6832
tan	-12.685
▁tell	-12.686
▁bump	-12.6861
▁flow	-12.6866
▁min	-12.6866
▁pray	-12.6866
▁smell	-12.6868
▁deal	-12.6869
▁happen	-12.6869
▁Bridge	-12.687
▁describe	-12.687
▁lanyard	-12.687
▁salute	-12.687
▁spirit	-12.687
▁sculpt	-12.687
▁dude	-12.687
▁magician	-12.687
▁Row	-12.6871
▁Game	-12.6871
▁hunter	-12.6871
▁pea	-12.6871
ward	-12.6871
▁comfort	-12.6872
▁hoist	-12.6872
▁conduct	-12.6872
▁final	-12.6873
▁anchor	-12.6873
▁blindfold	-12.6873
▁dachshund	-12.6873
▁syringe	-12.6873
▁pug	-12.6874
▁feel	-12.6875
▁paramedic	-12.6875
▁whale	-12.6875
▁commuter	-12.6875
▁jam	-12.6875
▁Motorcyclist	-12.6876
▁Senior	-12.6876
▁kickboxer	-12.6876
▁engineer	-12.6876
▁Bird	-12.6876
▁cell	-12.6876
▁crawl	-12.6876
▁wipe	-12.6876
▁archer	-12.6876
▁blind	-12.6876
▁cracker	-12.6876
▁horseshoe	-12.6877
▁carrot	-12.6877
▁Rider	-12.6877
▁trek	-12.6877
▁dip	-12.6877
▁pineapple	-12.6877
▁steak	-12.6877
▁rapid	-12.6877
▁solder	-12.6878
▁Hiker	-12.6878
▁protector	-12.6878
▁Soldier	-12.6878
▁rollerskater	-12.6878
▁Farmer	-12.6878
▁sneaker	-12.6878
▁booklet	-12.6879
me	-12.6882
ified	-12.6885
size	-12.6886
walk	-12.6887
lin	-12.6889
▁heel	-12.6889
goers	-12.689
oo	-12.69
▁twist	-12.69
▁attach	-12.69
▁whisk	-12.6902
▁scroll	-12.6902
▁steady	-12.6902
▁draft	-12.6902
▁loiter	-12.6902
▁joust	-12.6903
hawk	-12.6903
patterned	-12.6903
thumbs	-12.6903
weather	-12.6903
Asian	-12.6903
with	-12.6903
▁fry	-12.6903
leap	-12.6903
▁smart	-12.6903
▁brindle	-12.6903
▁supervise	-12.6904
▁humorous	-12.6904
▁moss	-12.6904
▁respective	-12.6904
▁prominent	-12.6904
▁awkward	-12.6904
We	-12.6904
▁super	-12.6904
▁eager	-12.6904
▁skydive	-12.6904
▁origin	-12.6904
▁cheerful	-12.6905
▁spider	-12.6905
▁eccentric	-12.6905
▁novel	-12.6905
▁70	-12.6905
▁grandchild	-12.6905
▁90	-12.6905
▁Athletic	-12.6905
▁Behind	-12.6905
▁Buy	-12.6905
▁Canyon	-12.6905
▁Choir	-12.6905
▁Cricket	-12.6905
▁Doberman	-12.6905
▁Eiffel	-12.6905
▁England	-12.6905
▁Factory	-12.6905
▁Lincoln	-12.6905
▁Medical	-12.6905
▁Memorial	-12.6905
▁Oxford	-12.6905
▁Patrons	-12.6905
▁Restaurant	-12.6905
▁Rodgers	-12.6905
▁Security	-12.6905
▁Southeast	-12.6905
▁Tibetan	-12.6905
▁Tower	-12.6905
▁Twelve	-12.6905
▁Unicef	-12.6905
▁Verizon	-12.6905
▁Working	-12.6905
▁additional	-12.6905
▁advantage	-12.6905
▁arguing	-12.6905
▁arriving	-12.6905
▁barista	-12.6905
▁bitten	-12.6905
▁bookcase	-12.6905
▁bratwurst	-12.6905
▁broccoli	-12.6905
▁burlap	-12.6905
▁burrito	-12.6905
▁cactus	-12.6905
▁caravan	-12.6905
▁chinatown	-12.6905
▁choosing	-12.6905
▁clenched	-12.6905
▁colliding	-12.6905
▁commuting	-12.6905
▁complected	-12.6905
▁compound	-12.6905
▁corrugated	-12.6905
▁counting	-12.6905
▁curvy	-12.6905
▁depicts	-12.6905
▁detergent	-12.6905
▁diploma	-12.6905
▁disabled	-12.6905
▁divided	-12.6905
▁dripping	-12.6905
▁easy	-12.6905
▁emblem	-12.6905
▁especially	-12.6905
▁ethnicities	-12.6905
▁falcon	-12.6905
▁faux	-12.6905
▁ferret	-12.6905
▁fiddling	-12.6905
▁flexible	-12.6905
▁fortune	-12.6905
▁gigantic	-12.6905
▁giraffe	-12.6905
▁gypsy	-12.6905
▁gyro	-12.6905
▁iMac	-12.6905
▁iPhone	-12.6905
▁indicating	-12.6905
▁knoll	-12.6905
▁lattice	-12.6905
▁liberty	-12.6905
▁mauve	-12.6905
▁maze	-12.6905
▁mechanism	-12.6905
▁moustache	-12.6905
▁nipple	-12.6905
▁organization	-12.6905
▁particular	-12.6905
▁perplexed	-12.6905
▁pianist	-12.6905
▁pitchfork	-12.6905
▁poultry	-12.6905
▁pounces	-12.6905
▁prairie	-12.6905
▁promote	-12.6905
▁retaining	-12.6905
▁rickety	-12.6905
▁speckled	-12.6905
▁squints	-12.6905
▁steadies	-12.6905
▁strength	-12.6905
▁supervising	-12.6905
▁supervision	-12.6905
▁sync	-12.6905
▁throat	-12.6905
▁tobacco	-12.6905
▁traversing	-12.6905
▁versus	-12.6905
▁viewfinder	-12.6905
▁vigil	-12.6905
▁windshield	-12.6905
▁wreath	-12.6905
▁2010	-12.6905
▁Morning	-12.6905
▁beetle	-12.6905
▁carcass	-12.6905
▁client	-12.6905
▁cramped	-12.6905
▁daredevil	-12.6905
▁energy	-12.6905
▁excavation	-12.6905
▁private	-12.6905
▁unwrapping	-12.6905
▁violence	-12.6905
▁Monster	-12.6905
▁Tech	-12.6905
▁banister	-12.6905
▁bluff	-12.6905
▁chute	-12.6905
▁comfortably	-12.6905
▁duties	-12.6905
▁glaring	-12.6905
▁#2	-12.6905
▁Mercedes	-12.6905
▁mosque	-12.6905
▁snail	-12.6905
▁Coffee	-12.6905
▁Series	-12.6905
▁bought	-12.6905
▁propeller	-12.6905
▁clover	-12.6905
▁european	-12.6905
▁freezer	-12.6905
▁glue	-12.6905
▁requires	-12.6905
▁foul	-12.6905
▁hatchet	-12.6905
▁tye	-12.6905
▁frolicking	-12.6905
▁rottweiler	-12.6905
▁Seated	-12.6905
▁calligraphy	-12.6905
▁gurney	-12.6905
▁rigging	-12.6905
▁snapping	-12.6905
▁Heineken	-12.6905
▁kitty	-12.6905
▁reenactment	-12.6905
▁Mets	-12.6905
▁dine	-12.6905
▁passageway	-12.6905
▁tipped	-12.6905
▁Rear	-12.6905
▁aquatic	-12.6905
▁Bud	-12.6905
▁milkshake	-12.6905
▁effort	-12.6905
▁stalks	-12.6905
▁explosion	-12.6905
▁From	-12.6905
▁Paul	-12.6905
▁Power	-12.6905
▁moose	-12.6905
▁rugged	-12.6905
▁starfish	-12.6905
▁Gap	-12.6905
▁dojo	-12.6905
▁shish	-12.6905
▁Sox	-12.6905
▁Businessman	-12.6905
▁chipping	-12.6905
▁Roman	-12.6905
▁grandma	-12.6905
▁zipping	-12.6905
▁Side	-12.6905
▁organic	-12.6905
▁rash	-12.6905
▁startled	-12.6905
▁via	-12.6905
▁arrested	-12.6905
▁flanked	-12.6905
▁moored	-12.6905
▁Australian	-12.6905
▁specific	-12.6905
▁funky	-12.6905
▁Cure	-12.6905
▁Hard	-12.6905
▁Run	-12.6905
▁maid	-12.6905
▁goofing	-12.6905
▁West	-12.6905
▁aggressively	-12.6905
▁zippered	-12.6905
▁goalkeeper	-12.6906
▁16	-12.6906
▁kneading	-12.6906
▁representing	-12.6906
▁massage	-12.6906
▁installation	-12.6906
▁cheerfully	-12.6906
▁floatation	-12.6906
▁armchair	-12.6906
▁household	-12.6906
▁Redheaded	-12.6906
▁Fat	-12.6906
▁mattresses	-12.6906
▁detailed	-12.6906
▁controlling	-12.6906
▁vat	-12.6906
▁PC	-12.6906
▁farmland	-12.6906
▁did	-12.6906
▁expressing	-12.6906
wearing	-12.6906
▁midday	-12.6907
▁repairman	-12.6907
▁sandpit	-12.6907
▁jousting	-12.6907
▁Pigeons	-12.6907
▁Walgreens	-12.6907
▁involves	-12.6907
▁plugs	-12.6907
▁windsurfs	-12.6907
▁portly	-12.6907
▁bagged	-12.6907
▁blooming	-12.6908
▁mate	-12.6908
▁policewoman	-12.6908
▁clustered	-12.6908
▁maple	-12.6908
▁rusted	-12.6908
▁copy	-12.6908
▁defended	-12.6909
▁El	-12.6909
▁touchdown	-12.6909
story	-12.691
▁foamy	-12.691
▁identically	-12.691
▁wildly	-12.6911
▁sweating	-12.6911
▁Employees	-12.6911
▁toenails	-12.6911
▁Villagers	-12.6911
▁spokes	-12.6911
▁handsaw	-12.6913
▁hopes	-12.6913
▁grade	-12.6913
▁bagging	-12.6913
▁outfield	-12.6913
▁ponders	-12.6914
▁Balding	-12.6914
▁raging	-12.6915
▁frowns	-12.6916
▁butchering	-12.6916
▁condoms	-12.6916
▁fare	-12.6917
▁monitoring	-12.6919
▁lassoing	-12.692
▁processing	-12.692
▁becomes	-12.692
▁stooping	-12.6922
▁outfielder	-12.6922
▁darkness	-12.6922
▁hairdo	-12.6922
▁autographs	-12.6924
▁sunflowers	-12.6924
▁accepts	-12.6924
▁consults	-12.6924
▁peruses	-12.6924
▁reviews	-12.6924
▁cruiser	-12.6925
▁skydivers	-12.6925
▁Crowded	-12.6926
▁marshmallows	-12.6929
▁bulbs	-12.6929
▁cells	-12.6933
▁horseshoes	-12.6933
▁comforts	-12.6933
▁tells	-12.6933
▁kicker	-12.6933
▁Shirt	-12.6936
▁chemicals	-12.6937
▁traverses	-12.6937
▁fiddles	-12.6937
▁lakeside	-12.6939
dy	-12.6939
▁impress	-12.6944
▁mows	-12.6945
▁Teens	-12.6946
▁lambs	-12.6946
▁adds	-12.6946
▁Horses	-12.6951
▁continues	-12.6951
▁buttoned	-12.6951
tic	-12.6952
hats	-12.6954
▁cocktails	-12.6955
▁lessons	-12.6955
▁sweeper	-12.6955
▁setup	-12.6957
▁collects	-12.696
▁bongos	-12.6964
▁techniques	-12.6964
▁leis	-12.6964
ving	-12.6964
▁cleared	-12.6965
▁forces	-12.6968
▁poolside	-12.6969
▁liner	-12.6971
cade	-12.6972
▁tastes	-12.6972
▁Le	-12.6975
▁waited	-12.6977
▁skit	-12.6978
▁folds	-12.6986
▁author	-12.6988
▁stickers	-12.6989
▁awesome	-12.6989
▁bells	-12.699
▁diapers	-12.6994
▁di	-12.6995
▁Surfers	-12.7003
▁tackler	-12.701
▁mansion	-12.701
▁innertubes	-12.7012
▁chisels	-12.7012
carts	-12.7014
▁wakeboards	-12.7016
▁partners	-12.7016
▁habit	-12.7018
▁throughout	-12.7018
▁swans	-12.7021
▁offerings	-12.7021
▁turkeys	-12.7025
▁stays	-12.7025
▁ask	-12.7025
▁docking	-12.7026
▁companions	-12.7034
▁So	-12.7039
▁cha	-12.7039
▁cops	-12.7047
▁atv	-12.705
▁viewers	-12.7059
▁golfers	-12.7061
▁levels	-12.7065
▁awnings	-12.7065
▁handbags	-12.7074
▁bared	-12.7076
▁header	-12.7084
▁spotlights	-12.7091
▁services	-12.7096
▁flu	-12.7101
▁le	-12.7105
fully	-12.7107
▁amounts	-12.7109
▁cabs	-12.7113
▁shawls	-12.7118
▁backpacking	-12.7119
▁meets	-12.7131
▁trips	-12.7132
▁rad	-12.7134
▁Ha	-12.7151
▁Cat	-12.7168
▁irons	-12.7189
▁trashcans	-12.7194
▁trained	-12.7196
▁seed	-12.7211
▁en	-12.7215
▁toting	-12.7227
▁towers	-12.7231
▁tugs	-12.7241
▁decor	-12.7248
ator	-12.7249
▁wi	-12.7249
ler	-12.7251
chipper	-12.7265
ap	-12.7279
▁sinks	-12.7298
▁carvings	-12.7307
ors	-12.7317
▁saws	-12.733
▁maps	-12.7339
▁amp	-12.7342
▁handstands	-12.7353
▁rat	-12.7355
▁address	-12.7368
1	-12.737
▁mounds	-12.7371
L	-12.7371
▁firetrucks	-12.738
▁cobblestones	-12.738
▁scarfs	-12.7396
tted	-12.7402
ad	-12.7427
▁teachers	-12.7436
▁palms	-12.7472
ong	-12.7529
▁walled	-12.756
ied	-12.7573
ted	-12.7614
▁op	-12.7623
▁Monk	-12.764
ha	-12.7656
que	-12.7657
tting	-12.7701
per	-12.7728
▁fences	-12.7728
▁sands	-12.7748
▁tr	-12.781
▁Pan	-12.7913
▁mirrors	-12.7951
▁For	-12.8039
▁fro	-12.804
ping	-12.806
▁Y	-12.8088
light	-12.8117
▁Lo	-12.8136
door	-12.8138
▁Ra	-12.8178
cc	-12.8179
fe	-12.8208
▁bro	-12.8228
dress	-12.8229
▁Mac	-12.8257
▁plum	-12.835
▁bras	-12.8366
▁Just	-12.8371
hole	-12.8379
ew	-12.8382
▁days	-12.8403
ound	-12.8409
▁da	-12.8413
▁id	-12.8413
ters	-12.8446
ack	-12.8462
▁burn	-12.8473
rag	-12.8474
▁Tab	-12.8491
ho	-12.8497
Do	-12.8498
school	-12.8498
front	-12.8512
ps	-12.8519
cap	-12.8526
▁provide	-12.8535
▁mind	-12.8536
▁roast	-12.8536
▁colleague	-12.8537
▁geisha	-12.8537
▁cork	-12.8537
▁keg	-12.8537
▁Palestinian	-12.8537
▁gender	-12.8537
▁miniskirt	-12.8537
▁date	-12.8537
▁Tree	-12.8538
bike	-12.8538
▁till	-12.8538
▁organize	-12.8539
▁strand	-12.854
▁contain	-12.854
▁divider	-12.854
▁placard	-12.854
▁saxophonist	-12.854
▁victim	-12.854
▁reason	-12.854
▁experience	-12.854
▁sucker	-12.854
▁bullet	-12.854
▁Truck	-12.8542
▁pallet	-12.8542
▁plaque	-12.8542
▁souvenir	-12.8542
▁grasp	-12.8542
▁survey	-12.8542
▁yell	-12.8542
▁chandelier	-12.8542
▁twirl	-12.8543
▁saucer	-12.8543
▁concentrate	-12.8543
▁bulb	-12.8543
▁marshmallow	-12.8543
▁sunbathe	-12.8543
▁shine	-12.8544
▁eyebrow	-12.8544
▁pew	-12.8544
▁kabob	-12.8544
▁refreshment	-12.8544
▁rollerblade	-12.8545
▁Toy	-12.8545
▁visitor	-12.8545
▁bystander	-12.8545
▁handlebar	-12.8545
▁Teenager	-12.8546
▁snowfall	-12.8547
▁shopper	-12.8548
▁firework	-12.8549
▁headlight	-12.8551
▁layer	-12.8554
book	-12.8554
plane	-12.8559
▁thigh	-12.8562
▁adorn	-12.8565
▁skim	-12.8565
▁sac	-12.8567
▁smash	-12.8567
▁crochet	-12.8567
▁rid	-12.8568
▁Play	-12.8568
▁Lab	-12.8569
▁clutch	-12.8569
▁hunt	-12.8569
turn	-12.8569
potty	-12.8569
boy	-12.8569
sign	-12.8569
powered	-12.8569
frame	-12.8569
bearded	-12.8569
laden	-12.8569
two	-12.8569
uniformed	-12.857
action	-12.857
▁cobble	-12.857
kick	-12.857
▁apply	-12.857
▁manicure	-12.857
▁pinstripe	-12.857
▁grave	-12.857
▁buff	-12.8571
▁disinterested	-12.8571
▁teach	-12.8571
walled	-12.8571
▁partial	-12.8571
▁Domino	-12.8571
▁Engine	-12.8571
▁gentle	-12.8571
▁affection	-12.8571
▁Basket	-12.8571
▁delicate	-12.8571
▁euro	-12.8571
▁Amsterdam	-12.8571
▁Attractive	-12.8571
▁Carnival	-12.8571
▁Carolina	-12.8571
▁Chinatown	-12.8571
▁Club	-12.8571
▁Company	-12.8571
▁Cruz	-12.8571
▁Dalmatian	-12.8571
▁Dalmation	-12.8571
▁Grandmother	-12.8571
▁Houston	-12.8571
▁Huckabee	-12.8571
▁Liberty	-12.8571
▁Michigan	-12.8571
▁Morgan	-12.8571
▁NFL	-12.8571
▁Needle	-12.8571
▁Pabst	-12.8571
▁Pacific	-12.8571
▁Pretty	-12.8571
▁Quiznos	-12.8571
▁Scuba	-12.8571
▁Single	-12.8571
▁Sparks	-12.8571
▁Special	-12.8571
▁Taking	-12.8571
▁Toronto	-12.8571
▁Trader	-12.8571
▁Volvo	-12.8571
▁accompanies	-12.8571
▁aerodynamic	-12.8571
▁aloft	-12.8571
▁aloud	-12.8571
▁amphitheater	-12.8571
▁ashtray	-12.8571
▁avenue	-12.8571
▁bookshelves	-12.8571
▁boutique	-12.8571
▁catamaran	-12.8571
▁celery	-12.8571
▁championship	-12.8571
▁cherries	-12.8571
▁collage	-12.8571
▁complicated	-12.8571
▁congested	-12.8571
▁corgi	-12.8571
▁county	-12.8571
▁cucumber	-12.8571
▁cuffs	-12.8571
▁custodian	-12.8571
▁depicted	-12.8571
▁describing	-12.8571
▁description	-12.8571
▁didgeridoo	-12.8571
▁disheveled	-12.8571
▁eclectic	-12.8571
▁elmo	-12.8571
▁embedded	-12.8571
▁embellished	-12.8571
▁equally	-12.8571
▁fascinated	-12.8571
▁felt	-12.8571
▁festivities	-12.8571
▁fiery	-12.8571
▁flexibility	-12.8571
▁florist	-12.8571
▁foosball	-12.8571
▁frantically	-12.8571
▁freedom	-12.8571
▁furnace	-12.8571
▁garish	-12.8571
▁general	-12.8571
▁gnawing	-12.8571
▁grapple	-12.8571
▁handwritten	-12.8571
▁hazy	-12.8571
▁hookah	-12.8571
▁instructs	-12.8571
▁investigating	-12.8571
▁kangaroo	-12.8571
▁lagoon	-12.8571
▁lampshade	-12.8571
▁marquee	-12.8571
▁mickey	-12.8571
▁mismatched	-12.8571
▁muffin	-12.8571
▁mustachioed	-12.8571
▁neutral	-12.8571
▁oblivious	-12.8571
▁oboe	-12.8571
▁obscene	-12.8571
▁observation	-12.8571
▁outstreached	-12.8571
▁packaging	-12.8571
▁paragliding	-12.8571
▁partition	-12.8571
▁pegs	-12.8571
▁perfume	-12.8571
▁pharmacist	-12.8571
▁placid	-12.8571
▁plucking	-12.8571
▁primarily	-12.8571
▁prosthetic	-12.8571
▁queue	-12.8571
▁quintet	-12.8571
▁regular	-12.8571
▁respirator	-12.8571
▁rinsing	-12.8571
▁rotating	-12.8571
▁roulette	-12.8571
▁scrabble	-12.8571
▁secluded	-12.8571
▁separating	-12.8571
▁sideburns	-12.8571
▁slinky	-12.8571
▁snarling	-12.8571
▁snoopy	-12.8571
▁spectating	-12.8571
▁strainer	-12.8571
▁sungalsses	-12.8571
▁sunshade	-12.8571
▁synthesizer	-12.8571
▁tapestry	-12.8571
▁taupe	-12.8571
▁transparent	-12.8571
▁triathlon	-12.8571
▁twelve	-12.8571
▁wharf	-12.8571
▁Afro	-12.8571
▁Egyptian	-12.8571
▁Haiti	-12.8571
▁Louis	-12.8571
▁Space	-12.8571
▁Volleyball	-12.8571
▁Winnie	-12.8571
▁altar	-12.8571
▁bleeding	-12.8571
▁crumbling	-12.8571
▁culinary	-12.8571
▁fowl	-12.8571
▁highlights	-12.8571
▁jewish	-12.8571
▁ruler	-12.8571
▁salt	-12.8571
▁signify	-12.8571
▁strung	-12.8571
▁Ferris	-12.8571
▁Mike	-12.8571
▁Revolutionary	-12.8571
▁patties	-12.8571
▁pizzeria	-12.8571
▁plenty	-12.8571
▁triangular	-12.8571
▁Mariachi	-12.8571
▁Metro	-12.8571
▁Theater	-12.8571
▁hollow	-12.8571
▁impressive	-12.8571
▁lease	-12.8571
▁pulpit	-12.8571
▁sprinkling	-12.8571
▁disaster	-12.8572
▁judo	-12.8572
▁prepping	-12.8572
▁conga	-12.8572
▁tinsel	-12.8572
▁Greek	-12.8572
▁UFC	-12.8572
▁Wedding	-12.8572
▁icing	-12.8572
▁lathered	-12.8572
▁propane	-12.8572
▁Running	-12.8572
▁affectionately	-12.8572
▁vigorously	-12.8572
▁100	-12.8572
▁ragged	-12.8572
▁brim	-12.8572
▁catholic	-12.8572
▁Jackson	-12.8572
▁contemporary	-12.8572
▁response	-12.8572
▁Few	-12.8572
▁dense	-12.8572
▁literature	-12.8572
▁Bay	-12.8572
▁teepee	-12.8572
▁skillfully	-12.8572
▁Both	-12.8572
▁Cross	-12.8572
▁uncrowded	-12.8572
▁waders	-12.8572
▁Colored	-12.8572
▁Coney	-12.8572
▁Excited	-12.8572
▁piling	-12.8572
▁responders	-12.8572
▁Life	-12.8572
▁pagoda	-12.8572
▁pristine	-12.8572
▁excavating	-12.8572
▁mood	-12.8572
▁resembling	-12.8572
▁Wine	-12.8572
▁reaction	-12.8572
▁Groom	-12.8572
▁beef	-12.8572
▁stating	-12.8572
▁retro	-12.8572
▁reins	-12.8572
▁footpath	-12.8572
▁pleased	-12.8572
▁prisoner	-12.8572
▁ruffled	-12.8572
▁Racers	-12.8572
▁strapless	-12.8572
▁Fireman	-12.8572
▁Jim	-12.8572
▁digger	-12.8572
▁clutches	-12.8572
▁polar	-12.8572
▁marine	-12.8572
▁copies	-12.8572
▁filing	-12.8572
▁batsman	-12.8572
▁dice	-12.8572
▁escorted	-12.8572
▁attaches	-12.8572
▁gracefully	-12.8572
▁Musical	-12.8572
▁gallon	-12.8572
▁kerchief	-12.8572
▁UK	-12.8572
▁mailman	-12.8572
▁underpass	-12.8572
▁identifying	-12.8572
▁Miller	-12.8572
▁contently	-12.8572
▁stepped	-12.8572
▁reclined	-12.8572
▁Hero	-12.8572
▁Best	-12.8572
▁splattered	-12.8572
▁idly	-12.8572
▁demolished	-12.8572
▁smeared	-12.8572
▁flashes	-12.8572
▁tipping	-12.8572
▁why	-12.8572
▁treatment	-12.8572
▁smartly	-12.8572
▁tux	-12.8572
▁Skateboarding	-12.8573
▁snowshoeing	-12.8573
▁tangled	-12.8573
▁sparsely	-12.8573
▁licked	-12.8573
▁spilled	-12.8573
▁siding	-12.8573
▁readies	-12.8573
▁entirely	-12.8573
▁properly	-12.8573
▁parasailer	-12.8573
▁silverware	-12.8573
▁accompanying	-12.8573
▁hailing	-12.8573
▁discusses	-12.8573
▁poling	-12.8573
▁sending	-12.8573
▁pout	-12.8573
CE	-12.8573
▁mailboxes	-12.8573
▁smith	-12.8574
▁damp	-12.8574
▁showroom	-12.8574
▁flashy	-12.8574
▁crocheting	-12.8574
▁diet	-12.8574
▁idle	-12.8574
▁polishes	-12.8574
▁tooth	-12.8574
▁hosted	-12.8574
▁overseeing	-12.8574
▁electrician	-12.8574
▁electricity	-12.8574
▁dealing	-12.8574
▁loitering	-12.8574
▁hoisting	-12.8574
▁lenses	-12.8574
▁curiously	-12.8574
▁lapel	-12.8574
▁Nurses	-12.8574
▁empties	-12.8574
▁texas	-12.8574
▁tagging	-12.8574
▁Lakers	-12.8574
▁wondering	-12.8575
▁twine	-12.8575
lift	-12.8575
▁known	-12.8575
▁later	-12.8575
▁scraping	-12.8575
▁domed	-12.8575
▁branded	-12.8576
▁harvested	-12.8576
▁uniquely	-12.8576
▁soon	-12.8577
▁bordering	-12.8577
▁hitter	-12.8577
▁knocking	-12.8578
▁barricaded	-12.8578
▁anxiously	-12.8578
▁filed	-12.8578
▁inclined	-12.8578
▁launched	-12.8578
▁sparing	-12.8578
▁tiered	-12.8579
▁locking	-12.8579
▁Travelers	-12.8579
▁sprinkles	-12.8579
▁panting	-12.858
▁clips	-12.858
▁His	-12.858
▁columned	-12.8581
▁polished	-12.8581
▁Fair	-12.8582
▁paneled	-12.8583
▁heard	-12.8583
▁inspector	-12.8584
▁pebbles	-12.8585
▁straddles	-12.8585
▁spits	-12.8585
▁peddles	-12.8585
▁preservers	-12.8585
▁resembles	-12.8585
▁peaking	-12.8585
▁goth	-12.8585
▁tears	-12.8585
▁battery	-12.8586
▁treating	-12.8587
▁supporters	-12.8587
▁shared	-12.8587
▁Olympian	-12.8587
▁choke	-12.8587
▁sidecar	-12.8588
rching	-12.8588
▁plushie	-12.8589
▁charges	-12.859
▁repels	-12.859
▁loses	-12.859
▁poke	-12.859
ust	-12.859
▁businesses	-12.8594
▁Celtics	-12.8595
▁figurines	-12.8595
▁selects	-12.8595
▁skewers	-12.8595
▁paddled	-12.8595
▁sends	-12.8595
▁hatted	-12.8596
▁bathes	-12.8596
dance	-12.8596
▁tar	-12.8597
▁teller	-12.8597
▁carton	-12.8599
▁looming	-12.8599
▁headlights	-12.86
▁snowfalls	-12.86
▁burns	-12.86
▁decker	-12.8601
▁coached	-12.8601
▁Monks	-12.8602
▁clin	-12.8603
▁blinds	-12.8605
▁outboard	-12.8606
▁headpiece	-12.8606
▁cutouts	-12.8611
▁squeezes	-12.8611
▁wonders	-12.8611
bell	-12.8611
▁beanbags	-12.8616
▁circled	-12.8616
▁pinkish	-12.8616
▁)	-12.8617
▁belted	-12.8618
▁bonnets	-12.8621
▁spouts	-12.8621
▁asks	-12.8624
▁arrangements	-12.8626
▁greets	-12.8626
▁tango	-12.8626
▁graduates	-12.8631
▁contestants	-12.8631
ama	-12.8634
▁underside	-12.8635
▁Wells	-12.8637
▁necked	-12.8638
▁enjoyed	-12.8639
▁skinned	-12.864
▁buns	-12.8642
▁vaults	-12.8642
▁slips	-12.8647
▁lollipops	-12.8647
▁te	-12.8648
▁Outdoors	-12.8658
▁beakers	-12.8658
▁zombies	-12.8663
▁pails	-12.8663
▁roofs	-12.8664
▁attic	-12.8666
▁snowmobiles	-12.8668
▁vases	-12.8668
▁aggressive	-12.8671
▁caricatures	-12.8673
▁wands	-12.8678
▁smocks	-12.8679
▁rained	-12.8683
▁messages	-12.8684
▁tails	-12.8687
▁cabinets	-12.8689
▁dozens	-12.8689
▁automobiles	-12.871
▁footballers	-12.8712
▁zips	-12.8715
▁elders	-12.8716
▁elevators	-12.8726
▁butchers	-12.8737
▁sailors	-12.8747
▁blueish	-12.8749
▁dam	-12.8752
▁rickshaws	-12.8752
▁pencils	-12.8753
ik	-12.8757
▁scan	-12.876
▁boarded	-12.8769
▁forth	-12.8778
▁paste	-12.8779
▁tablecloths	-12.8779
ple	-12.8789
▁pic	-12.8795
▁Fast	-12.8807
▁plains	-12.8811
▁highchairs	-12.8811
▁actor	-12.8815
▁baring	-12.8817
ner	-12.8825
▁doubles	-12.8827
▁calls	-12.8827
▁bibs	-12.8827
ur	-12.8831
▁command	-12.8832
▁advance	-12.8833
▁Live	-12.8837
▁dresser	-12.8867
ense	-12.8868
ware	-12.8875
▁shi	-12.8876
▁wheelbarrows	-12.8897
▁exhibits	-12.8897
▁flats	-12.8902
▁reflections	-12.8908
▁pastor	-12.8913
▁stalls	-12.8924
▁floored	-12.8929
ain	-12.8938
link	-12.8955
ndy	-12.8967
▁patients	-12.8973
▁signed	-12.8982
▁names	-12.9006
▁mouthed	-12.901
▁j	-12.9021
▁average	-12.9023
▁flooring	-12.9027
▁amber	-12.9036
ripe	-12.904
▁manning	-12.904
▁castles	-12.9044
▁dressy	-12.9045
▁Is	-12.9056
rt	-12.9058
▁songs	-12.906
▁actions	-12.9065
▁moms	-12.9076
ive	-12.9116
▁la	-12.9167
▁fre	-12.9193
▁barbecues	-12.9194
▁wagons	-12.9205
▁flights	-12.9205
RE	-12.9245
▁inches	-12.9248
ette	-12.9262
ical	-12.9264
▁clubs	-12.9267
▁mustaches	-12.9267
▁wo	-12.9285
ax	-12.9287
▁downed	-12.9295
be	-12.9307
ces	-12.9318
▁backing	-12.9321
ray	-12.9342
▁spun	-12.9367
▁David	-12.9396
unt	-12.9406
ell	-12.9435
▁Me	-12.9551
rate	-12.9552
▁program	-12.9562
ame	-12.9588
▁#	-12.9622
ale	-12.9625
ard	-12.9634
▁flee	-12.9699
▁ka	-12.9723
LE	-12.9754
▁manager	-12.9772
▁gears	-12.9797
▁tone	-12.9849
▁inter	-12.992
ran	-12.9925
▁sa	-12.9948
▁ledges	-12.9953
▁gr	-12.9957
▁platforms	-12.9997
ries	-13
iming	-13.0022
gent	-13.0025
▁Du	-13.0069
▁sn	-13.0075
boarder	-13.0083
ara	-13.0092
▁whi	-13.0099
tive	-13.0128
nts	-13.0166
▁crowding	-13.0192
▁bodyboard	-13.0231
▁sp	-13.0239
long	-13.0259
▁ca	-13.026
ide	-13.0269
glider	-13.0278
▁Pro	-13.0325
pi	-13.0325
▁pi	-13.0362
▁skip	-13.0366
5	-13.0367
▁Da	-13.0383
▁ge	-13.0383
ever	-13.0388
▁atm	-13.0435
nge	-13.0447
ively	-13.0449
▁mar	-13.045
▁pe	-13.0451
▁ex	-13.0461
ship	-13.0462
play	-13.0474
eek	-13.0485
▁Bat	-13.0491
▁seek	-13.0499
ttle	-13.0503
▁prom	-13.0517
riding	-13.0521
▁22	-13.0523
paint	-13.0531
▁arrange	-13.0536
▁slid	-13.0536
▁incomplete	-13.0537
▁volley	-13.0537
▁duct	-13.0537
▁welcome	-13.0537
▁Climber	-13.0537
Shirt	-13.0537
▁brake	-13.0537
▁maintain	-13.0538
▁cuddle	-13.0539
▁slum	-13.0539
▁corset	-13.054
▁biscuit	-13.054
▁scramble	-13.054
▁sniff	-13.054
lantern	-13.054
▁preteen	-13.054
▁sole	-13.0541
▁select	-13.0541
▁skewer	-13.0541
▁consult	-13.0541
▁measure	-13.0541
▁accept	-13.0541
▁remain	-13.0541
▁volunteer	-13.0541
▁review	-13.0541
▁Ballerina	-13.0542
▁send	-13.0542
▁peruse	-13.0542
▁detail	-13.0542
▁dodge	-13.0542
▁hipster	-13.0542
▁Cook	-13.0543
▁Celtic	-13.0543
▁figurine	-13.0543
▁zoom	-13.0543
▁pepper	-13.0543
▁Giant	-13.0544
▁Doctor	-13.0544
▁Jockey	-13.0544
▁sunflower	-13.0544
▁skydiver	-13.0544
▁content	-13.0544
▁CD	-13.0544
▁fingernail	-13.0544
▁Scout	-13.0544
▁Yankee	-13.0544
▁pretzel	-13.0544
▁Performer	-13.0545
▁emerge	-13.0545
▁drumstick	-13.0545
▁donation	-13.0545
▁Student	-13.0545
▁binocular	-13.0545
▁autograph	-13.0545
▁Lego	-13.0545
▁Lot	-13.0547
▁curl	-13.055
game	-13.0551
body	-13.0553
▁seller	-13.0553
▁checker	-13.0555
ski	-13.0558
▁hatch	-13.0558
keeper	-13.0565
vest	-13.0567
wall	-13.0567
working	-13.0567
▁mold	-13.0567
▁Out	-13.0568
▁report	-13.0568
▁Speed	-13.0568
dancing	-13.0568
▁sift	-13.0568
▁express	-13.0569
▁occupy	-13.0569
heeled	-13.0569
skirt	-13.0569
bound	-13.0569
▁Elder	-13.0569
Welcome	-13.0569
20	-13.0569
beater	-13.0569
strewn	-13.0569
▁wreck	-13.0569
picker	-13.0569
Eastern	-13.0569
naked	-13.0569
yellow	-13.0569
New	-13.057
shake	-13.057
▁reel	-13.057
▁delight	-13.057
▁distract	-13.057
black	-13.057
gym	-13.057
▁Steve	-13.057
▁lodge	-13.057
US	-13.057
boxing	-13.057
▁illuminate	-13.057
▁Bill	-13.057
▁flamboyant	-13.057
▁slim	-13.0571
▁fatigue	-13.0571
▁Field	-13.0571
▁damage	-13.0571
▁anxious	-13.0571
suited	-13.0571
clothed	-13.0571
▁recreation	-13.0571
▁Orient	-13.0571
▁Paint	-13.0571
▁replica	-13.0571
▁careful	-13.0571
ford	-13.0571
▁Again	-13.0571
▁Under	-13.0571
▁Heavy	-13.0571
▁civil	-13.0571
▁handicap	-13.0571
▁Q	-13.0571
▁Twenty	-13.0571
▁Vietnam	-13.0571
▁inquisitive	-13.0571
▁murder	-13.0571
▁shanty	-13.0571
fiving	-13.0571
potties	-13.0571
▁#8	-13.0571
▁Arizona	-13.0571
▁Atlanta	-13.0571
▁Baltimore	-13.0571
▁Barcelona	-13.0571
▁Blurry	-13.0571
▁Butcher	-13.0571
▁Bystanders	-13.0571
▁Camden	-13.0571
▁Competitive	-13.0571
▁Corp	-13.0571
▁Derby	-13.0571
▁Distant	-13.0571
▁Express	-13.0571
▁George	-13.0571
▁Grandfather	-13.0571
▁Guinness	-13.0571
▁Illinois	-13.0571
▁Keep	-13.0571
▁Lacrosse	-13.0571
▁Laura	-13.0571
▁League	-13.0571
▁Liverpool	-13.0571
▁Odeon	-13.0571
▁Oregon	-13.0571
▁Overweight	-13.0571
▁Pepsi	-13.0571
▁Phoenix	-13.0571
▁Profile	-13.0571
▁Ribbon	-13.0571
▁Samsung	-13.0571
▁Sesame	-13.0571
▁Smoke	-13.0571
▁Stitch	-13.0571
▁Surgeons	-13.0571
▁Virginia	-13.0571
▁Visitors	-13.0571
▁Volunteers	-13.0571
▁Vuitton	-13.0571
▁Window	-13.0571
▁Winter	-13.0571
▁YMCA	-13.0571
▁Year	-13.0571
▁asparagus	-13.0571
▁atrium	-13.0571
▁aviator	-13.0571
▁bistro	-13.0571
▁blazing	-13.0571
▁bonding	-13.0571
▁brandishing	-13.0571
▁brilliant	-13.0571
▁british	-13.0571
▁buddhist	-13.0571
▁butterflies	-13.0571
▁casserole	-13.0571
▁corndogs	-13.0571
▁cosmetics	-13.0571
▁crucifix	-13.0571
▁custody	-13.0571
▁decrepit	-13.0571
▁dispensing	-13.0571
▁dodging	-13.0571
▁drab	-13.0571
▁elevation	-13.0571
▁eleven	-13.0571
▁emblazoned	-13.0571
▁entitled	-13.0571
▁executing	-13.0571
▁expansive	-13.0571
▁fastening	-13.0571
▁financial	-13.0571
▁framing	-13.0571
▁gaming	-13.0571
▁ghetto	-13.0571
▁goodbye	-13.0571
▁grazing	-13.0571
▁handcuffs	-13.0571
▁harlequin	-13.0571
▁harpsichord	-13.0571
▁heritage	-13.0571
▁huddling	-13.0571
▁ignoring	-13.0571
▁illuminating	-13.0571
▁impoverished	-13.0571
▁instructed	-13.0571
▁ivy	-13.0571
▁jesus	-13.0571
▁judging	-13.0571
▁kazoo	-13.0571
▁kelp	-13.0571
▁knelt	-13.0571
▁lecturing	-13.0571
▁majestic	-13.0571
▁maracas	-13.0571
▁obscuring	-13.0571
▁parachutist	-13.0571
▁paraphernalia	-13.0571
▁pontoon	-13.0571
▁precariously	-13.0571
▁prescription	-13.0571
▁producing	-13.0571
▁promenade	-13.0571
▁provocative	-13.0571
▁proximity	-13.0571
▁pursuing	-13.0571
▁relationship	-13.0571
▁residence	-13.0571
▁rummaging	-13.0571
▁safari	-13.0571
▁sampling	-13.0571
▁scythe	-13.0571
▁seamstress	-13.0571
▁securing	-13.0571
▁shabby	-13.0571
▁shucking	-13.0571
▁shuffling	-13.0571
▁snooze	-13.0571
▁solemn	-13.0571
▁sophisticated	-13.0571
▁stubble	-13.0571
▁stucco	-13.0571
▁technical	-13.0571
▁tentatively	-13.0571
▁theatrical	-13.0571
▁tickling	-13.0571
▁tortoise	-13.0571
▁trading	-13.0571
▁tusks	-13.0571
▁unbuttoned	-13.0571
▁unkempt	-13.0571
▁urinal	-13.0571
▁urinating	-13.0571
▁urn	-13.0571
▁utilizing	-13.0571
▁vandalized	-13.0571
▁vows	-13.0571
▁wrench	-13.0571
▁wrought	-13.0571
▁yarmulke	-13.0571
▁Cream	-13.0571
▁Department	-13.0571
▁Hebrew	-13.0571
▁Hindu	-13.0571
▁Holding	-13.0571
▁Mustang	-13.0571
▁Odd	-13.0571
▁Opposing	-13.0571
▁Pepper	-13.0571
▁Sheltie	-13.0571
▁Third	-13.0571
▁Venice	-13.0571
▁arab	-13.0571
▁biology	-13.0571
▁chestnut	-13.0571
▁flailing	-13.0571
▁freight	-13.0571
▁frothy	-13.0571
▁giggling	-13.0571
▁jelly	-13.0571
▁reef	-13.0571
▁stereo	-13.0571
▁sugar	-13.0571
▁tranquil	-13.0571
▁.`	-13.0571
▁Candy	-13.0571
▁Every	-13.0571
▁Metal	-13.0571
▁Violinist	-13.0571
▁celebratory	-13.0571
▁climate	-13.0571
▁contemplative	-13.0571
▁contortionist	-13.0571
▁medicine	-13.0571
▁pausing	-13.0571
▁rhythmic	-13.0571
▁stunning	-13.0571
▁stylist	-13.0571
▁throng	-13.0571
▁undergoing	-13.0571
▁#5	-13.0571
▁Harley	-13.0571
▁Minnie	-13.0571
▁Puma	-13.0571
▁Western	-13.0571
▁When	-13.0571
▁flapping	-13.0571
▁funnel	-13.0571
▁loaves	-13.0571
▁peasant	-13.0571
▁pork	-13.0571
▁portfolio	-13.0571
▁rapper	-13.0571
▁remember	-13.0571
▁stern	-13.0571
▁superior	-13.0571
▁1950	-13.0571
▁curry	-13.0571
▁graveyard	-13.0571
▁oppose	-13.0571
▁tabby	-13.0571
▁Deep	-13.0572
▁Getting	-13.0572
▁Goalie	-13.0572
▁boiling	-13.0572
▁breaststroke	-13.0572
▁brook	-13.0572
▁inflating	-13.0572
▁saber	-13.0572
▁sleek	-13.0572
▁superhero	-13.0572
▁thong	-13.0572
▁Aaron	-13.0572
▁Heavyset	-13.0572
▁Marx	-13.0572
▁afar	-13.0572
▁dealership	-13.0572
▁eyelashes	-13.0572
▁gesticulates	-13.0572
▁sweatband	-13.0572
▁Twins	-13.0572
▁everybody	-13.0572
▁groomsmen	-13.0572
▁grove	-13.0572
▁oxford	-13.0572
▁Donald	-13.0572
▁elf	-13.0572
▁feast	-13.0572
▁scanning	-13.0572
▁Topless	-13.0572
▁UPS	-13.0572
▁Underground	-13.0572
▁depot	-13.0572
▁fern	-13.0572
▁masonry	-13.0572
▁Deli	-13.0572
▁futon	-13.0572
▁swap	-13.0572
▁Gaza	-13.0572
▁Most	-13.0572
▁furiously	-13.0572
▁wristwatch	-13.0572
▁refuse	-13.0572
▁spinner	-13.0572
▁leak	-13.0572
▁stew	-13.0572
painting	-13.0572
▁corporate	-13.0572
▁hosing	-13.0572
▁#3	-13.0572
▁freckled	-13.0572
▁quality	-13.0572
▁wrinkled	-13.0572
▁dragged	-13.0572
▁modified	-13.0572
▁lump	-13.0572
▁fins	-13.0572
▁multistory	-13.0572
▁rental	-13.0572
▁chilling	-13.0572
▁often	-13.0572
▁plot	-13.0572
▁squid	-13.0572
▁Mounted	-13.0572
▁Bicyclers	-13.0572
▁Rican	-13.0572
▁spaniel	-13.0572
▁Spring	-13.0572
▁17	-13.0572
▁Armenian	-13.0572
▁Dame	-13.0572
▁Hollister	-13.0572
▁National	-13.0572
▁Pooh	-13.0572
▁Skater	-13.0572
▁election	-13.0572
▁immigration	-13.0572
▁inspired	-13.0572
▁majority	-13.0572
▁ordinary	-13.0572
▁stricken	-13.0572
▁syrup	-13.0572
▁drunken	-13.0572
▁tinker	-13.0572
▁gleefully	-13.0572
▁meandering	-13.0572
▁pats	-13.0572
▁regarding	-13.0572
▁styling	-13.0572
▁successfully	-13.0572
▁wolf	-13.0572
▁bagpipers	-13.0572
▁fries	-13.0572
▁latino	-13.0572
▁intrigued	-13.0572
▁masterpiece	-13.0572
▁Our	-13.0572
▁sprinkled	-13.0572
▁groin	-13.0572
▁Actors	-13.0572
▁Face	-13.0572
▁expresses	-13.0572
▁statement	-13.0572
▁mono	-13.0572
away	-13.0572
▁struck	-13.0572
▁Notre	-13.0572
▁yong	-13.0572
▁soloist	-13.0572
▁pear	-13.0572
▁Belly	-13.0572
▁Dora	-13.0572
▁pinning	-13.0572
▁videotaped	-13.0572
▁cannonball	-13.0572
▁bulletin	-13.0572
▁Beer	-13.0572
▁dear	-13.0572
▁60	-13.0572
▁bedspread	-13.0572
▁clicking	-13.0572
▁swirling	-13.0572
▁mac	-13.0572
▁hungry	-13.0572
▁Merry	-13.0572
▁trapped	-13.0572
▁icicle	-13.0572
▁Christ	-13.0573
▁distressed	-13.0573
▁Policemen	-13.0573
▁Sam	-13.0573
▁Up	-13.0573
▁prominently	-13.0573
▁batteries	-13.0573
▁sketches	-13.0573
▁anticipating	-13.0573
▁breastfeeding	-13.0573
▁confronting	-13.0573
▁dollies	-13.0573
▁remodeling	-13.0573
▁smirking	-13.0573
▁woodwork	-13.0573
▁fiercely	-13.0573
▁marshal	-13.0573
rail	-13.0573
▁Sled	-13.0573
▁saver	-13.0573
▁adventurous	-13.0573
▁Using	-13.0573
▁LA	-13.0573
▁ill	-13.0573
▁sledge	-13.0573
▁63	-13.0573
▁supervised	-13.0573
▁crushing	-13.0573
▁X	-13.0573
▁receiver	-13.0573
▁swallowing	-13.0574
▁unto	-13.0574
▁Colorfully	-13.0574
▁36	-13.0574
▁allowing	-13.0574
▁vaulter	-13.0574
▁crocheted	-13.0574
▁loudly	-13.0574
▁roasted	-13.0574
▁tinkering	-13.0574
▁maintaining	-13.0574
▁burnt	-13.0574
▁Ron	-13.0574
▁mint	-13.0574
▁spindle	-13.0574
▁twisted	-13.0574
▁anchored	-13.0574
▁happened	-13.0574
▁fingerless	-13.0574
▁pouting	-13.0574
▁hitch	-13.0574
▁elegantly	-13.0575
▁Bare	-13.0575
▁schoolwork	-13.0575
▁glassware	-13.0575
▁That	-13.0575
▁Policeman	-13.0575
▁skyward	-13.0575
▁crocs	-13.0575
▁Angels	-13.0575
▁Citizens	-13.0575
▁Sisters	-13.0575
▁dangles	-13.0575
▁spectacles	-13.0575
▁swoops	-13.0575
▁clippers	-13.0575
▁gauges	-13.0575
▁duet	-13.0575
▁mowed	-13.0575
▁midway	-13.0575
▁32	-13.0576
▁rodent	-13.0576
▁potty	-13.0576
▁trike	-13.0576
▁silky	-13.0576
▁vibrantly	-13.0576
▁sandbox	-13.0576
▁21	-13.0576
▁marshy	-13.0576
▁Care	-13.0576
▁53	-13.0577
▁39	-13.0577
▁scar	-13.0577
▁tough	-13.0577
▁Dirty	-13.0577
▁cola	-13.0577
▁poured	-13.0578
▁sunning	-13.0578
▁paperback	-13.0578
▁chairlift	-13.0578
▁overhanging	-13.0578
▁enjoyment	-13.0578
▁joined	-13.0579
▁Top	-13.0579
▁attended	-13.058
workers	-13.058
climb	-13.058
▁loader	-13.058
▁loved	-13.058
▁capped	-13.0581
▁explorer	-13.0581
▁powdered	-13.0581
▁regrets	-13.0581
▁Images	-13.0581
▁communications	-13.0581
▁condiments	-13.0581
▁effects	-13.0581
▁manipulates	-13.0581
▁reacts	-13.0581
▁ruffles	-13.0581
▁suburbs	-13.0581
▁tilts	-13.0581
▁attracts	-13.0581
▁celebrated	-13.0582
▁busking	-13.0582
▁docks	-13.0582
▁sick	-13.0583
▁pointer	-13.0583
▁King	-13.0583
▁signaling	-13.0584
▁tanning	-13.0584
▁butchered	-13.0585
▁recorded	-13.0586
▁slate	-13.0586
▁dash	-13.0586
▁discovers	-13.0588
▁Capris	-13.0588
▁choices	-13.0588
▁confronts	-13.0588
▁considers	-13.0588
▁deaths	-13.0588
▁rappels	-13.0588
▁roomful	-13.059
▁fear	-13.059
▁ven	-13.0592
▁touched	-13.0593
▁history	-13.0593
▁plat	-13.0594
▁tumbles	-13.0594
▁briefs	-13.0594
▁investigates	-13.0594
▁spills	-13.0594
▁twigs	-13.0594
▁reflects	-13.0594
▁whips	-13.0594
▁linked	-13.0595
▁waterproof	-13.0595
▁Only	-13.0595
▁airfield	-13.0597
▁underway	-13.0598
▁Camp	-13.0598
▁DJing	-13.0598
▁linking	-13.0598
lanterns	-13.0599
▁linens	-13.0599
▁aging	-13.0599
▁raceway	-13.06
▁leaped	-13.06
▁Cooks	-13.0601
▁CDs	-13.0601
▁measures	-13.0601
▁maintains	-13.0601
▁widely	-13.0603
▁barbecued	-13.0604
▁seeming	-13.0605
▁reached	-13.0606
▁ducking	-13.0607
▁Toys	-13.0607
▁chandeliers	-13.0607
▁snowmen	-13.0609
▁attempted	-13.061
▁towering	-13.061
▁sloped	-13.061
▁nest	-13.0612
▁graveled	-13.0613
▁Birds	-13.0614
▁Motorcyclists	-13.0614
▁Seniors	-13.0614
▁kickboxers	-13.0614
▁hoists	-13.0614
▁sculpts	-13.0614
▁fir	-13.0616
▁coaching	-13.0617
throw	-13.0619
▁Boats	-13.062
▁pelicans	-13.062
▁nations	-13.062
▁bask	-13.0624
▁planted	-13.0625
▁textiles	-13.0627
▁pearls	-13.0627
▁thinks	-13.0627
▁insurance	-13.0627
▁rested	-13.0629
▁cubes	-13.0633
▁acrobats	-13.0633
▁warriors	-13.0633
▁beaming	-13.0633
▁creamer	-13.0635
wash	-13.0637
▁outline	-13.0637
▁breeds	-13.064
▁llamas	-13.064
▁mushrooms	-13.064
▁quarters	-13.064
▁Artists	-13.064
▁glows	-13.064
▁hoes	-13.0641
▁rundown	-13.0644
▁penguins	-13.0646
▁knows	-13.0646
▁winners	-13.0646
▁kneeing	-13.0649
▁holders	-13.065
▁brochures	-13.0653
▁Sw	-13.0653
▁wanders	-13.0654
▁cutter	-13.0658
▁cylinders	-13.0659
▁hauls	-13.0659
▁reporters	-13.0659
▁Motorcycles	-13.0672
▁hairnets	-13.0672
▁crests	-13.0672
▁shortly	-13.0675
▁vi	-13.0675
use	-13.0677
▁binders	-13.0679
▁welders	-13.0679
ci	-13.068
▁screened	-13.0681
▁railed	-13.0683
▁mechanics	-13.0685
▁ranger	-13.0689
▁selections	-13.0692
▁joins	-13.0692
▁joint	-13.0694
▁annual	-13.0696
▁bits	-13.0696
▁kittens	-13.0698
▁Their	-13.0705
▁Ben	-13.0707
▁code	-13.0707
▁Levi	-13.0713
▁dons	-13.0716
▁mending	-13.0717
▁seesaws	-13.0718
▁attacks	-13.0718
▁Bis	-13.0719
▁Chan	-13.0724
▁mules	-13.0724
▁attendants	-13.0731
▁turtles	-13.0731
▁stationed	-13.0732
▁mills	-13.0738
▁mimes	-13.0738
▁terriers	-13.0738
▁Jet	-13.0739
▁im	-13.0741
▁ta	-13.0747
▁med	-13.075
rod	-13.076
▁watered	-13.0761
▁roofing	-13.0764
▁clarinets	-13.0764
▁skins	-13.0776
▁holidays	-13.0777
▁puppets	-13.0777
ans	-13.0797
▁linen	-13.0801
▁skying	-13.0804
▁cleaners	-13.0813
ster	-13.0813
6	-13.0818
ates	-13.0827
▁angles	-13.0832
▁battles	-13.085
▁longer	-13.0854
▁marbles	-13.0857
▁Frisbees	-13.0859
▁singlet	-13.086
vid	-13.086
▁targets	-13.087
OR	-13.0871
▁suites	-13.0877
▁rears	-13.0891
▁allow	-13.0905
▁handrails	-13.0917
▁intent	-13.0921
bbing	-13.0925
▁bricked	-13.0926
lling	-13.0929
scent	-13.0948
watch	-13.0956
tal	-13.0957
▁tripods	-13.0958
▁movies	-13.0958
▁Action	-13.0958
▁ju	-13.0958
▁lava	-13.0966
▁showers	-13.0968
▁wh	-13.0971
if	-13.0976
era	-13.0978
▁ATVs	-13.0998
▁televisions	-13.0998
▁treed	-13.1003
▁cellos	-13.1019
▁moments	-13.1019
bur	-13.1029
▁carting	-13.1039
ock	-13.1052
▁ke	-13.1069
▁bandaged	-13.1096
▁waists	-13.1129
ake	-13.1143
▁seconds	-13.1149
▁Ne	-13.1221
ev	-13.1232
ff	-13.1235
ible	-13.1241
aft	-13.1245
▁par	-13.1246
▁carriages	-13.1303
▁asians	-13.1326
▁mu	-13.133
▁styles	-13.1367
cher	-13.1394
NA	-13.1394
▁crews	-13.1439
rock	-13.145
RA	-13.1475
chi	-13.1508
▁News	-13.1509
MP	-13.1522
▁Mi	-13.1529
but	-13.1537
ering	-13.1542
rin	-13.155
▁dr	-13.1563
ks	-13.1588
rade	-13.1591
▁cam	-13.1593
▁Bur	-13.1608
▁grooms	-13.161
▁#1	-13.1619
▁Hands	-13.1632
▁Labor	-13.1637
▁infield	-13.1686
▁snowed	-13.1691
ory	-13.17
ney	-13.1701
led	-13.1788
▁Hand	-13.1857
ude	-13.1859
ren	-13.191
▁Ca	-13.1941
mer	-13.1946
▁Fi	-13.1974
▁fi	-13.1989
our	-13.1998
▁dec	-13.2033
▁shallows	-13.204
hs	-13.2063
yard	-13.2064
▁pol	-13.2084
▁THE	-13.2092
bing	-13.2096
ged	-13.2121
her	-13.2123
skiing	-13.2129
int	-13.2136
▁brunettes	-13.2191
▁May	-13.2194
▁str	-13.2236
▁fla	-13.2239
▁su	-13.2268
X	-13.2269
▁Je	-13.2289
▁cri	-13.2334
mes	-13.2345
▁pu	-13.2363
ld	-13.2371
▁walkways	-13.2378
uss	-13.2393
▁president	-13.2394
▁En	-13.2406
▁Z	-13.2406
boards	-13.241
▁Vi	-13.2414
IS	-13.2416
run	-13.2449
how	-13.2478
gin	-13.2509
ics	-13.2573
▁x	-13.258
▁Pal	-13.2585
▁Papa	-13.2612
aving	-13.2622
lar	-13.2629
▁Bo	-13.2635
own	-13.2666
shes	-13.2684
gray	-13.2687
▁journal	-13.2698
▁han	-13.2703
tent	-13.2711
ride	-13.2714
▁swat	-13.2753
▁rights	-13.2761
▁brain	-13.2778
▁met	-13.2839
▁Cab	-13.2844
▁sights	-13.2864
7	-13.2877
▁Tri	-13.2877
ome	-13.2889
▁z	-13.291
▁pane	-13.2922
essing	-13.2929
▁sno	-13.2934
ern	-13.2946
▁44	-13.2949
arm	-13.2955
▁hop	-13.2956
rows	-13.2959
▁jo	-13.296
▁bathe	-13.2961
ties	-13.2971
▁Ira	-13.298
▁loo	-13.2986
istic	-13.2997
▁Pa	-13.3007
armed	-13.3011
not	-13.3016
gy	-13.3023
▁lose	-13.3027
▁sew	-13.303
▁pound	-13.3035
▁secure	-13.3035
toned	-13.3037
▁Saint	-13.3037
▁Silhouette	-13.3037
▁encounter	-13.3037
▁pendant	-13.3037
▁sphere	-13.3037
▁venture	-13.3037
▁dumbbell	-13.3037
▁Guard	-13.3037
▁minute	-13.3037
▁Tiger	-13.3037
▁oval	-13.3037
▁poem	-13.3037
▁alien	-13.3037
▁glare	-13.3037
▁blast	-13.3037
▁role	-13.3038
▁bushel	-13.3038
▁reflect	-13.3038
▁spill	-13.3038
▁vial	-13.3038
▁shutter	-13.3039
proof	-13.3039
decorated	-13.304
▁ID	-13.304
rider	-13.304
▁Short	-13.304
▁graze	-13.304
▁yacht	-13.304
▁Marine	-13.304
▁gutter	-13.304
▁slipper	-13.304
▁stain	-13.3041
▁extend	-13.3041
▁scare	-13.3041
▁drape	-13.3041
▁lick	-13.3041
▁preserve	-13.3041
suit	-13.3042
▁posses	-13.3042
▁shrug	-13.3042
▁Sport	-13.3042
▁consumer	-13.3042
▁feat	-13.3042
▁jaw	-13.3042
▁wound	-13.3042
▁explain	-13.3042
▁packet	-13.3042
▁juggle	-13.3042
▁Officer	-13.3042
▁researcher	-13.3042
▁brief	-13.3042
▁investigate	-13.3042
▁twig	-13.3042
▁whip	-13.3043
oss	-13.3043
▁recline	-13.3043
▁repel	-13.3043
▁charge	-13.3043
▁laborer	-13.3043
▁become	-13.3043
▁grape	-13.3044
▁utensil	-13.3044
▁Athlete	-13.3044
▁melon	-13.3044
▁lunge	-13.3044
▁Starbuck	-13.3045
▁billiard	-13.3045
▁grownup	-13.3045
▁tread	-13.3045
▁scrub	-13.3045
▁Sooner	-13.3045
▁Pedestrian	-13.3045
▁discus	-13.3045
▁Time	-13.3045
▁respect	-13.3046
▁tumble	-13.3047
coat	-13.3049
stage	-13.3049
▁headphone	-13.3051
▁trot	-13.3052
cloth	-13.3054
▁cot	-13.3055
bag	-13.3057
pad	-13.306
box	-13.306
boat	-13.3061
ough	-13.3062
foot	-13.3062
gear	-13.3062
acker	-13.3063
ric	-13.3064
lic	-13.3064
▁blend	-13.3066
▁scratch	-13.3067
▁restrain	-13.3067
▁perch	-13.3067
step	-13.3068
▁crank	-13.3068
well	-13.3068
aster	-13.3068
Love	-13.3069
Where	-13.3069
visibility	-13.3069
▁wax	-13.3069
viz	-13.3069
▁respond	-13.3069
RO	-13.3069
fish	-13.3069
▁swallow	-13.3069
▁accompany	-13.3069
wrapped	-13.3069
▁fool	-13.3069
crowded	-13.3069
▁applaud	-13.3069
▁whisper	-13.3069
peace	-13.3069
year	-13.3069
Jesus	-13.3069
fitting	-13.3069
vaulting	-13.3069
driven	-13.3069
level	-13.3069
▁plaster	-13.3069
world	-13.3069
hockey	-13.3069
women	-13.3069
through	-13.3069
blond	-13.3069
clock	-13.3069
corner	-13.3069
beam	-13.307
faced	-13.307
cycle	-13.307
both	-13.307
packed	-13.307
▁shock	-13.307
jects	-13.307
▁slush	-13.307
▁latin	-13.307
string	-13.307
▁app	-13.307
▁crude	-13.307
▁faint	-13.307
▁dominate	-13.3071
▁relative	-13.3071
ummer	-13.3071
▁swamp	-13.3071
▁Class	-13.3071
blading	-13.3071
▁graceful	-13.3071
▁passionate	-13.3071
▁Summ	-13.3071
▁Office	-13.3071
▁Tea	-13.3071
trum	-13.3071
▁Grouch	-13.3071
▁Bunch	-13.3071
q	-13.3071
▁cosplay	-13.3071
vention	-13.3071
▁difficult	-13.3071
▁Prince	-13.3071
▁danger	-13.3071
▁gorge	-13.3071
▁brunet	-13.3071
▁ecstatic	-13.3071
nnel	-13.3071
▁28	-13.3071
araoke	-13.3071
▁18	-13.3071
▁excess	-13.3071
▁Euro	-13.3071
▁shuttle	-13.3071
▁"4"	-13.3071
▁58	-13.3071
▁AstroTurf	-13.3071
▁Bruce	-13.3071
▁Cadillac	-13.3071
▁Cannot	-13.3071
▁Capitol	-13.3071
▁Castle	-13.3071
▁Castro	-13.3071
▁Cement	-13.3071
▁Chubby	-13.3071
▁Church	-13.3071
▁Corona	-13.3071
▁Crazy	-13.3071
▁Darth	-13.3071
▁Einstein	-13.3071
▁Enjoying	-13.3071
▁Famous	-13.3071
▁FedEx	-13.3071
▁Flowers	-13.3071
▁Front	-13.3071
▁GameCube	-13.3071
▁Goofy	-13.3071
▁Helicopter	-13.3071
▁Helmeted	-13.3071
▁Incredible	-13.3071
▁Indigenous	-13.3071
▁International	-13.3071
▁Interracial	-13.3071
▁Jasmine	-13.3071
▁Jazz	-13.3071
▁Joggers	-13.3071
▁July	-13.3071
▁Kawasaki	-13.3071
▁Kingdom	-13.3071
▁Madrid	-13.3071
▁Magazine	-13.3071
▁Major	-13.3071
▁McCain	-13.3071
▁Minnesota	-13.3071
▁NYPD	-13.3071
▁Nancy	-13.3071
▁Nesquik	-13.3071
▁Next	-13.3071
▁Orchestra	-13.3071
▁Orioles	-13.3071
▁Oscar	-13.3071
▁Pelosi	-13.3071
▁Penske	-13.3071
▁Performing	-13.3071
▁Poor	-13.3071
▁Portland	-13.3071
▁Random	-13.3071
▁Robbins	-13.3071
▁Scene	-13.3071
▁Seahawks	-13.3071
▁Simpsons	-13.3071
▁Solitary	-13.3071
▁SouthEast	-13.3071
▁Springsteen	-13.3071
▁Stevie	-13.3071
▁Stonehurst	-13.3071
▁Synchronized	-13.3071
▁Traffic	-13.3071
▁Uncle	-13.3071
▁Utah	-13.3071
▁Vespa	-13.3071
▁Vitamin	-13.3071
▁Waiting	-13.3071
▁Warrior	-13.3071
▁Wisconsin	-13.3071
▁Workman	-13.3071
▁accomplish	-13.3071
▁according	-13.3071
▁aftermath	-13.3071
▁alcove	-13.3071
▁angrily	-13.3071
▁anorak	-13.3071
▁archaeological	-13.3071
▁argyle	-13.3071
▁auburn	-13.3071
▁aviation	-13.3071
▁bleached	-13.3071
▁bocce	-13.3071
▁boiled	-13.3071
▁bridle	-13.3071
▁bunnies	-13.3071
▁buttocks	-13.3071
▁cabbage	-13.3071
▁cacti	-13.3071
▁cadet	-13.3071
▁calendar	-13.3071
▁captivated	-13.3071
▁cascading	-13.3071
▁centipede	-13.3071
▁charades	-13.3071
▁checkpoint	-13.3071
▁chihuahua	-13.3071
▁circling	-13.3071
▁cleaver	-13.3071
▁clump	-13.3071
▁cobalt	-13.3071
▁collision	-13.3071
▁companies	-13.3071
▁compress	-13.3071
▁corsage	-13.3071
▁crescent	-13.3071
▁crevasse	-13.3071
▁crimson	-13.3071
▁crocks	-13.3071
▁crossword	-13.3071
▁culvert	-13.3071
▁cylindrical	-13.3071
▁dawn	-13.3071
▁demolition	-13.3071
▁determination	-13.3071
▁dinning	-13.3071
▁dividing	-13.3071
▁elliptical	-13.3071
▁encouraging	-13.3071
▁endurance	-13.3071
▁engraving	-13.3071
▁enormous	-13.3071
▁enthralled	-13.3071
▁enthusiasm	-13.3071
▁equations	-13.3071
▁exposure	-13.3071
▁feild	-13.3071
▁fender	-13.3071
▁fingertips	-13.3071
▁flinging	-13.3071
▁frizzy	-13.3071
▁funeral	-13.3071
▁galoshes	-13.3071
▁generator	-13.3071
▁genie	-13.3071
▁german	-13.3071
▁ggauged	-13.3071
▁global	-13.3071
▁grandpa	-13.3071
▁grandparents	-13.3071
▁grumpy	-13.3071
▁grungy	-13.3071
▁handcuffed	-13.3071
▁helium	-13.3071
▁hummingbird	-13.3071
▁hydraulic	-13.3071
▁impact	-13.3071
▁indeterminate	-13.3071
▁indicates	-13.3071
▁injury	-13.3071
▁inscription	-13.3071
▁italian	-13.3071
▁ivory	-13.3071
▁jacuzzi	-13.3071
▁jaywalk	-13.3071
▁journey	-13.3071
▁librarian	-13.3071
▁loft	-13.3071
▁london	-13.3071
▁marionette	-13.3071
▁masquerade	-13.3071
▁memorabilia	-13.3071
▁menorah	-13.3071
▁mesmerized	-13.3071
▁messaging	-13.3071
▁minimal	-13.3071
▁mysterious	-13.3071
▁naval	-13.3071
▁nike	-13.3071
▁numeral	-13.3071
▁obstructed	-13.3071
▁peculiar	-13.3071
▁perpendicular	-13.3071
▁pestle	-13.3071
▁petition	-13.3071
▁pheasant	-13.3071
▁porcelain	-13.3071
▁prancing	-13.3071
▁predominantly	-13.3071
▁ramshackle	-13.3071
▁rectangle	-13.3071
▁recumbent	-13.3071
▁referencing	-13.3071
▁refrigerated	-13.3071
▁renovating	-13.3071
▁residents	-13.3071
▁restaraunt	-13.3071
▁rotisserie	-13.3071
▁rucksack	-13.3071
▁schedule	-13.3071
▁scottish	-13.3071
▁scowls	-13.3071
▁scribbling	-13.3071
▁segment	-13.3071
▁shoelaces	-13.3071
▁significant	-13.3071
▁simply	-13.3071
▁south	-13.3071
▁spectacular	-13.3071
▁spigot	-13.3071
▁stapling	-13.3071
▁straitjacket	-13.3071
▁suspect	-13.3071
▁taekwondo	-13.3071
▁tailgating	-13.3071
▁terrorist	-13.3071
▁thermos	-13.3071
▁thoroughfare	-13.3071
▁thoroughly	-13.3071
▁threatening	-13.3071
▁trampled	-13.3071
▁trowel	-13.3071
▁trudging	-13.3071
▁turbulent	-13.3071
▁ugly	-13.3071
▁unicef	-13.3071
▁varieties	-13.3071
▁velodrome	-13.3071
▁victorious	-13.3071
▁vinyl	-13.3071
▁wardrobe	-13.3071
▁whimsical	-13.3071
▁wicket	-13.3071
▁Acrobatic	-13.3071
▁Airplane	-13.3071
▁Before	-13.3071
▁Dodgers	-13.3071
▁Hopper	-13.3071
▁Human	-13.3071
▁NBA	-13.3071
▁Phone	-13.3071
▁Pipe	-13.3071
▁Religious	-13.3071
▁Riot	-13.3071
▁abdomen	-13.3071
▁anthem	-13.3071
▁apex	-13.3071
▁concourse	-13.3071
▁cottage	-13.3071
▁driftwood	-13.3071
▁erupt	-13.3071
▁flings	-13.3071
▁gourmet	-13.3071
▁icon	-13.3071
▁lioness	-13.3071
▁meditation	-13.3071
▁nuzzling	-13.3071
▁propelled	-13.3071
▁sarong	-13.3071
▁shoving	-13.3071
▁submarine	-13.3071
▁visual	-13.3071
Frog	-13.3071
bodied	-13.3071
▁1800	-13.3071
▁Audience	-13.3071
▁Hiking	-13.3071
▁Jelly	-13.3071
▁Sallie	-13.3071
▁Shake	-13.3071
▁Softball	-13.3071
▁Tinkerbell	-13.3071
▁Tye	-13.3071
▁crayola	-13.3071
▁data	-13.3071
▁development	-13.3071
▁email	-13.3071
▁executive	-13.3071
▁futuristic	-13.3071
▁lavish	-13.3071
▁mussel	-13.3071
▁overloaded	-13.3071
▁squash	-13.3071
▁trudge	-13.3071
▁week	-13.3071
▁Orphans	-13.3071
▁Shack	-13.3071
▁lumberjack	-13.3071
▁Angry	-13.3071
▁Former	-13.3071
▁Peaceful	-13.3071
▁Russell	-13.3071
▁amusing	-13.3071
▁automatic	-13.3071
▁dreary	-13.3071
▁miscellaneous	-13.3071
▁nestled	-13.3071
▁perusing	-13.3071
▁scuffle	-13.3071
▁stoking	-13.3071
▁Bryant	-13.3072
▁Country	-13.3072
▁fetal	-13.3072
▁gingham	-13.3072
▁piping	-13.3072
▁pouncing	-13.3072
▁tomb	-13.3072
▁uncompleted	-13.3072
▁unidentifiable	-13.3072
▁website	-13.3072
▁Ballet	-13.3072
▁Lead	-13.3072
▁Redbull	-13.3072
▁Traditional	-13.3072
▁drug	-13.3072
▁emitting	-13.3072
▁fronds	-13.3072
▁instrumentalist	-13.3072
▁precision	-13.3072
▁promotional	-13.3072
▁samurai	-13.3072
▁script	-13.3072
▁voting	-13.3072
▁Sidewalk	-13.3072
▁confrontation	-13.3072
▁exhaustion	-13.3072
▁nips	-13.3072
▁ecstatically	-13.3072
▁lacy	-13.3072
▁tress	-13.3072
▁vineyard	-13.3072
▁yolk	-13.3072
▁Armed	-13.3072
▁Bunny	-13.3072
▁Hut	-13.3072
▁occurred	-13.3072
▁puma	-13.3072
▁Cameraman	-13.3072
▁Carmel	-13.3072
▁Tired	-13.3072
▁vying	-13.3072
vested	-13.3072
▁dying	-13.3072
▁reform	-13.3072
▁Dead	-13.3072
▁Pakistani	-13.3072
▁suv	-13.3072
▁Arabian	-13.3072
▁Kayaker	-13.3072
▁gavel	-13.3072
▁throne	-13.3072
Teaching	-13.3072
▁Argentina	-13.3072
▁gull	-13.3072
▁moderately	-13.3072
▁violently	-13.3072
▁96	-13.3072
▁pageant	-13.3072
▁slipping	-13.3072
▁vanilla	-13.3072
▁wiring	-13.3072
▁Sunday	-13.3072
▁lama	-13.3072
Bienvenue	-13.3072
▁embroidery	-13.3072
▁mache	-13.3072
▁penalty	-13.3072
▁revers	-13.3072
▁Lounge	-13.3072
▁Statue	-13.3072
▁bracing	-13.3072
▁entangled	-13.3072
▁interactive	-13.3072
▁kiln	-13.3072
▁uncomfortable	-13.3072
▁Smart	-13.3072
▁voice	-13.3072
▁snapped	-13.3072
▁snare	-13.3072
▁Wow	-13.3072
▁breezeway	-13.3072
▁lathe	-13.3072
▁propping	-13.3072
▁cavern	-13.3072
▁oak	-13.3072
▁forehand	-13.3072
▁mason	-13.3072
▁fanned	-13.3072
▁newsboy	-13.3072
▁risers	-13.3072
▁Punk	-13.3072
▁depth	-13.3072
▁authority	-13.3072
▁wreckage	-13.3072
▁Sari	-13.3072
▁Surrounded	-13.3072
▁affixed	-13.3072
▁contorted	-13.3072
▁cosplayers	-13.3072
▁engulfed	-13.3072
▁Kick	-13.3072
▁Photograph	-13.3072
▁flare	-13.3072
▁paraglider	-13.3072
▁Quin	-13.3072
▁Tube	-13.3072
▁comical	-13.3072
▁purpose	-13.3072
▁Aladdin	-13.3072
▁First	-13.3072
▁Fresh	-13.3072
▁adidas	-13.3072
▁depressed	-13.3072
▁ejected	-13.3072
▁invisible	-13.3072
▁mandolin	-13.3072
▁candlelight	-13.3072
▁thrust	-13.3072
▁94	-13.3072
▁Climbing	-13.3072
▁chanting	-13.3072
▁crag	-13.3072
▁cruising	-13.3072
▁dwelling	-13.3072
▁seahorse	-13.3072
▁sprawling	-13.3072
▁swooping	-13.3072
▁winks	-13.3072
▁Head	-13.3072
▁Yong	-13.3072
▁Barney	-13.3072
▁Room	-13.3072
▁beech	-13.3072
▁mantle	-13.3072
▁Pride	-13.3072
▁cordless	-13.3072
▁dozing	-13.3072
▁Groucho	-13.3072
▁sideshow	-13.3072
▁daddy	-13.3072
▁stout	-13.3072
▁swordfish	-13.3072
▁soundboard	-13.3072
▁County	-13.3072
▁titled	-13.3072
▁expo	-13.3072
▁distributing	-13.3072
▁penny	-13.3072
▁cure	-13.3072
▁foldable	-13.3072
▁lunchbox	-13.3072
▁woolen	-13.3072
linked	-13.3072
▁furnished	-13.3072
▁skatepark	-13.3072
dden	-13.3072
▁original	-13.3072
▁toolbox	-13.3072
▁interaction	-13.3072
▁Pop	-13.3072
▁Peter	-13.3072
▁servicemen	-13.3072
▁erected	-13.3072
▁shrouded	-13.3072
▁relatively	-13.3072
▁semicircle	-13.3072
▁Cher	-13.3072
▁duo	-13.3072
▁panties	-13.3072
▁collapsed	-13.3072
▁AIDS	-13.3072
▁Alaska	-13.3072
▁partake	-13.3072
▁collector	-13.3072
▁Sleeping	-13.3073
▁arresting	-13.3073
▁bareback	-13.3073
▁bursting	-13.3073
▁clasping	-13.3073
▁flattening	-13.3073
▁reacting	-13.3073
▁tilting	-13.3073
▁zipline	-13.3073
▁proclaiming	-13.3073
washing	-13.3073
▁pondering	-13.3073
▁cloudless	-13.3073
▁Something	-13.3073
▁55	-13.3073
▁tavern	-13.3073
▁dappled	-13.3073
▁worshipers	-13.3073
▁sent	-13.3073
▁Lite	-13.3073
▁framework	-13.3073
▁nursery	-13.3073
▁buzzed	-13.3073
▁accented	-13.3073
▁loafers	-13.3073
▁Event	-13.3073
▁travelling	-13.3073
▁fanning	-13.3073
▁hue	-13.3073
gue	-13.3073
izz	-13.3073
▁fryer	-13.3073
▁spotting	-13.3073
▁finally	-13.3073
▁born	-13.3073
▁advertised	-13.3073
▁connecting	-13.3073
▁demolishing	-13.3073
▁stitching	-13.3073
▁witnessing	-13.3073
▁Hanging	-13.3073
▁52	-13.3073
▁Hell	-13.3073
▁Classic	-13.3073
▁crushed	-13.3073
▁restrained	-13.3073
▁respectively	-13.3073
▁basset	-13.3073
▁lovingly	-13.3074
▁Hair	-13.3074
▁paddlers	-13.3074
▁newscaster	-13.3074
▁wishing	-13.3074
▁posture	-13.3074
▁footrace	-13.3074
▁sax	-13.3074
▁spilling	-13.3074
▁allowed	-13.3074
▁fooling	-13.3074
▁flown	-13.3074
▁trooper	-13.3074
▁sledder	-13.3074
necked	-13.3074
▁hail	-13.3074
▁goodies	-13.3074
▁buckled	-13.3074
▁perfectly	-13.3074
▁physically	-13.3074
▁vanity	-13.3074
thon	-13.3074
▁Swan	-13.3074
▁contained	-13.3075
▁smashed	-13.3075
▁molding	-13.3075
▁remaining	-13.3075
▁ham	-13.3075
▁berries	-13.3075
▁Stage	-13.3075
▁shy	-13.3075
▁hitched	-13.3075
▁conducted	-13.3075
▁shaver	-13.3075
?)	-13.3075
▁newest	-13.3075
▁gateway	-13.3075
▁smashing	-13.3075
▁Force	-13.3075
▁parties	-13.3075
▁Playing	-13.3076
lessly	-13.3076
▁whatever	-13.3076
▁Hot	-13.3076
▁dangerously	-13.3076
▁ban	-13.3076
▁craftsman	-13.3076
saw	-13.3076
▁skywalk	-13.3076
▁drafting	-13.3076
▁steadying	-13.3076
▁intricately	-13.3076
▁copying	-13.3076
▁Diners	-13.3076
▁Hugs	-13.3076
▁Packers	-13.3076
▁Welders	-13.3076
▁contorts	-13.3076
▁degrees	-13.3076
▁freckles	-13.3076
▁nostrils	-13.3076
▁snowflakes	-13.3076
▁sponsors	-13.3076
▁tortillas	-13.3076
▁unfolds	-13.3076
▁unitard	-13.3076
▁bumping	-13.3076
▁negotiates	-13.3076
▁ripples	-13.3076
▁donates	-13.3076
▁videographer	-13.3076
▁freestyle	-13.3076
▁bouncer	-13.3077
▁eaten	-13.3077
▁informational	-13.3077
▁Barefooted	-13.3077
▁batch	-13.3077
▁added	-13.3077
▁skids	-13.3077
▁Free	-13.3077
▁paused	-13.3077
▁combed	-13.3077
▁seeking	-13.3078
▁canine	-13.3078
▁barge	-13.3078
▁passion	-13.3078
▁43	-13.3078
▁howling	-13.3079
▁barrette	-13.3079
▁phrase	-13.3079
▁reptile	-13.3079
errible	-13.3079
▁separately	-13.3079
▁powdery	-13.3079
▁Ken	-13.308
▁fourteen	-13.308
▁carying	-13.308
▁sharply	-13.3081
▁caressing	-13.3081
▁kickball	-13.3081
▁stuntman	-13.3081
▁outfitted	-13.3081
phones	-13.3081
▁questioning	-13.3081
▁shielded	-13.3082
▁listing	-13.3082
▁mounting	-13.3082
▁counters	-13.3082
▁provider	-13.3083
▁united	-13.3083
▁sloth	-13.3083
▁stealing	-13.3083
▁und	-13.3083
▁arc	-13.3083
▁Cup	-13.3083
zed	-13.3084
▁bounced	-13.3084
▁feathery	-13.3084
▁armored	-13.3084
▁My	-13.3084
▁Fisher	-13.3084
▁bolts	-13.3084
▁obscures	-13.3084
▁propels	-13.3084
▁swirls	-13.3084
▁thousands	-13.3084
▁trials	-13.3084
▁soaks	-13.3085
toy	-13.3085
▁Beatles	-13.3085
▁smoothies	-13.3085
▁curbside	-13.3085
▁soiled	-13.3086
▁purchased	-13.3086
▁forestry	-13.3086
▁Grill	-13.3086
▁Dave	-13.3087
▁tonight	-13.3087
▁hardest	-13.3087
styled	-13.3087
▁Gas	-13.3088
▁timeout	-13.3088
▁streamer	-13.3088
▁barb	-13.3088
▁paneling	-13.3088
▁inspected	-13.3089
▁standard	-13.3089
▁coasting	-13.309
▁picketing	-13.309
▁stripy	-13.3091
▁fireball	-13.3092
▁curtained	-13.3092
▁playroom	-13.3093
▁Participants	-13.3093
▁Cubs	-13.3093
▁Scientists	-13.3093
▁appliances	-13.3093
▁gadgets	-13.3093
▁results	-13.3093
▁vocals	-13.3093
▁smirks	-13.3093
▁pinwheels	-13.3093
▁messing	-13.3094
▁stuffing	-13.3094
▁mover	-13.3095
▁piloting	-13.3096
▁heating	-13.3099
HELL	-13.3099
riders	-13.3099
bone	-13.3101
▁contested	-13.3101
▁possess	-13.3101
▁wounds	-13.3101
▁shrugs	-13.3101
▁jaws	-13.3101
▁feats	-13.3101
▁preserves	-13.3101
▁consumers	-13.3101
▁Officers	-13.3101
▁drapes	-13.3101
▁slippers	-13.3101
▁grownups	-13.3102
▁sprayer	-13.3102
▁cots	-13.3102
▁stre	-13.3103
▁crush	-13.3104
▁mode	-13.3104
▁tons	-13.3104
▁Newly	-13.3106
patch	-13.3107
▁Ballerinas	-13.311
▁dodges	-13.311
▁hipsters	-13.311
▁Germany	-13.311
▁racking	-13.3111
▁drilled	-13.3111
▁headless	-13.3112
▁programs	-13.3112
▁flees	-13.3112
▁designing	-13.3112
▁asia	-13.3113
▁cra	-13.3113
▁comedian	-13.3115
bo	-13.3115
net	-13.3116
▁ply	-13.3116
▁bunches	-13.3117
▁Trucks	-13.3118
▁pallets	-13.3118
▁plaques	-13.3118
▁souvenirs	-13.3118
▁experiences	-13.3118
▁strands	-13.3118
▁provides	-13.3118
▁saucers	-13.3119
▁smoked	-13.3121
▁landscaped	-13.3126
▁thrower	-13.3127
▁cartons	-13.3127
▁jams	-13.3127
▁whales	-13.3127
▁blindfolds	-13.3127
▁paramedics	-13.3127
▁finals	-13.3127
▁commuters	-13.3127
▁bumps	-13.3127
▁drifts	-13.3127
▁moved	-13.3128
▁crackers	-13.3128
▁booklets	-13.3129
▁imp	-13.3129
▁headline	-13.3131
aves	-13.3132
▁remind	-13.3133
▁riverside	-13.3133
▁hell	-13.3134
▁mart	-13.3135
▁Gardens	-13.3135
▁enthusiasts	-13.3136
▁siblings	-13.3136
▁stems	-13.3136
▁consoles	-13.3136
▁grassland	-13.3137
▁teeing	-13.3138
▁hu	-13.314
▁ideas	-13.3144
▁customs	-13.3144
▁coins	-13.3144
▁coworkers	-13.3144
▁Arts	-13.3148
▁rounded	-13.3152
▁Youths	-13.3153
▁creations	-13.3153
▁roofer	-13.3153
▁lifeguards	-13.3153
▁Adirondack	-13.3155
ence	-13.3158
▁stringing	-13.316
tip	-13.316
▁unloads	-13.3161
ot	-13.3163
▁ended	-13.3167
▁paired	-13.3168
▁burner	-13.3169
▁prices	-13.317
▁24,	-13.317
sel	-13.3174
▁brownies	-13.3176
▁stake	-13.3177
lays	-13.3178
▁hairstyles	-13.3178
▁insects	-13.3178
▁ollies	-13.3178
▁bandages	-13.3178
▁events	-13.3182
▁jokes	-13.3187
▁platters	-13.3187
▁harvests	-13.3187
▁ringed	-13.3187
▁makers	-13.3194
▁projecting	-13.3194
▁boaters	-13.3195
▁knocks	-13.3196
▁anti	-13.3201
▁smiley	-13.3201
▁steeple	-13.3202
▁tunics	-13.3204
▁visits	-13.3204
▁tattooing	-13.3211
▁boas	-13.3211
▁Bicycles	-13.3213
▁procedures	-13.3213
▁Singers	-13.3213
▁cushions	-13.3213
▁merchants	-13.3213
▁doghouse	-13.3214
▁putts	-13.3215
who	-13.3221
▁meters	-13.3222
stomp	-13.3225
▁anger	-13.3228
▁bowled	-13.3229
▁cemented	-13.323
▁tanker	-13.323
▁mallets	-13.323
▁tabletop	-13.3233
▁amputee	-13.3236
▁amateur	-13.3237
▁attractions	-13.3239
▁concessions	-13.3239
▁Pictures	-13.3239
uction	-13.3242
he	-13.3247
▁Rocks	-13.3248
▁plows	-13.3248
▁technicians	-13.3249
par	-13.3253
▁priests	-13.3256
▁ki	-13.3256
▁surfboarding	-13.326
▁qu	-13.3261
ki	-13.3265
▁rollerbladers	-13.3265
▁fired	-13.3269
upper	-13.3271
▁busker	-13.3272
▁inspiration	-13.3272
ky	-13.3273
▁heights	-13.3274
▁Foods	-13.3274
▁veils	-13.3274
▁roofed	-13.3275
▁schools	-13.328
ples	-13.3282
▁ashore	-13.3287
▁forks	-13.3288
▁hooker	-13.3289
▁xylophones	-13.3291
▁anchors	-13.3294
▁Johns	-13.33
▁circuits	-13.33
bys	-13.3302
▁elbows	-13.3309
▁leaders	-13.3309
▁Snowboarders	-13.3309
▁coasts	-13.3309
▁archways	-13.3335
▁treadmills	-13.3335
▁engages	-13.3335
▁outlined	-13.3335
▁breathe	-13.3337
stop	-13.3339
▁Younger	-13.3348
▁Ti	-13.3367
table	-13.3376
▁pilots	-13.3379
▁wheelers	-13.3383
▁shores	-13.3388
▁total	-13.339
▁ATMs	-13.3397
▁olives	-13.3397
▁Skateboarders	-13.3397
▁camps	-13.3405
▁instructors	-13.3423
▁discs	-13.3423
▁patterns	-13.3441
▁cheeses	-13.3459
▁snowsuits	-13.3468
its	-13.3472
▁busk	-13.3477
▁colo	-13.3481
▁limes	-13.3486
▁scaffolds	-13.3504
▁Gr	-13.3511
▁em	-13.3517
▁bal	-13.353
▁jumpers	-13.3548
▁cools	-13.355
▁stumps	-13.3567
▁lectures	-13.3587
ntly	-13.3592
sion	-13.3614
ta	-13.3638
▁wish	-13.3641
open	-13.3642
▁sil	-13.365
▁nec	-13.3683
▁parades	-13.3691
▁god	-13.3691
▁staged	-13.3693
▁thr	-13.3696
▁emotional	-13.37
▁thank	-13.3704
▁shooter	-13.3741
▁Her	-13.3746
ING	-13.3747
fa	-13.376
▁usual	-13.3797
▁pos	-13.3801
love	-13.3831
▁ceilings	-13.3862
▁protests	-13.3864
ked	-13.3865
▁bathrooms	-13.3872
▁grounded	-13.3872
▁Mu	-13.3884
▁bares	-13.3886
▁Gu	-13.3899
iding	-13.3908
▁Fa	-13.3908
erra	-13.3915
ying	-13.3919
▁liquids	-13.3919
oy	-13.3925
▁cranes	-13.3929
uk	-13.3936
po	-13.394
▁Females	-13.3948
▁ja	-13.3967
cking	-13.3978
ip	-13.3985
▁constructions	-13.3988
med	-13.4012
cing	-13.4026
▁warms	-13.4034
▁Pol	-13.4044
▁forwards	-13.4049
▁va	-13.4051
▁Males	-13.4054
vic	-13.4058
Real	-13.4064
▁swi	-13.4067
EN	-13.4071
ses	-13.4074
star	-13.4075
▁od	-13.4083
▁mouthing	-13.4086
real	-13.4099
dor	-13.4108
een	-13.4118
peach	-13.4152
▁breads	-13.4155
▁gro	-13.4184
▁li	-13.4192
uch	-13.4192
▁poo	-13.4193
▁americans	-13.421
21	-13.4267
ternal	-13.4281
ig	-13.4299
ree	-13.4314
za	-13.4358
▁wor	-13.4372
udge	-13.4372
IG	-13.4381
abo	-13.4425
Ex	-13.443
▁cr	-13.4438
ken	-13.4441
▁fl	-13.4469
ep	-13.4475
▁sc	-13.4492
▁blo	-13.4505
gar	-13.4512
▁polos	-13.4514
▁Over	-13.4551
che	-13.4555
shed	-13.4562
▁tre	-13.457
▁murals	-13.4597
horn	-13.464
▁youthful	-13.4649
bu	-13.4686
ach	-13.4703
▁san	-13.4709
▁qui	-13.474
▁gu	-13.4758
▁vans	-13.477
gu	-13.4773
MA	-13.4774
hi	-13.4805
ire	-13.4832
▁Ro	-13.4847
ise	-13.4859
hu	-13.4864
ction	-13.4881
mi	-13.4901
▁earn	-13.4902
▁verbal	-13.4902
mar	-13.4917
▁sin	-13.4922
▁gre	-13.4936
qu	-13.4949
ami	-13.4974
log	-13.4978
TO	-13.498
▁advertise	-13.4983
▁accordions	-13.4987
▁det	-13.4989
ee	-13.4994
▁Gi	-13.5008
▁Cla	-13.5027
em	-13.5061
overs	-13.5065
▁deserts	-13.507
▁jacketed	-13.5089
nny	-13.5095
▁DI	-13.5115
lly	-13.5137
CH	-13.5148
▁y	-13.5161
kes	-13.5172
eg	-13.5175
▁dun	-13.5178
▁val	-13.519
ded	-13.5192
▁Nu	-13.5209
▁fa	-13.5218
ross	-13.5287
lot	-13.5288
ned	-13.5291
▁Pre	-13.5307
ya	-13.5332
art	-13.5336
▁den	-13.5352
▁Val	-13.5411
mel	-13.5438
verage	-13.5484
ras	-13.5491
▁Constructions	-13.551
NY	-13.553
▁Bag	-13.5532
▁bu	-13.5533
fighting	-13.5545
itter	-13.5548
▁Fu	-13.555
▁coup	-13.5555
▁si	-13.5562
▁Stop	-13.5581
▁doo	-13.5596
scape	-13.5607
mbi	-13.5608
aying	-13.5612
▁Land	-13.5618
▁Su	-13.5618
ood	-13.5647
▁Home	-13.5659
rest	-13.566
mong	-13.5662
ado	-13.5667
▁Sl	-13.5693
eak	-13.5736
mou	-13.5742
ably	-13.5764
▁sli	-13.5767
▁Cop	-13.5768
dge	-13.577
▁bru	-13.5771
tailed	-13.5787
eeps	-13.5795
▁memo	-13.5821
au	-13.5821
caster	-13.5831
▁Ship	-13.5833
▁reenact	-13.5846
▁stra	-13.5852
rov	-13.5856
cks	-13.5863
some	-13.5881
▁ST	-13.5884
ose	-13.5887
▁scrape	-13.5915
tri	-13.5936
DA	-13.5941
Re	-13.5953
hing	-13.5955
cha	-13.5958
ou	-13.5969
cer	-13.599
mber	-13.6003
rie	-13.6021
ub	-13.6036
rill	-13.6038
doors	-13.6053
▁hy	-13.6069
▁cou	-13.6074
▁24	-13.6081
toe	-13.6088
nous	-13.6105
▁Sub	-13.6106
▁deco	-13.6116
▁Sal	-13.6193
▁ste	-13.6194
surfing	-13.6198
▁suggest	-13.6208
ib	-13.6223
vine	-13.6236
▁mal	-13.6244
ease	-13.6248
ations	-13.6252
vers	-13.6253
▁mod	-13.6259
AR	-13.6262
▁"5	-13.6272
▁clam	-13.6279
bak	-13.6283
▁ri	-13.6286
tar	-13.6299
▁dread	-13.6299
liter	-13.6303
ris	-13.6303
nds	-13.6323
bottomed	-13.6327
▁rap	-13.6333
▁bomb	-13.6337
▁Batt	-13.6339
gle	-13.634
▁RO	-13.635
▁Che	-13.6352
dling	-13.6355
▁snowshoe	-13.6361
▁perfo	-13.6363
phone	-13.6365
▁kill	-13.6365
▁smear	-13.6366
ark	-13.6366
lau	-13.6367
▁peddle	-13.6367
▁punt	-13.6367
▁proceed	-13.6368
▁hurl	-13.6368
▁bail	-13.6368
▁reveal	-13.6368
▁sequin	-13.6369
ost	-13.6369
▁shove	-13.6369
▁expose	-13.6369
▁inflate	-13.6369
▁Bronco	-13.6371
▁Kite	-13.6371
▁Veteran	-13.6371
▁choose	-13.6371
▁communicate	-13.6371
▁dalmatian	-13.6371
▁dispenser	-13.6371
▁knob	-13.6371
▁pillowcase	-13.6371
▁secret	-13.6371
▁snuggle	-13.6371
▁transformer	-13.6371
▁utilize	-13.6371
▁wiener	-13.6371
▁linger	-13.6371
▁conifer	-13.6371
▁Barbie	-13.6371
▁Priest	-13.6371
▁Airline	-13.6371
▁stumble	-13.6371
▁Drummer	-13.6371
▁viking	-13.6371
▁Interior	-13.6371
▁grace	-13.6371
▁seashell	-13.6371
▁showgirl	-13.6372
shing	-13.6372
▁needle	-13.6372
▁husk	-13.6372
▁pace	-13.6373
▁smirk	-13.6373
▁puff	-13.6373
▁confront	-13.6374
rian	-13.6374
▁Border	-13.6374
▁Service	-13.6374
▁rehearse	-13.6374
▁etching	-13.6374
▁jester	-13.6374
▁Camel	-13.6374
▁improvement	-13.6374
▁Ranger	-13.6374
▁Rollerblader	-13.6374
hood	-13.6374
▁percussionist	-13.6374
▁frown	-13.6375
▁dial	-13.6375
▁motorist	-13.6375
▁blender	-13.6375
▁vocal	-13.6375
▁pebble	-13.6375
▁Participant	-13.6375
▁Scientist	-13.6375
▁appliance	-13.6375
▁gadget	-13.6375
▁fillet	-13.6375
▁result	-13.6375
▁scream	-13.6375
▁usa	-13.6375
▁Van	-13.6376
▁Cub	-13.6376
▁accent	-13.6376
▁rappel	-13.6376
▁Capri	-13.6376
▁consider	-13.6376
▁choice	-13.6376
▁death	-13.6376
▁eyepiece	-13.6376
▁pinwheel	-13.6376
▁videotape	-13.6376
▁shingle	-13.6376
iling	-13.6377
▁plume	-13.6377
▁Stone	-13.6377
▁resemble	-13.6377
▁condom	-13.6377
▁spit	-13.6377
▁condition	-13.6377
▁preserver	-13.6377
▁Newlywed	-13.6377
▁cradle	-13.6377
▁Look	-13.6377
▁Individual	-13.6377
▁grimace	-13.6378
▁pompom	-13.6378
▁Vendor	-13.6378
▁shrub	-13.6378
▁trouser	-13.6378
▁flier	-13.6378
▁goggle	-13.6378
▁Dancer	-13.6378
right	-13.6378
▁dribble	-13.6379
▁breakdance	-13.6379
▁belonging	-13.638
▁mitten	-13.638
▁straddle	-13.6385
▁tear	-13.6389
coated	-13.639
rise	-13.6391
▁supporter	-13.6391
pie	-13.6391
▁mast	-13.6391
roll	-13.6393
▁observer	-13.6395
seat	-13.6395
stroke	-13.6395
post	-13.6396
track	-13.6397
mo	-13.6397
50	-13.6398
store	-13.6398
band	-13.6398
▁wing	-13.6398
▁witness	-13.64
▁Even	-13.64
▁coil	-13.64
▁connect	-13.6401
▁demolish	-13.6401
floor	-13.6401
▁tradition	-13.6401
born	-13.6401
skate	-13.6401
gree	-13.6401
▁Skateboard	-13.6401
glass	-13.6402
▁stitch	-13.6402
park	-13.6402
▁anticipat	-13.6402
▁claim	-13.6402
roof	-13.6402
▁request	-13.6402
rape	-13.6402
▁edit	-13.6402
▁Walk	-13.6402
sentence	-13.6402
▁cough	-13.6402
▁breastfeed	-13.6402
clear	-13.6403
▁knead	-13.6403
▁represent	-13.6403
▁exist	-13.6403
▁overflow	-13.6403
cro	-13.6403
site	-13.6403
handled	-13.6403
▁crook	-13.6403
tiered	-13.6403
cropped	-13.6403
talkie	-13.6403
Guitar	-13.6403
tinted	-13.6403
▁bury	-13.6403
duty	-13.6403
kept	-13.6403
operated	-13.6403
language	-13.6403
moving	-13.6403
▁conceal	-13.6403
brand	-13.6403
dried	-13.6403
▁interrupt	-13.6403
draped	-13.6403
focus	-13.6403
service	-13.6403
possibly	-13.6403
spotted	-13.6403
traffic	-13.6403
(	-13.6403
Little	-13.6403
between	-13.6403
catching	-13.6403
cloudy	-13.6403
distance	-13.6403
empty	-13.6403
full	-13.6403
left	-13.6403
mask	-13.6403
next	-13.6403
scooter	-13.6403
something	-13.6403
speaking	-13.6403
street	-13.6403
stained	-13.6403
Long	-13.6403
▁Hang	-13.6403
plaid	-13.6403
▁buzz	-13.6403
Rock	-13.6403
including	-13.6403
metal	-13.6403
▁sigh	-13.6403
▁exhaust	-13.6403
pitch	-13.6403
▁Hood	-13.6403
▁distress	-13.6403
court	-13.6403
polo	-13.6403
life	-13.6403
▁synchroniz	-13.6403
▁abandon	-13.6403
money	-13.6403
bearer	-13.6403
terrain	-13.6403
wire	-13.6403
▁overtake	-13.6403
▁Kenya	-13.6403
▁zipper	-13.6403
hound	-13.6403
cepts	-13.6403
▁duel	-13.6403
▁filter	-13.6404
▁Australia	-13.6404
▁Russia	-13.6404
▁Victoria	-13.6404
▁Korea	-13.6404
▁africa	-13.6404
▁grocer	-13.6404
▁Will	-13.6404
▁hors	-13.6404
▁Planet	-13.6404
gold	-13.6404
mouthed	-13.6404
▁blaze	-13.6404
▁Bright	-13.6404
▁prison	-13.6404
▁Village	-13.6404
▁Multi	-13.6404
▁neat	-13.6404
▁Kill	-13.6404
▁leisure	-13.6404
▁commute	-13.6404
▁latte	-13.6404
▁refuge	-13.6404
▁crutch	-13.6404
▁admi	-13.6404
▁Redhead	-13.6404
▁establish	-13.6405
ican	-13.6405
opcorn	-13.6405
▁clim	-13.6405
▁viol	-13.6405
▁occur	-13.6405
▁Rabbi	-13.6405
▁Super	-13.6405
▁flora	-13.6405
▁Chris	-13.6405
▁thoughtful	-13.6405
floored	-13.6405
▁helm	-13.6405
▁domino	-13.6405
▁Chase	-13.6405
▁info	-13.6405
▁religio	-13.6405
niversa	-13.6405
▁Revolution	-13.6405
▁Tinker	-13.6405
▁outcrop	-13.6405
▁north	-13.6405
▁President	-13.6405
▁Scooby	-13.6405
-47	-13.6405
Prayer	-13.6405
Repent	-13.6405
Thank	-13.6405
Volunteer	-13.6405
Whatever	-13.6405
conscious	-13.6405
dvice	-13.6405
ssociation	-13.6405
vespa	-13.6405
▁"12"	-13.6405
▁@	-13.6405
▁Aberdeen	-13.6405
▁Airport	-13.6405
▁Altima	-13.6405
▁Arsenal	-13.6405
▁Aurora	-13.6405
▁Avenue	-13.6405
▁Beetle	-13.6405
▁Binky	-13.6405
▁Blowing	-13.6405
▁Bobcat	-13.6405
▁Bollywood	-13.6405
▁Booth	-13.6405
▁Braun	-13.6405
▁Bridesmaids	-13.6405
▁Buzz	-13.6405
▁Casually	-13.6405
▁Championship	-13.6405
▁Cheerios	-13.6405
▁Cheesecake	-13.6405
▁Chevrolet	-13.6405
▁Chicken	-13.6405
▁Chung	-13.6405
▁Cirque	-13.6405
▁Citroen	-13.6405
▁Cleveland	-13.6405
▁Clydesdale	-13.6405
▁Comcast	-13.6405
▁Corgi	-13.6405
▁Corporate	-13.6405
▁Craftsman	-13.6405
▁Crosscountry	-13.6405
▁Crouching	-13.6405
▁DVD	-13.6405
▁Dancing	-13.6405
▁Diet	-13.6405
▁Different	-13.6405
▁Dinner	-13.6405
▁Donut	-13.6405
▁Drayton	-13.6405
▁EMT	-13.6405
▁ESPN	-13.6405
▁Electronics	-13.6405
▁Explorer	-13.6405
▁Finnish	-13.6405
▁Firetrucks	-13.6405
▁Fireworks	-13.6405
▁Fluffy	-13.6405
▁Folks	-13.6405
▁Foosball	-13.6405
▁Formula	-13.6405
▁Fulton	-13.6405
▁Genocide	-13.6405
▁Ginobili	-13.6405
▁Gothic	-13.6405
▁Grandparents	-13.6405
▁Grocery	-13.6405
▁Guns	-13.6405
▁Hendrix	-13.6405
▁Hippie	-13.6405
▁Hula	-13.6405
▁Hungry	-13.6405
▁Husband	-13.6405
▁Huskies	-13.6405
▁Hyatt	-13.6405
▁Indonesian	-13.6405
▁Industries	-13.6405
▁Internet	-13.6405
▁Isuzu	-13.6405
▁Jamaican	-13.6405
▁James	-13.6405
▁Janitor	-13.6405
▁Jersey	-13.6405
▁Jumping	-13.6405
▁Khaki	-13.6405
▁Khera	-13.6405
▁Kitchen	-13.6405
▁Knicks	-13.6405
▁Komodo	-13.6405
▁Kwon	-13.6405
▁LCD	-13.6405
▁Lafayette	-13.6405
▁Lassie	-13.6405
▁LeBron	-13.6405
▁Lexmark	-13.6405
▁Magpie	-13.6405
▁Maintenance	-13.6405
▁MakerBot	-13.6405
▁Manhattan	-13.6405
▁Mixed	-13.6405
▁Mormon	-13.6405
▁Muscular	-13.6405
▁Mutual	-13.6405
▁Negro	-13.6405
▁Nescafe	-13.6405
▁Netherlands	-13.6405
▁Nissan	-13.6405
▁Observers	-13.6405
▁Paramedics	-13.6405
▁Patriotic	-13.6405
▁Polaris	-13.6405
▁Portuguese	-13.6405
▁Postal	-13.6405
▁Repairing	-13.6405
▁Republic	-13.6405
▁Retriever	-13.6405
▁Rockettes	-13.6405
▁Roosevelt	-13.6405
▁Saturday	-13.6405
▁Saxophone	-13.6405
▁Seagulls	-13.6405
▁Shepard	-13.6405
▁Silk	-13.6405
▁Silver	-13.6405
▁Skilled	-13.6405
▁Sonoma	-13.6405
▁Sprite	-13.6405
▁Staff	-13.6405
▁Styrofoam	-13.6405
▁Sugarland	-13.6405
▁Sveral	-13.6405
▁Sweet	-13.6405
▁Swimming	-13.6405
▁Swiss	-13.6405
▁Sydney	-13.6405
▁Taiwan	-13.6405
▁Takes	-13.6405
▁Talking	-13.6405
▁Taxi	-13.6405
▁Teammates	-13.6405
▁Through	-13.6405
▁Tonka	-13.6405
▁Torch	-13.6405
▁Transport	-13.6405
▁Trolley	-13.6405
▁UCLA	-13.6405
▁UNICEF	-13.6405
▁Ukrainian	-13.6405
▁Ultimate	-13.6405
▁Unhappy	-13.6405
▁Vader	-13.6405
▁WWII	-13.6405
▁Waitress	-13.6405
▁Whistle	-13.6405
▁Wizard	-13.6405
▁ability	-13.6405
▁abseiling	-13.6405
▁accompaniment	-13.6405
▁account	-13.6405
▁aerosol	-13.6405
▁afghan	-13.6405
▁afraid	-13.6405
▁agape	-13.6405
▁allegiance	-13.6405
▁alpaca	-13.6405
▁alphabet	-13.6405
▁alpine	-13.6405
▁although	-13.6405
▁analyzes	-13.6405
▁analyzing	-13.6405
▁announcing	-13.6405
▁antenna	-13.6405
▁appreciate	-13.6405
▁armadillo	-13.6405
▁artichokes	-13.6405
▁artisan	-13.6405
▁assault	-13.6405
▁auditioning	-13.6405
▁austere	-13.6405
▁automated	-13.6405
▁backgammon	-13.6405
▁backgroud	-13.6405
▁bandaging	-13.6405
▁bassinet	-13.6405
▁begun	-13.6405
▁beijing	-13.6405
▁bewildered	-13.6405
▁bohemian	-13.6405
▁bondage	-13.6405
▁brawl	-13.6405
▁buddies	-13.6405
▁budweiser	-13.6405
▁bullfighter	-13.6405
▁bullpen	-13.6405
▁burqa	-13.6405
▁caboose	-13.6405
▁caddy	-13.6405
▁calico	-13.6405
▁camisole	-13.6405
▁canopies	-13.6405
▁caramel	-13.6405
▁caterer	-13.6405
▁cauldron	-13.6405
▁cedar	-13.6405
▁century	-13.6405
▁cgt	-13.6405
▁chapel	-13.6405
▁chaperone	-13.6405
▁chevy	-13.6405
▁choreography	-13.6405
▁churning	-13.6405
▁cinema	-13.6405
▁citrus	-13.6405
▁cleavage	-13.6405
▁clenches	-13.6405
▁clothespins	-13.6405
▁coffin	-13.6405
▁colander	-13.6405
▁components	-13.6405
▁concentric	-13.6405
▁conclusion	-13.6405
▁contractor	-13.6405
▁convoy	-13.6405
▁cordoned	-13.6405
▁crepe	-13.6405
▁crippled	-13.6405
▁crucified	-13.6405
▁cuisine	-13.6405
▁currency	-13.6405
▁dagger	-13.6405
▁daschund	-13.6405
▁demanding	-13.6405
▁dialogue	-13.6405
▁dinghy	-13.6405
▁dowel	-13.6405
▁downpour	-13.6405
▁downstream	-13.6405
▁drooling	-13.6405
▁easily	-13.6405
▁edifice	-13.6405
▁eerie	-13.6405
▁egret	-13.6405
▁eiffel	-13.6405
▁emanating	-13.6405
▁encircling	-13.6405
▁english	-13.6405
▁enlarged	-13.6405
▁entwined	-13.6405
▁escaping	-13.6405
▁evaluating	-13.6405
▁examination	-13.6405
▁excellent	-13.6405
▁eyelid	-13.6405
▁false	-13.6405
▁ferris	-13.6405
▁fishbowl	-13.6405
▁flustered	-13.6405
▁foothills	-13.6405
▁foyer	-13.6405
▁gasoline	-13.6405
▁genocide	-13.6405
▁glamour	-13.6405
▁glimpse	-13.6405
▁gloomy	-13.6405
▁glossy	-13.6405
▁goaltender	-13.6405
▁grappling	-13.6405
▁grenade	-13.6405
▁griddle	-13.6405
▁gritty	-13.6405
▁grotesque	-13.6405
▁growls	-13.6405
▁hairdresser	-13.6405
▁haystack	-13.6405
▁hazmat	-13.6405
▁headquarters	-13.6405
▁heartbeat	-13.6405
▁hibachi	-13.6405
▁highlighted	-13.6405
▁hitchhiking	-13.6405
▁hobby	-13.6405
▁hurdling	-13.6405
▁identity	-13.6405
▁illustrated	-13.6405
▁illustration	-13.6405
▁imitating	-13.6405
▁immediate	-13.6405
▁immersed	-13.6405
▁impersonator	-13.6405
▁impromptu	-13.6405
▁incredible	-13.6405
▁industry	-13.6405
▁inhabit	-13.6405
▁inscribed	-13.6405
▁interfere	-13.6405
▁introducing	-13.6405
▁irregular	-13.6405
▁irritated	-13.6405
▁isolated	-13.6405
▁japan	-13.6405
▁jostle	-13.6405
▁jubilant	-13.6405
▁jukebox	-13.6405
▁kahki	-13.6405
▁knapsack	-13.6405
▁kneepads	-13.6405
▁knuckle	-13.6405
▁korn	-13.6405
▁lanky	-13.6405
▁leapfrog	-13.6405
▁lightsaber	-13.6405
▁lilac	-13.6405
▁lilies	-13.6405
▁loincloth	-13.6405
▁lugging	-13.6405
▁luncheon	-13.6405
▁lungs	-13.6405
▁manufactur	-13.6405
▁marvel	-13.6405
▁massaging	-13.6405
▁meticulously	-13.6405
▁mischievous	-13.6405
▁mosquito	-13.6405
▁multitasking	-13.6405
▁multitude	-13.6405
▁nationalities	-13.6405
▁necessary	-13.6405
▁nerf	-13.6405
▁nibbles	-13.6405
▁nibbling	-13.6405
▁nowhere	-13.6405
▁nozzle	-13.6405
▁oatmeal	-13.6405
▁obedience	-13.6405
▁offensive	-13.6405
▁olympian	-13.6405
▁omelet	-13.6405
▁orangutan	-13.6405
▁overstuffed	-13.6405
▁panhandling	-13.6405
▁paraplegic	-13.6405
▁pedicure	-13.6405
▁pepsi	-13.6405
▁perimeter	-13.6405
▁permanent	-13.6405
▁petite	-13.6405
▁pilgrim	-13.6405
▁plethora	-13.6405
▁politician	-13.6405
▁pommel	-13.6405
▁pompadour	-13.6405
▁poofy	-13.6405
▁prostrate	-13.6405
▁purplish	-13.6405
▁pyrex	-13.6405
▁pyrotechnic	-13.6405
▁quirky	-13.6405
▁receding	-13.6405
▁receipt	-13.6405
▁recreating	-13.6405
▁rejoicing	-13.6405
▁rendition	-13.6405
▁rescuing	-13.6405
▁retirement	-13.6405
▁ridiculous	-13.6405
▁rosary	-13.6405
▁sanctuary	-13.6405
▁sapling	-13.6405
▁scowling	-13.6405
▁shamrocks	-13.6405
▁shelving	-13.6405
▁showcasing	-13.6405
▁shredded	-13.6405
▁shredder	-13.6405
▁shredding	-13.6405
▁shuffles	-13.6405
▁signature	-13.6405
▁sizable	-13.6405
▁skeptical	-13.6405
▁skunk	-13.6405
▁slouched	-13.6405
▁snooker	-13.6405
▁snowmobiling	-13.6405
▁solicit	-13.6405
▁solitude	-13.6405
▁soprano	-13.6405
▁sousaphone	-13.6405
▁southeast	-13.6405
▁spherical	-13.6405
▁sphinx	-13.6405
▁splayed	-13.6405
▁stabs	-13.6405
▁steeplechase	-13.6405
▁strobe	-13.6405
▁stroking	-13.6405
▁stumbling	-13.6405
▁stupid	-13.6405
▁supervisor	-13.6405
▁suspiciously	-13.6405
▁swept	-13.6405
▁swerves	-13.6405
▁tabloid	-13.6405
▁tampering	-13.6405
▁tarmac	-13.6405
▁terracotta	-13.6405
▁thorugh	-13.6405
▁thumbnail	-13.6405
▁tidal	-13.6405
▁toothpick	-13.6405
▁toppled	-13.6405
▁triumphantly	-13.6405
▁tucking	-13.6405
▁tummy	-13.6405
▁turret	-13.6405
▁tussling	-13.6405
▁undergarments	-13.6405
▁unopened	-13.6405
▁unsure	-13.6405
▁upholstered	-13.6405
▁vampire	-13.6405
▁veggies	-13.6405
▁verdant	-13.6405
▁viewpoint	-13.6405
▁weimaraner	-13.6405
▁welcoming	-13.6405
▁whether	-13.6405
▁whizzes	-13.6405
▁wringing	-13.6405
▁zigzag	-13.6405
Gigolo	-13.6405
HERE	-13.6405
▁Brad	-13.6405
▁Caution	-13.6405
▁Edward	-13.6405
▁Giorgio	-13.6405
▁Turkey	-13.6405
▁antlers	-13.6405
▁apprehend	-13.6405
▁bungalow	-13.6405
▁cabana	-13.6405
▁cavort	-13.6405
▁commit	-13.6405
▁composition	-13.6405
▁copilot	-13.6405
▁fangs	-13.6405
▁imagination	-13.6405
▁lesbian	-13.6405
▁moutain	-13.6405
▁obtain	-13.6405
▁recede	-13.6405
▁shepard	-13.6405
▁society	-13.6405
▁switch	-13.6405
▁yield	-13.6405
Radeo	-13.6405
▁80	-13.6405
▁Active	-13.6405
▁Baker	-13.6405
▁Braves	-13.6405
▁Catholic	-13.6405
▁Micky	-13.6405
▁Nighttime	-13.6405
▁Palace	-13.6405
▁Puppy	-13.6405
▁Tae	-13.6405
▁armbands	-13.6405
▁clause	-13.6405
▁cradling	-13.6405
▁crammed	-13.6405
▁curving	-13.6405
▁diagonal	-13.6405
▁fastens	-13.6405
▁groove	-13.6405
▁monarch	-13.6405
▁mottled	-13.6405
▁pedicab	-13.6405
▁registration	-13.6405
▁shuttlecock	-13.6405
▁strappy	-13.6405
▁submerges	-13.6405
▁thirty	-13.6405
▁trivial	-13.6405
▁tucks	-13.6405
▁wedded	-13.6405
▁Aerial	-13.6405
▁Half	-13.6405
▁Honda	-13.6405
▁Shoppe	-13.6405
▁Usain	-13.6405
▁affair	-13.6405
▁beggar	-13.6405
▁buries	-13.6405
▁clipped	-13.6405
▁clipping	-13.6405
▁compass	-13.6405
▁concoction	-13.6405
▁counts	-13.6405
▁itching	-13.6405
▁knot	-13.6405
▁kung	-13.6405
▁ladling	-13.6405
▁locksmith	-13.6405
▁nondescript	-13.6405
▁oblong	-13.6405
▁pursing	-13.6405
▁raids	-13.6405
▁scrum	-13.6405
▁stiff	-13.6405
▁urge	-13.6405
▁wiffle	-13.6405
▁2011	-13.6405
▁Cheap	-13.6405
▁Costa	-13.6405
▁Democra	-13.6405
▁Humor	-13.6405
▁Knits	-13.6405
▁cozy	-13.6405
▁departure	-13.6405
▁infested	-13.6405
▁knick	-13.6405
▁knotted	-13.6405
▁lagging	-13.6405
▁patronizing	-13.6405
▁petri	-13.6405
▁rules	-13.6405
▁steampunk	-13.6405
MENT	-13.6405
hooded	-13.6405
▁Basking	-13.6405
▁Board	-13.6405
▁Bruins	-13.6405
▁Cameramen	-13.6405
▁Everybody	-13.6405
▁Fitness	-13.6405
▁Married	-13.6405
▁Mockingbird	-13.6405
▁Potato	-13.6405
▁bizarre	-13.6405
▁coeds	-13.6405
▁expressively	-13.6405
▁folic	-13.6405
▁gushing	-13.6405
▁hamper	-13.6405
▁stressed	-13.6405
▁Temple	-13.6405
▁agile	-13.6405
▁anything	-13.6405
▁arctic	-13.6405
▁balck	-13.6405
▁expectant	-13.6405
▁haggling	-13.6405
▁pharaoh	-13.6405
▁primary	-13.6405
▁ripping	-13.6405
▁unshaven	-13.6405
▁DSLR	-13.6405
▁Eddie	-13.6405
▁Facebook	-13.6405
▁Padd	-13.6405
▁Broadway	-13.6405
▁Busch	-13.6405
▁Nice	-13.6405
▁Preteen	-13.6405
▁Right	-13.6405
▁Youngsters	-13.6405
▁fiber	-13.6405
▁mission	-13.6405
▁slumber	-13.6405
▁unamused	-13.6405
▁Mature	-13.6405
▁bundling	-13.6405
▁ensure	-13.6405
▁propelling	-13.6405
▁spurs	-13.6405
elicatessen	-13.6405
▁Chevron	-13.6405
▁Forever	-13.6405
▁Pioneer	-13.6405
▁Pottery	-13.6405
▁Prehistoric	-13.6405
▁Sharpie	-13.6405
▁sheriff	-13.6405
▁tartan	-13.6405
▁whipping	-13.6405
▁Bagel	-13.6405
▁Canon	-13.6405
▁Ol	-13.6405
▁Quit	-13.6405
▁rich	-13.6405
weeping	-13.6405
▁Phil	-13.6405
▁SWAT	-13.6405
▁dashboard	-13.6405
▁duke	-13.6405
▁striding	-13.6405
▁Princess	-13.6405
▁snapshot	-13.6405
▁stepladder	-13.6405
▁Jay	-13.6405
▁Sharp	-13.6405
▁difficulties	-13.6405
▁donned	-13.6405
▁hobo	-13.6405
▁hurries	-13.6405
▁vision	-13.6405
▁Drink	-13.6405
▁biplane	-13.6405
▁clue	-13.6405
▁dipped	-13.6405
▁font	-13.6405
▁grows	-13.6405
▁hawaiian	-13.6405
▁miles	-13.6405
▁revelers	-13.6405
▁taco	-13.6405
▁Artwork	-13.6405
▁Cookie	-13.6405
▁DHL	-13.6405
▁Sledding	-13.6405
▁bobbing	-13.6405
▁chose	-13.6405
▁erasing	-13.6405
▁refilling	-13.6405
▁rent	-13.6405
▁scrubby	-13.6405
▁confer	-13.6405
NCE	-13.6405
▁Dragon	-13.6405
▁Premier	-13.6405
▁fundraiser	-13.6405
▁prim	-13.6405
▁swanky	-13.6405
entine	-13.6405
▁bombard	-13.6405
▁eyeglass	-13.6405
▁Fox	-13.6405
▁Rover	-13.6405
▁Today	-13.6405
▁actually	-13.6405
▁cautiously	-13.6405
▁chopper	-13.6405
▁gothic	-13.6405
▁gutting	-13.6405
▁menacingly	-13.6405
▁peep	-13.6405
▁silently	-13.6405
▁fashionably	-13.6405
▁Against	-13.6405
▁portray	-13.6405
▁Fargo	-13.6405
▁Gump	-13.6405
▁income	-13.6405
▁began	-13.6405
▁fift	-13.6405
▁flurry	-13.6405
▁tapping	-13.6405
▁eighteen	-13.6405
▁nerd	-13.6405
▁Cool	-13.6405
▁congratulate	-13.6405
▁realty	-13.6405
▁weightlifting	-13.6405
▁wildlife	-13.6405
▁roughhousing	-13.6405
Maritime	-13.6405
▁Huge	-13.6405
▁Library	-13.6405
▁Machine	-13.6405
▁associated	-13.6405
▁bulky	-13.6405
▁frosty	-13.6405
▁gnarly	-13.6405
▁pledge	-13.6405
▁replaced	-13.6405
▁sneeze	-13.6405
lliance	-13.6405
▁Blacksmith	-13.6405
▁acid	-13.6405
▁Dane	-13.6405
▁musher	-13.6405
▁Crew	-13.6405
▁Fame	-13.6405
▁Beside	-13.6405
▁Walkers	-13.6405
▁farther	-13.6405
▁guidebook	-13.6405
▁pill	-13.6405
▁strapping	-13.6405
fection	-13.6405
▁Leak	-13.6405
▁tailcoat	-13.6405
LI	-13.6405
▁Jacket	-13.6405
▁software	-13.6405
▁vac	-13.6405
▁attachment	-13.6405
▁true	-13.6405
▁unwrapped	-13.6405
▁actresses	-13.6405
▁sickle	-13.6405
dock	-13.6405
▁battleship	-13.6405
▁textbook	-13.6405
▁Jackie	-13.6405
▁Longboard	-13.6405
▁Bolt	-13.6405
▁Fashioned	-13.6405
▁Tigger	-13.6405
▁adopted	-13.6405
▁astonished	-13.6405
▁required	-13.6405
▁repainting	-13.6405
▁zipped	-13.6405
skin	-13.6405
▁Guitarist	-13.6405
▁Whole	-13.6405
▁waistband	-13.6405
▁anticipates	-13.6405
▁fingerpaints	-13.6405
▁refugees	-13.6405
lution	-13.6405
▁Flyer	-13.6405
▁Golfer	-13.6405
▁parasurfer	-13.6405
▁spotters	-13.6405
▁71	-13.6405
▁peeler	-13.6405
▁retreiver	-13.6405
▁9-11	-13.6405
▁Adobe	-13.6405
▁Detroit	-13.6405
▁HSBC	-13.6405
▁Ohio	-13.6405
▁Screaming	-13.6405
▁relief	-13.6405
▁spattered	-13.6405
▁tubular	-13.6405
▁Birthday	-13.6405
▁Cyclone	-13.6405
▁Earth	-13.6405
▁Hulk	-13.6405
▁November	-13.6405
▁Royal	-13.6405
▁altitude	-13.6405
▁gingerly	-13.6405
▁john	-13.6405
▁seductively	-13.6405
▁halo	-13.6405
▁Model	-13.6405
▁Opening	-13.6405
▁clapboard	-13.6405
▁debating	-13.6405
▁disturbing	-13.6405
▁messily	-13.6405
▁rebuilding	-13.6405
▁unfolding	-13.6405
▁wresting	-13.6405
▁orthodox	-13.6405
▁Jane	-13.6405
▁Painters	-13.6405
▁Playboy	-13.6405
▁curlers	-13.6405
▁popped	-13.6405
▁Gator	-13.6405
▁cities	-13.6405
▁midget	-13.6405
▁boogieboard	-13.6405
Anderson	-13.6405
▁faraway	-13.6405
▁Fall	-13.6405
▁joyful	-13.6405
▁thinner	-13.6405
▁Engineers	-13.6406
▁Jerry	-13.6406
▁Jimi	-13.6406
▁acrobatically	-13.6406
▁cit	-13.6406
▁Law	-13.6406
▁staging	-13.6406
▁Rally	-13.6406
▁texture	-13.6406
▁Show	-13.6406
▁NO	-13.6406
▁skinning	-13.6406
bee	-13.6406
▁OU	-13.6406
▁Mark	-13.6406
▁Why	-13.6406
▁Backside	-13.6406
▁puckering	-13.6406
▁mushing	-13.6406
▁marry	-13.6406
▁Dominoes	-13.6406
▁orient	-13.6406
▁tuxes	-13.6406
▁57	-13.6406
▁comedy	-13.6406
▁ICE	-13.6406
▁risk	-13.6406
▁cookbook	-13.6406
El	-13.6406
▁Gay	-13.6406
▁bud	-13.6406
▁Goal	-13.6406
▁extension	-13.6406
▁aligned	-13.6406
▁decision	-13.6406
▁destroyed	-13.6406
▁melted	-13.6406
▁securely	-13.6406
▁sprinters	-13.6406
▁thoughtfully	-13.6406
▁patting	-13.6406
▁flamingos	-13.6406
▁paced	-13.6406
▁pebbled	-13.6406
▁plateau	-13.6406
▁bustle	-13.6406
▁luck	-13.6406
▁Zune	-13.6406
▁ongoing	-13.6406
▁opp	-13.6406
▁winking	-13.6406
▁sifter	-13.6406
▁Lion	-13.6406
▁waterskies	-13.6406
▁heroes	-13.6406
▁Bowling	-13.6406
▁bemused	-13.6406
▁departing	-13.6406
▁erecting	-13.6406
▁escorting	-13.6406
▁headbutting	-13.6406
▁humping	-13.6406
▁dreaming	-13.6406
▁recycling	-13.6406
▁Pug	-13.6406
▁beaten	-13.6406
▁exer	-13.6406
▁Pier	-13.6406
▁erase	-13.6406
▁Highland	-13.6406
▁glassblower	-13.6406
▁seawall	-13.6406
▁pogo	-13.6406
▁trombonist	-13.6406
▁triumph	-13.6407
▁vents	-13.6407
▁Natha	-13.6407
▁Who	-13.6407
▁Mc	-13.6407
▁buffer	-13.6407
▁flagpole	-13.6407
▁latest	-13.6407
▁Pope	-13.6407
▁bullfighting	-13.6407
▁slippery	-13.6407
iki	-13.6407
▁dominated	-13.6407
▁bac	-13.6407
▁spoonful	-13.6407
▁sewn	-13.6407
▁thinning	-13.6407
▁interrupted	-13.6407
▁concealed	-13.6407
▁DE	-13.6407
▁bowel	-13.6407
▁ease	-13.6407
▁justice	-13.6407
▁soul	-13.6407
▁Uno	-13.6407
▁Ok	-13.6407
▁tugboat	-13.6407
▁rapidly	-13.6407
▁Billy	-13.6407
▁measured	-13.6407
▁grater	-13.6407
▁slimy	-13.6407
▁winged	-13.6407
▁summertime	-13.6407
▁Evening	-13.6407
▁filtering	-13.6407
▁thatching	-13.6407
▁discovering	-13.6407
▁hurling	-13.6407
▁proceeding	-13.6407
IA	-13.6407
▁killing	-13.6407
▁stallion	-13.6407
▁hoof	-13.6407
▁animatedly	-13.6407
▁joyously	-13.6408
▁plastered	-13.6408
▁35	-13.6408
▁Pale	-13.6408
▁concentrated	-13.6408
▁experienced	-13.6408
▁sid	-13.6408
lie	-13.6408
▁informally	-13.6408
▁existing	-13.6408
▁guardian	-13.6408
▁Deer	-13.6408
▁potentially	-13.6408
▁madly	-13.6408
▁Sea	-13.6408
▁blending	-13.6408
▁payment	-13.6408
▁treading	-13.6408
▁delighted	-13.6408
▁bunker	-13.6409
▁hurdlers	-13.6409
▁vividly	-13.6409
▁pensively	-13.6409
▁pedi	-13.6409
▁Mon	-13.6409
▁Tai	-13.6409
▁wireless	-13.6409
▁mary	-13.6409
▁Or	-13.6409
▁bravely	-13.6409
▁If	-13.6409
▁Yorkie	-13.6409
▁charter	-13.6409
▁noticed	-13.6409
▁underpants	-13.6409
▁adornment	-13.6409
▁coastal	-13.6409
▁Oh	-13.6409
▁firearm	-13.6409
▁blankly	-13.6409
▁burned	-13.6409
▁racehorse	-13.6409
▁hitching	-13.6409
▁reeling	-13.6409
▁consulting	-13.6409
▁plantation	-13.6409
▁sous	-13.6409
prom	-13.641
▁furred	-13.641
▁Ven	-13.641
▁laced	-13.641
▁processor	-13.641
▁remodel	-13.641
▁bangle	-13.641
▁comforted	-13.641
▁sculpted	-13.641
▁writer	-13.641
▁masses	-13.641
▁budget	-13.641
brick	-13.641
▁adorning	-13.641
▁tilling	-13.641
printed	-13.641
▁tender	-13.641
▁GI	-13.641
▁minding	-13.6411
▁tailor	-13.6411
▁holy	-13.6411
▁businesswoman	-13.6411
▁shopkeeper	-13.6411
▁stocky	-13.6411
▁manually	-13.6411
▁shearing	-13.6411
▁launcher	-13.6411
▁waitresses	-13.6411
▁Heal	-13.6411
▁imagery	-13.6411
▁signpost	-13.6412
▁matter	-13.6412
▁suntan	-13.6412
▁elements	-13.6412
▁spices	-13.6412
▁Bubbles	-13.6412
▁Demonstrators	-13.6412
▁Reporters	-13.6412
▁Schoolgirls	-13.6412
▁encourages	-13.6412
▁kebabs	-13.6412
▁regards	-13.6412
▁reigns	-13.6412
▁suspends	-13.6412
▁untangles	-13.6412
▁Reflections	-13.6412
▁calves	-13.6412
▁militants	-13.6412
▁neighbors	-13.6412
▁renovations	-13.6412
▁drips	-13.6412
▁recoils	-13.6412
▁hangout	-13.6412
ungle	-13.6412
▁sliced	-13.6412
▁warmer	-13.6412
▁refer	-13.6412
▁sportswear	-13.6412
▁spelling	-13.6412
▁hardware	-13.6412
▁porta	-13.6412
▁tiling	-13.6412
▁com	-13.6413
▁satin	-13.6413
▁hid	-13.6413
▁bingo	-13.6413
▁judged	-13.6413
▁cupboard	-13.6413
▁greeted	-13.6413
▁pawn	-13.6413
▁prediction	-13.6413
▁listeners	-13.6413
▁belays	-13.6413
▁snowdrift	-13.6413
▁users	-13.6414
▁gent	-13.6414
▁downstairs	-13.6414
▁romping	-13.6414
▁stocked	-13.6415
▁reed	-13.6415
▁peddler	-13.6415
▁meaning	-13.6415
▁warmth	-13.6415
▁vaulted	-13.6416
pit	-13.6416
Aloha	-13.6416
▁evenly	-13.6416
▁pushers	-13.6416
▁collided	-13.6416
▁rusting	-13.6416
▁riverbed	-13.6417
▁litera	-13.6418
▁sealed	-13.6418
▁converge	-13.6418
▁adjusted	-13.6418
▁aided	-13.6418
▁lotus	-13.6419
▁carol	-13.6419
▁snowscape	-13.642
▁swarm	-13.642
▁blackjack	-13.642
▁dist	-13.642
▁cresting	-13.642
oyed	-13.6421
▁gaining	-13.6421
▁sadly	-13.6421
▁plowed	-13.6421
▁steered	-13.6421
▁offstage	-13.6422
▁overlooked	-13.6422
▁slinging	-13.6422
▁vacationing	-13.6422
factor	-13.6422
dancer	-13.6423
ene	-13.6423
▁peels	-13.6423
▁Oreos	-13.6424
▁Vehicles	-13.6424
▁Wrestlers	-13.6424
▁archaeologists	-13.6424
▁headwraps	-13.6424
▁ignores	-13.6424
▁meditates	-13.6424
▁opinions	-13.6424
▁pursues	-13.6424
▁pylons	-13.6424
▁Dolls	-13.6424
▁billows	-13.6424
▁Sailors	-13.6424
▁clogs	-13.6424
▁fails	-13.6424
▁measurements	-13.6424
▁steins	-13.6424
▁giggles	-13.6424
▁recreates	-13.6424
▁slats	-13.6424
▁fumbles	-13.6424
▁qua	-13.6424
chair	-13.6424
▁issues	-13.6424
▁rescuers	-13.6425
▁offered	-13.6425
▁gallops	-13.6426
▁strangers	-13.6426
▁busted	-13.6427
▁dunked	-13.6428
▁marbled	-13.6428
▁shears	-13.6428
▁steamed	-13.6429
▁Parking	-13.6429
▁sheltered	-13.6429
▁troll	-13.643
▁Numbered	-13.643
▁felled	-13.643
▁offense	-13.643
▁childhood	-13.6432
▁cricketer	-13.6434
▁treated	-13.6434
▁blockers	-13.6435
▁punched	-13.6435
▁lifestyle	-13.6435
▁Un	-13.6436
▁traveled	-13.6436
▁begs	-13.6436
▁fillets	-13.6436
▁Borders	-13.6436
▁Camels	-13.6436
▁Services	-13.6436
▁Stones	-13.6436
▁dials	-13.6436
▁etchings	-13.6436
▁husks	-13.6436
▁jesters	-13.6436
▁percussionists	-13.6436
▁rehearses	-13.6436
▁Rangers	-13.6436
▁Rollerbladers	-13.6436
▁improvements	-13.6436
▁puffs	-13.6436
▁paces	-13.6436
▁Vans	-13.6436
▁blenders	-13.6436
▁discover	-13.6437
▁plumes	-13.6437
▁rioting	-13.6437
▁sy	-13.6438
▁BMXer	-13.6439
▁experimenting	-13.6439
unk	-13.644
hold	-13.644
▁Polo	-13.6441
▁sharping	-13.6442
▁windowless	-13.6443
▁bluegrass	-13.6443
▁pillared	-13.6443
▁gut	-13.6444
▁headstand	-13.6445
▁beachgoers	-13.6446
▁sway	-13.6447
▁handled	-13.6448
▁floaty	-13.6448
▁Marines	-13.6448
▁Shorts	-13.6448
▁grazes	-13.6448
▁yachts	-13.6448
▁grasslands	-13.6448
▁gutters	-13.6448
▁packets	-13.6448
▁stains	-13.6448
▁shutters	-13.6449
▁scares	-13.6449
▁conven	-13.6449
▁researchers	-13.645
▁laborers	-13.645
▁turbaned	-13.6451
▁showered	-13.6452
▁classes	-13.6453
▁owned	-13.6453
▁Sy	-13.6454
▁milking	-13.6454
▁berry	-13.6455
▁beg	-13.6456
▁ver	-13.6457
▁Lill	-13.6458
▁alarm	-13.6459
cky	-13.6459
▁seemed	-13.6459
▁snowfield	-13.6459
▁wired	-13.646
lers	-13.6461
▁biscuits	-13.6461
▁preteens	-13.6461
▁scrambles	-13.6461
▁corsets	-13.6461
▁cuddles	-13.6461
Rouleur	-13.6461
▁deeper	-13.6461
▁backless	-13.6461
▁winded	-13.6462
▁overview	-13.6466
▁Luc	-13.6466
rchitects	-13.6467
bikes	-13.6469
▁dividers	-13.6473
▁organizes	-13.6473
▁placards	-13.6473
▁reasons	-13.6473
▁saxophonists	-13.6473
▁victims	-13.6473
▁roasts	-13.6473
▁suckers	-13.6473
▁Rop	-13.6476
▁Pike	-13.6477
Frank	-13.6477
▁dusting	-13.6479
▁outlines	-13.6479
▁sporty	-13.6479
▁pugs	-13.6486
▁syringes	-13.6486
▁dachshunds	-13.6486
▁happens	-13.6486
▁peas	-13.6486
[...]
