{
  "version": "1.0",
  "truncation": null,
  "padding": null,
  "added_tokens": [
    {
      "id": 0,
      "content": "[UNK]",
      "single_word": false,
      "lstrip": false,
      "rstrip": false,
      "normalized": false,
      "special": true
    },
    {
      "id": 1,
      "content": "[PAD]",
      "single_word": false,
      "lstrip": false,
      "rstrip": false,
      "normalized": false,
      "special": true
    },
    {
      "id": 2,
      "content": "[BOS]",
      "single_word": false,
      "lstrip": false,
      "rstrip": false,
      "normalized": false,
      "special": true
    },
    {
      "id": 3,
      "content": "[EOS]",
      "single_word": false,
      "lstrip": false,
      "rstrip": false,
      "normalized": false,
      "special": true
    }
  ],
  "normalizer": {
    "type": "NFKC"
  },
  "pre_tokenizer": {
    "type": "Whitespace"
  },
  "post_processor": null,
  "decoder": null,
  "model": {
    "type": "WordPiece",
    "unk_token": "[UNK]",
    "continuing_subword_prefix": "##",
    "max_input_chars_per_word": 100,
    "vocab": {
      "[UNK]": 0,
      "[PAD]": 1,
      "[BOS]": 2,
      "[EOS]": 3,
      "!": 4,
      "\"": 5,
      "#": 6,
      "$": 7,
      "%": 8,
      "&": 9,
      "'": 10,
      "(": 11,
      ")": 12,
      "+": 13,
      ",": 14,
      "-": 15,
      ".": 16,
      "0": 17,
      "1": 18,
      "2": 19,
      "3": 20,
      "4": 21,
      "5": 22,
      "6": 23,
      "7": 24,
      "8": 25,
      "9": 26,
      ":": 27,
      ";": 28,
      "=": 29,
      "?": 30,
      "@": 31,
      "A": 32,
      "B": 33,
      "C": 34,
      "D": 35,
      "E": 36,
      "F": 37,
      "G": 38,
      "H": 39,
      "I": 40,
      "J": 41,
      "K": 42,
      "L": 43,
      "M": 44,
      "N": 45,
      "O": 46,
      "P": 47,
      "Q": 48,
      "R": 49,
      "S": 50,
      "T": 51,
      "U": 52,
      "V": 53,
      "W": 54,
      "X": 55,
      "Y": 56,
      "Z": 57,
      "`": 58,
      "a": 59,
      "b": 60,
      "c": 61,
      "d": 62,
      "e": 63,
      "f": 64,
      "g": 65,
      "h": 66,
      "i": 67,
      "j": 68,
      "k": 69,
      "l": 70,
      "m": 71,
      "n": 72,
      "o": 73,
      "p": 74,
      "q": 75,
      "r": 76,
      "s": 77,
      "t": 78,
      "u": 79,
      "v": 80,
      "w": 81,
      "x": 82,
      "y": 83,
      "z": 84,
      "##O": 85,
      "##a": 86,
      "##n": 87,
      "##g": 88,
      "##e": 89,
      "##r": 90,
      "##i": 91,
      "##l": 92,
      "##b": 93,
      "##s": 94,
      "##p": 95,
      "##o": 96,
      "##u": 97,
      "##t": 98,
      "##m": 99,
      "##k": 100,
      "##h": 101,
      "##w": 102,
      "##c": 103,
      "##y": 104,
      "##q": 105,
      "##d": 106,
      "##f": 107,
      "##j": 108,
      "##E": 109,
      "##P": 110,
      "##z": 111,
      "##R": 112,
      "##x": 113,
      "##A": 114,
      "##S": 115,
      "##T": 116,
      "##L": 117,
      "##3": 118,
      "##v": 119,
      "##5": 120,
      "##U": 121,
      "##V": 122,
      "##H": 123,
      "##N": 124,
      "##C": 125,
      "##I": 126,
      "##F": 127,
      "##4": 128,
      "##M": 129,
      "##G": 130,
      "##0": 131,
      "##7": 132,
      "##)": 133,
      "##K": 134,
      "##Y": 135,
      "##B": 136,
      "##W": 137,
      "##2": 138,
      "##1": 139,
      "##,": 140,
      "##D": 141,
      "##J": 142,
      "##6": 143,
      "##Z": 144,
      "##9": 145,
      "###": 146,
      "##8": 147,
      "##X": 148,
      "##.": 149,
      "##\"": 150,
      "##Q": 151,
      "##'": 152,
      "##?": 153,
      "##$": 154,
      "##;": 155,
      "##`": 156,
      "##-": 157,
      "##in": 158,
      "##ing": 159,
      "##an": 160,
      "##er": 161,
      "in": 162,
      "##it": 163,
      "##he": 164,
      "##re": 165,
      "##le": 166,
      "the": 167,
      "##ar": 168,
      "##nd": 169,
      "##ro": 170,
      "on": 171,
      "##al": 172,
      "##ir": 173,
      "##at": 174,
      "and": 175,
      "of": 176,
      "##en": 177,
      "is": 178,
      "man": 179,
      "##om": 180,
      "##ac": 181,
      "st": 182,
      "##ith": 183,
      "with": 184,
      "##or": 185,
      "##ed": 186,
      "##ld": 187,
      "##et": 188,
      "##es": 189,
      "##on": 190,
      "##ou": 191,
      "wh": 192,
      "##ow": 193,
      "bl": 194,
      "##la": 195,
      "sh": 196,
      "##id": 197,
      "wom": 198,
      "##op": 199,
      "##ack": 200,
      "##is": 201,
      "##oo": 202,
      "##king": 203,
      "##ic": 204,
      "##and": 205,
      "##ear": 206,
      "##rou": 207,
      "are": 208,
      "to": 209,
      "##wo": 210,
      "woman": 211,
      "##ss": 212,
      "##irt": 213,
      "##all": 214,
      "at": 215,
      "##ts": 216,
      "pla": 217,
      "##ople": 218,
      "##eople": 219,
      "Two": 220,
      "##ers": 221,
      "##oun": 222,
      "##ting": 223,
      "play": 224,
      "wear": 225,
      "bo": 226,
      "shirt": 227,
      "wearing": 228,
      "##ll": 229,
      "an": 230,
      "##ad": 231,
      "do": 232,
      "##her": 233,
      "stand": 234,
      "sit": 235,
      "##ge": 236,
      "people": 237,
      "##ite": 238,
      "##ide": 239,
      "##ile": 240,
      "##ra": 241,
      "##oung": 242,
      "##ild": 243,
      "white": 244,
      "ch": 245,
      "##st": 246,
      "##ue": 247,
      "##gh": 248,
      "young": 249,
      "black": 250,
      "##irl": 251,
      "##ot": 252,
      "fro": 253,
      "while": 254,
      "##un": 255,
      "girl": 256,
      "his": 257,
      "be": 258,
      "wal": 259,
      "blue": 260,
      "dog": 261,
      "ou": 262,
      "##am": 263,
      "boy": 264,
      "##um": 265,
      "ho": 266,
      "red": 267,
      "##ch": 268,
      "wat": 269,
      "th": 270,
      "##ver": 271,
      "##as": 272,
      "##ur": 273,
      "##row": 274,
      "sitting": 275,
      "##round": 276,
      "##ks": 277,
      "hold": 278,
      "standing": 279,
      "##own": 280,
      "loo": 281,
      "men": 282,
      "stre": 283,
      "child": 284,
      "bu": 285,
      "playing": 286,
      "##nt": 287,
      "##ard": 288,
      "street": 289,
      "co": 290,
      "##roup": 291,
      "##il": 292,
      "down": 293,
      "##im": 294,
      "##ri": 295,
      "group": 296,
      "front": 297,
      "##ree": 298,
      "her": 299,
      "ro": 300,
      "sm": 301,
      "##ke": 302,
      "walking": 303,
      "##el": 304,
      "holding": 305,
      "##ell": 306,
      "##ion": 307,
      "##ain": 308,
      "##air": 309,
      "##ce": 310,
      "##ay": 311,
      "##ress": 312,
      "##ent": 313,
      "gra": 314,
      "ta": 315,
      "out": 316,
      "water": 317,
      "##ie": 318,
      "car": 319,
      "dress": 320,
      "##ach": 321,
      "back": 322,
      "as": 323,
      "by": 324,
      "up": 325,
      "som": 326,
      "The": 327,
      "##ap": 328,
      "cl": 329,
      "wor": 330,
      "##ck": 331,
      "##reen": 332,
      "po": 333,
      "##igh": 334,
      "##ark": 335,
      "for": 336,
      "##ump": 337,
      "run": 338,
      "one": 339,
      "##tle": 340,
      "##ct": 341,
      "Th": 342,
      "##se": 343,
      "##one": 344,
      "##ood": 345,
      "##ead": 346,
      "##uit": 347,
      "##ve": 348,
      "##hing": 349,
      "green": 350,
      "ne": 351,
      "##for": 352,
      "sk": 353,
      "sw": 354,
      "looking": 355,
      "##ying": 356,
      "jump": 357,
      "##bo": 358,
      "##form": 359,
      "##ind": 360,
      "An": 361,
      "rid": 362,
      "hat": 363,
      "tr": 364,
      "women": 365,
      "##ble": 366,
      "##rown": 367,
      "bi": 368,
      "##em": 369,
      "outs": 370,
      "ball": 371,
      "##arge": 372,
      "ot": 373,
      "or": 374,
      "sn": 375,
      "##ren": 376,
      "##ittle": 377,
      "outside": 378,
      "large": 379,
      "side": 380,
      "##ellow": 381,
      "Three": 382,
      "yellow": 383,
      "##ball": 384,
      "fl": 385,
      "##erson": 386,
      "##ore": 387,
      "over": 388,
      "brown": 389,
      "##ong": 390,
      "##to": 391,
      "two": 392,
      "##ul": 393,
      "le": 394,
      "##rough": 395,
      "through": 396,
      "little": 397,
      "##ure": 398,
      "##ace": 399,
      "snow": 400,
      "person": 401,
      "hand": 402,
      "sp": 403,
      "##ian": 404,
      "##lass": 405,
      "##ter": 406,
      "from": 407,
      "their": 408,
      "##ning": 409,
      "##xt": 410,
      "##us": 411,
      "other": 412,
      "con": 413,
      "##yc": 414,
      "ba": 415,
      "ma": 416,
      "##acket": 417,
      "##ink": 418,
      "build": 419,
      "##lder": 420,
      "children": 421,
      "building": 422,
      "##our": 423,
      "##other": 424,
      "next": 425,
      "##hes": 426,
      "##ly": 427,
      "into": 428,
      "##ire": 429,
      "##oc": 430,
      "##ground": 431,
      "jacket": 432,
      "##ig": 433,
      "small": 434,
      "some": 435,
      "##ight": 436,
      "##rowd": 437,
      "##alk": 438,
      "##ving": 439,
      "##ate": 440,
      "##ple": 441,
      "dressed": 442,
      "crowd": 443,
      "te": 444,
      "near": 445,
      "##ep": 446,
      "##ick": 447,
      "People": 448,
      "##ange": 449,
      "another": 450,
      "grass": 451,
      "running": 452,
      "se": 453,
      "riding": 454,
      "##board": 455,
      "##est": 456,
      "bas": 457,
      "wa": 458,
      "Man": 459,
      "##ph": 460,
      "cam": 461,
      "##ield": 462,
      "around": 463,
      "ar": 464,
      "sc": 465,
      "##age": 466,
      "##oor": 467,
      "##ans": 468,
      "##walk": 469,
      "##out": 470,
      "orange": 471,
      "table": 472,
      "##cer": 473,
      "field": 474,
      "off": 475,
      "##ist": 476,
      "##ut": 477,
      "##ycle": 478,
      "hair": 479,
      "##pp": 480,
      "##lasses": 481,
      "per": 482,
      "al": 483,
      "stands": 484,
      "background": 485,
      "beach": 486,
      "pink": 487,
      "pa": 488,
      "##sing": 489,
      "pic": 490,
      "##hind": 491,
      "behind": 492,
      "ha": 493,
      "go": 494,
      "sidewalk": 495,
      "##ff": 496,
      "##ture": 497,
      "air": 498,
      "br": 499,
      "tra": 500,
      "##ine": 501,
      "##ity": 502,
      "work": 503,
      "##ross": 504,
      "##tain": 505,
      "la": 506,
      "sun": 507,
      "lad": 508,
      "##str": 509,
      "perform": 510,
      "jumping": 511,
      "##ching": 512,
      "shor": 513,
      "sits": 514,
      "top": 515,
      "un": 516,
      "col": 517,
      "head": 518,
      "camer": 519,
      "##ool": 520,
      "that": 521,
      "dr": 522,
      "##ating": 523,
      "##iling": 524,
      "##by": 525,
      "bike": 526,
      "sur": 527,
      "it": 528,
      "looks": 529,
      "wall": 530,
      "picture": 531,
      "camera": 532,
      "##ond": 533,
      "girls": 534,
      "tal": 535,
      "##way": 536,
      "park": 537,
      "com": 538,
      "##eat": 539,
      "##ub": 540,
      "##oot": 541,
      "##ants": 542,
      "wood": 543,
      "##uitar": 544,
      "guitar": 545,
      "player": 546,
      "##ves": 547,
      "gu": 548,
      "read": 549,
      "dogs": 550,
      "soc": 551,
      "city": 552,
      "bus": 553,
      "##ip": 554,
      "##ud": 555,
      "##get": 556,
      "je": 557,
      "##ame": 558,
      "him": 559,
      "##ountain": 560,
      "re": 561,
      "working": 562,
      "dan": 563,
      "has": 564,
      "gray": 565,
      "bic": 566,
      "##ction": 567,
      "##te": 568,
      "##ething": 569,
      "something": 570,
      "##ol": 571,
      "##veral": 572,
      "older": 573,
      "##dle": 574,
      "talking": 575,
      "he": 576,
      "par": 577,
      "li": 578,
      "mid": 579,
      "soccer": 580,
      "hel": 581,
      "ph": 582,
      "##phone": 583,
      "walk": 584,
      "As": 585,
      "shorts": 586,
      "##rying": 587,
      "clot": 588,
      "blond": 589,
      "cou": 590,
      "##ale": 591,
      "##door": 592,
      "##ne": 593,
      "uni": 594,
      "##ant": 595,
      "pants": 596,
      "walks": 597,
      "##ation": 598,
      "Asian": 599,
      "ben": 600,
      "guy": 601,
      "ac": 602,
      "uniform": 603,
      "them": 604,
      "##ches": 605,
      "jeans": 606,
      "##ive": 607,
      "plays": 608,
      "##og": 609,
      "hor": 610,
      "lady": 611,
      "##ign": 612,
      "##ill": 613,
      "rock": 614,
      "smiling": 615,
      "ad": 616,
      "##are": 617,
      "boys": 618,
      "pre": 619,
      "road": 620,
      "along": 621,
      "##ket": 622,
      "dark": 623,
      "##kes": 624,
      "skate": 625,
      "pl": 626,
      "##nder": 627,
      "bicycle": 628,
      "##ather": 629,
      "##rip": 630,
      "food": 631,
      "##ull": 632,
      "game": 633,
      "suit": 634,
      "swim": 635,
      "che": 636,
      "sand": 637,
      "pro": 638,
      "carrying": 639,
      "##gether": 640,
      "together": 641,
      "pur": 642,
      "holds": 643,
      "##here": 644,
      "bench": 645,
      "##imb": 646,
      "ra": 647,
      "sle": 648,
      "pain": 649,
      "outdoor": 650,
      "Four": 651,
      "get": 652,
      "long": 653,
      "under": 654,
      "climb": 655,
      "##qu": 656,
      "##les": 657,
      "##ging": 658,
      "base": 659,
      "skateboard": 660,
      "face": 661,
      "tan": 662,
      "mountain": 663,
      "glasses": 664,
      "bag": 665,
      "stage": 666,
      "##ook": 667,
      "dirt": 668,
      "ag": 669,
      "strip": 670,
      "baby": 671,
      "Se": 672,
      "##ful": 673,
      "##emale": 674,
      "sing": 675,
      "sign": 676,
      "##mer": 677,
      "mot": 678,
      "hands": 679,
      "chair": 680,
      "tow": 681,
      "wait": 682,
      "mic": 683,
      "##outh": 684,
      "coat": 685,
      "tree": 686,
      "boat": 687,
      "kid": 688,
      "##ling": 689,
      "arm": 690,
      "taking": 691,
      "who": 692,
      "en": 693,
      "##ence": 694,
      "comp": 695,
      "##ath": 696,
      "##end": 697,
      "foot": 698,
      "##stru": 699,
      "micro": 700,
      "##ies": 701,
      "##ses": 702,
      "doing": 703,
      "watching": 704,
      "pool": 705,
      "old": 706,
      "couple": 707,
      "wind": 708,
      "female": 709,
      "Wom": 710,
      "team": 711,
      "##ice": 712,
      "sl": 713,
      "##met": 714,
      "jumps": 715,
      "##ft": 716,
      "each": 717,
      "##che": 718,
      "ground": 719,
      "sweat": 720,
      "helmet": 721,
      "basket": 722,
      "##cing": 723,
      "area": 724,
      "shop": 725,
      "mus": 726,
      "Several": 727,
      "day": 728,
      "cat": 729,
      "att": 730,
      "baseball": 731,
      "de": 732,
      "##ican": 733,
      "##side": 734,
      "she": 735,
      "bar": 736,
      "##ug": 737,
      "##ome": 738,
      "being": 739,
      "male": 740,
      "band": 741,
      "Ch": 742,
      "##led": 743,
      "##struction": 744,
      "##ak": 745,
      "motor": 746,
      "mouth": 747,
      "phot": 748,
      "##ery": 749,
      "striped": 750,
      "cover": 751,
      "look": 752,
      "race": 753,
      "##ents": 754,
      "color": 755,
      "performing": 756,
      "##ping": 757,
      "cap": 758,
      "music": 759,
      "ex": 760,
      "room": 761,
      "##glasses": 762,
      "middle": 763,
      "##ess": 764,
      "spe": 765,
      "op": 766,
      "bot": 767,
      "across": 768,
      "##ment": 769,
      "##sh": 770,
      "horse": 771,
      "mar": 772,
      "purple": 773,
      "toy": 774,
      "surf": 775,
      "##ards": 776,
      "sho": 777,
      "##ired": 778,
      "##ght": 779,
      "window": 780,
      "set": 781,
      "##ust": 782,
      "swing": 783,
      "cross": 784,
      "Young": 785,
      "##ner": 786,
      "sunglasses": 787,
      "eating": 788,
      "store": 789,
      "##dy": 790,
      "mo": 791,
      "##mb": 792,
      "football": 793,
      "gather": 794,
      "##uring": 795,
      "##uck": 796,
      "train": 797,
      "##ope": 798,
      "There": 799,
      "ca": 800,
      "##ming": 801,
      "##enn": 802,
      "using": 803,
      "fis": 804,
      "runs": 805,
      "microphone": 806,
      "##ee": 807,
      "haired": 808,
      "reading": 809,
      "dis": 810,
      "##ry": 811,
      "##tic": 812,
      "##ennis": 813,
      "three": 814,
      "rest": 815,
      "dri": 816,
      "tre": 817,
      "prep": 818,
      "its": 819,
      "watch": 820,
      "tennis": 821,
      "##iv": 822,
      "ob": 823,
      "##ance": 824,
      "app": 825,
      "##ort": 826,
      "##jo": 827,
      "all": 828,
      "players": 829,
      "ab": 830,
      "floor": 831,
      "##ag": 832,
      "##aring": 833,
      "##up": 834,
      "##ated": 835,
      "construction": 836,
      "bri": 837,
      "mark": 838,
      "sa": 839,
      "##ored": 840,
      "##aper": 841,
      "adul": 842,
      "flow": 843,
      "watches": 844,
      "lay": 845,
      "##rel": 846,
      "shirts": 847,
      "##mp": 848,
      "motorc": 849,
      "##acing": 850,
      "##ainst": 851,
      "fore": 852,
      "Woman": 853,
      "##ty": 854,
      "##ade": 855,
      "open": 856,
      "wooden": 857,
      "fla": 858,
      "past": 859,
      "rides": 860,
      "against": 861,
      "enjo": 862,
      "fire": 863,
      "covered": 864,
      "about": 865,
      "##ley": 866,
      "##ber": 867,
      "basketball": 868,
      "show": 869,
      "##lderly": 870,
      "ri": 871,
      "dancing": 872,
      "##aur": 873,
      "##cean": 874,
      "bright": 875,
      "bal": 876,
      "outf": 877,
      "clothing": 878,
      "can": 879,
      "during": 880,
      "track": 881,
      "ocean": 882,
      "drin": 883,
      "cle": 884,
      "##ouse": 885,
      "outfit": 886,
      "##aning": 887,
      "waiting": 888,
      "##man": 889,
      "##os": 890,
      "One": 891,
      "busy": 892,
      "surround": 893,
      "climbing": 894,
      "market": 895,
      "getting": 896,
      "having": 897,
      "high": 898,
      "restaur": 899,
      "smile": 900,
      "##key": 901,
      "pol": 902,
      "##ted": 903,
      "trees": 904,
      "elderly": 905,
      "##ial": 906,
      "workers": 907,
      "##ast": 908,
      "lau": 909,
      "kids": 910,
      "restaurant": 911,
      "##ix": 912,
      "##stum": 913,
      "##mbrel": 914,
      "##mbrella": 915,
      "cell": 916,
      "des": 917,
      "umbrella": 918,
      "costum": 919,
      "##strum": 920,
      "instrum": 921,
      "swimming": 922,
      "colorful": 923,
      "hill": 924,
      "ve": 925,
      "light": 926,
      "so": 927,
      "pass": 928,
      "making": 929,
      "##gs": 930,
      "##ron": 931,
      "motorcycle": 932,
      "##ous": 933,
      "bow": 934,
      "inside": 935,
      "they": 936,
      "posing": 937,
      "##sc": 938,
      "throw": 939,
      "singing": 940,
      "han": 941,
      "pie": 942,
      "str": 943,
      "##ect": 944,
      "fe": 945,
      "##vel": 946,
      "trying": 947,
      "##ler": 948,
      "##dd": 949,
      "##ily": 950,
      "bear": 951,
      "fence": 952,
      "mat": 953,
      "pr": 954,
      "##utting": 955,
      "##eping": 956,
      "whe": 957,
      "line": 958,
      "brick": 959,
      "##cks": 960,
      "kit": 961,
      "ev": 962,
      "##less": 963,
      "##ors": 964,
      "##eps": 965,
      "cart": 966,
      "hats": 967,
      "book": 968,
      "##ier": 969,
      "ice": 970,
      "##ny": 971,
      "##ycl": 972,
      "Some": 973,
      "path": 974,
      "big": 975,
      "##hers": 976,
      "very": 977,
      "ride": 978,
      "di": 979,
      "##oon": 980,
      "sweater": 981,
      "bes": 982,
      "cow": 983,
      "colored": 984,
      "##vers": 985,
      "bat": 986,
      "##ooking": 987,
      "new": 988,
      "towards": 989,
      "##chen": 990,
      "art": 991,
      "night": 992,
      "##sp": 993,
      "body": 994,
      "Child": 995,
      "##icks": 996,
      "##ey": 997,
      "cellphone": 998,
      "##pack": 999,
      "truck": 1000,
      "lake": 1001,
      "surrounded": 1002,
      "kitchen": 1003,
      "beside": 1004,
      "##fe": 1005,
      "clothes": 1006,
      "##ition": 1007,
      "met": 1008,
      "backpack": 1009,
      "This": 1010,
      "river": 1011,
      "##als": 1012,
      "roll": 1013,
      "board": 1014,
      "laying": 1015,
      "af": 1016,
      "cor": 1017,
      "pus": 1018,
      "vest": 1019,
      "##room": 1020,
      "compet": 1021,
      "stick": 1022,
      "like": 1023,
      "drum": 1024,
      "outdoors": 1025,
      "Men": 1026,
      "grassy": 1027,
      "cre": 1028,
      "laugh": 1029,
      "stair": 1030,
      "##ries": 1031,
      "##br": 1032,
      "arms": 1033,
      "piece": 1034,
      "beard": 1035,
      "##iz": 1036,
      "others": 1037,
      "am": 1038,
      "lo": 1039,
      "##ird": 1040,
      "##lo": 1041,
      "bik": 1042,
      "##ates": 1043,
      "##ogra": 1044,
      "##ject": 1045,
      "tank": 1046,
      "painting": 1047,
      "cour": 1048,
      "##hed": 1049,
      "wheel": 1050,
      "sell": 1051,
      "mach": 1052,
      "##ines": 1053,
      "##iew": 1054,
      "box": 1055,
      "##amp": 1056,
      "##cor": 1057,
      "tur": 1058,
      "paper": 1059,
      "boo": 1060,
      "hard": 1061,
      "##raw": 1062,
      "##ound": 1063,
      "pull": 1064,
      "sub": 1065,
      "several": 1066,
      "skirt": 1067,
      "shopping": 1068,
      "smo": 1069,
      "appear": 1070,
      "brid": 1071,
      "photogra": 1072,
      "ele": 1073,
      "uniforms": 1074,
      "full": 1075,
      "##bove": 1076,
      "above": 1077,
      "enjoying": 1078,
      "ey": 1079,
      "me": 1080,
      "##merican": 1081,
      "##we": 1082,
      "##ere": 1083,
      "event": 1084,
      "ap": 1085,
      "##able": 1086,
      "todd": 1087,
      "kne": 1088,
      "##av": 1089,
      "many": 1090,
      "stone": 1091,
      "worker": 1092,
      "door": 1093,
      "metal": 1094,
      "##ich": 1095,
      "snowy": 1096,
      "##ris": 1097,
      "drinking": 1098,
      "Five": 1099,
      "gi": 1100,
      "hanging": 1101,
      "hit": 1102,
      "ready": 1103,
      "##ym": 1104,
      "coun": 1105,
      "##emp": 1106,
      "trick": 1107,
      "bre": 1108,
      "num": 1109,
      "sleeping": 1110,
      "##rican": 1111,
      "##riend": 1112,
      "poin": 1113,
      "##boy": 1114,
      "##der": 1115,
      "##act": 1116,
      "shoes": 1117,
      "house": 1118,
      "right": 1119,
      "##lay": 1120,
      "away": 1121,
      "##stic": 1122,
      "guys": 1123,
      "Children": 1124,
      "no": 1125,
      "Many": 1126,
      "after": 1127,
      "lea": 1128,
      "shou": 1129,
      "hi": 1130,
      "cur": 1131,
      "gathered": 1132,
      "takes": 1133,
      "phone": 1134,
      "toddler": 1135,
      "##ists": 1136,
      "##amily": 1137,
      "going": 1138,
      "lap": 1139,
      "##ding": 1140,
      "view": 1141,
      "##aking": 1142,
      "##ane": 1143,
      "##ets": 1144,
      "bridge": 1145,
      "##ones": 1146,
      "onto": 1147,
      "##ase": 1148,
      "dance": 1149,
      "teen": 1150,
      "rain": 1151,
      "##ium": 1152,
      "adults": 1153,
      "leap": 1154,
      "both": 1155,
      "pole": 1156,
      "##bble": 1157,
      "conc": 1158,
      "wave": 1159,
      "smiles": 1160,
      "lot": 1161,
      "##arf": 1162,
      "disp": 1163,
      "rope": 1164,
      "Af": 1165,
      "##ious": 1166,
      "sky": 1167,
      "snowboard": 1168,
      "crowded": 1169,
      "leaning": 1170,
      "catch": 1171,
      "photo": 1172,
      "what": 1173,
      "left": 1174,
      "cowboy": 1175,
      "gym": 1176,
      "res": 1177,
      "stud": 1178,
      "short": 1179,
      "gear": 1180,
      "##lic": 1181,
      "steps": 1182,
      "attemp": 1183,
      "flowers": 1184,
      "friend": 1185,
      "pose": 1186,
      "##ary": 1187,
      "rocks": 1188,
      "four": 1189,
      "ski": 1190,
      "class": 1191,
      "preparing": 1192,
      "##ersey": 1193,
      "bet": 1194,
      "##ork": 1195,
      "family": 1196,
      "jersey": 1197,
      "##ish": 1198,
      "fil": 1199,
      "fountain": 1200,
      "pat": 1201,
      "sunny": 1202,
      "##gg": 1203,
      "hoc": 1204,
      "subway": 1205,
      "which": 1206,
      "have": 1207,
      "hockey": 1208,
      "##ved": 1209,
      "fishing": 1210,
      "vol": 1211,
      "##old": 1212,
      "##wn": 1213,
      "costume": 1214,
      "opp": 1215,
      "##ime": 1216,
      "pub": 1217,
      "stop": 1218,
      "racing": 1219,
      "##owing": 1220,
      "convers": 1221,
      "##ween": 1222,
      "dist": 1223,
      "##iting": 1224,
      "between": 1225,
      "##unch": 1226,
      "win": 1227,
      "##ening": 1228,
      "flag": 1229,
      "prepare": 1230,
      "American": 1231,
      "African": 1232,
      "make": 1233,
      "balloon": 1234,
      "##ned": 1235,
      "##ffit": 1236,
      "number": 1237,
      "##oy": 1238,
      "machine": 1239,
      "glass": 1240,
      "##aut": 1241,
      "but": 1242,
      "chairs": 1243,
      "wr": 1244,
      "public": 1245,
      "setting": 1246,
      "graffit": 1247,
      "##hic": 1248,
      "corner": 1249,
      "laughing": 1250,
      "##ces": 1251,
      "##leyball": 1252,
      "instruments": 1253,
      "cr": 1254,
      "plaid": 1255,
      "slee": 1256,
      "equ": 1257,
      "##ric": 1258,
      "volleyball": 1259,
      "##uct": 1260,
      "forest": 1261,
      "graffiti": 1262,
      "##ience": 1263,
      "##risb": 1264,
      "##shirt": 1265,
      "shirtless": 1266,
      "sweatshirt": 1267,
      "vehic": 1268,
      "bed": 1269,
      "squ": 1270,
      "##entle": 1271,
      "drink": 1272,
      "##app": 1273,
      "we": 1274,
      "##ash": 1275,
      "trail": 1276,
      "appears": 1277,
      "hood": 1278,
      "##icking": 1279,
      "##ched": 1280,
      "tall": 1281,
      "stairs": 1282,
      "ear": 1283,
      "selling": 1284,
      "##risbee": 1285,
      "gr": 1286,
      "##rete": 1287,
      "ref": 1288,
      "##auti": 1289,
      "gold": 1290,
      "list": 1291,
      "plastic": 1292,
      "rail": 1293,
      "aud": 1294,
      "fr": 1295,
      "glo": 1296,
      "##yclist": 1297,
      "concrete": 1298,
      "bottle": 1299,
      "##bor": 1300,
      "##roll": 1301,
      "couch": 1302,
      "ed": 1303,
      "cig": 1304,
      "adult": 1305,
      "##cl": 1306,
      "##autiful": 1307,
      "roo": 1308,
      "##ings": 1309,
      "##ats": 1310,
      "##ock": 1311,
      "##uter": 1312,
      "##pe": 1313,
      "seated": 1314,
      "bags": 1315,
      "##rill": 1316,
      "cup": 1317,
      "##aces": 1318,
      "gentle": 1319,
      "mas": 1320,
      "scarf": 1321,
      "pe": 1322,
      "kis": 1323,
      "##be": 1324,
      "someone": 1325,
      "##ally": 1326,
      "##ems": 1327,
      "Girl": 1328,
      "ent": 1329,
      "ramp": 1330,
      "ind": 1331,
      "offic": 1332,
      "##ety": 1333,
      "ban": 1334,
      "cooking": 1335,
      "midair": 1336,
      "putting": 1337,
      "computer": 1338,
      "woods": 1339,
      "stat": 1340,
      "scen": 1341,
      "equip": 1342,
      "##art": 1343,
      "##chool": 1344,
      "take": 1345,
      "home": 1346,
      "object": 1347,
      "fruit": 1348,
      "##uff": 1349,
      "asian": 1350,
      "##ugg": 1351,
      "equipment": 1352,
      "pad": 1353,
      "display": 1354,
      "beautiful": 1355,
      "works": 1356,
      "toward": 1357,
      "bird": 1358,
      "hu": 1359,
      "##ement": 1360,
      "buck": 1361,
      "boots": 1362,
      "grill": 1363,
      "slide": 1364,
      "##att": 1365,
      "mountains": 1366,
      "edge": 1367,
      "gar": 1368,
      "bel": 1369,
      "pushing": 1370,
      "##aret": 1371,
      "there": 1372,
      "pictures": 1373,
      "Bl": 1374,
      "does": 1375,
      "cigaret": 1376,
      "nearby": 1377,
      "fish": 1378,
      "elect": 1379,
      "distance": 1380,
      "throwing": 1381,
      "vend": 1382,
      "apron": 1383,
      "##aw": 1384,
      "##ail": 1385,
      "##ony": 1386,
      "flower": 1387,
      "ser": 1388,
      "stroll": 1389,
      "spor": 1390,
      "just": 1391,
      "bikes": 1392,
      "sil": 1393,
      "##ined": 1394,
      "shovel": 1395,
      "##ins": 1396,
      "##ical": 1397,
      "eyes": 1398,
      "##ons": 1399,
      "where": 1400,
      "cont": 1401,
      "##iff": 1402,
      "rod": 1403,
      "##els": 1404,
      "##phones": 1405,
      "aged": 1406,
      "buildings": 1407,
      "audience": 1408,
      "anim": 1409,
      "##az": 1410,
      "poses": 1411,
      "filled": 1412,
      "Little": 1413,
      "was": 1414,
      "performs": 1415,
      "police": 1416,
      "shore": 1417,
      "crossing": 1418,
      "hot": 1419,
      "rider": 1420,
      "##arm": 1421,
      "instrument": 1422,
      "pulling": 1423,
      "emp": 1424,
      "##top": 1425,
      "playground": 1426,
      "ladies": 1427,
      "pit": 1428,
      "chas": 1429,
      "Women": 1430,
      "##attoo": 1431,
      "fall": 1432,
      "##actic": 1433,
      "pu": 1434,
      "winter": 1435,
      "##pl": 1436,
      "painted": 1437,
      "vehicle": 1438,
      "rais": 1439,
      "##head": 1440,
      "station": 1441,
      "##iding": 1442,
      "practic": 1443,
      "var": 1444,
      "horses": 1445,
      "newsp": 1446,
      "kn": 1447,
      "##ows": 1448,
      "clo": 1449,
      "musician": 1450,
      "lawn": 1451,
      "net": 1452,
      "tattoo": 1453,
      "pres": 1454,
      "party": 1455,
      "leaves": 1456,
      "cigarette": 1457,
      "cra": 1458,
      "not": 1459,
      "##ining": 1460,
      "##ights": 1461,
      "smoking": 1462,
      "fun": 1463,
      "driving": 1464,
      "school": 1465,
      "parade": 1466,
      "saf": 1467,
      "cleaning": 1468,
      "##look": 1469,
      "##ti": 1470,
      "roof": 1471,
      "statue": 1472,
      "lying": 1473,
      "##ban": 1474,
      "Boy": 1475,
      "veget": 1476,
      "cutting": 1477,
      "struct": 1478,
      "giving": 1479,
      "##ini": 1480,
      "spla": 1481,
      "structure": 1482,
      "Frisbee": 1483,
      "yard": 1484,
      "ste": 1485,
      "concer": 1486,
      "mud": 1487,
      "##cking": 1488,
      "##ests": 1489,
      "##ely": 1490,
      "rocky": 1491,
      "##ven": 1492,
      "beer": 1493,
      "form": 1494,
      "cream": 1495,
      "vi": 1496,
      "few": 1497,
      "safety": 1498,
      "##ids": 1499,
      "bubble": 1500,
      "neck": 1501,
      "skateboarder": 1502,
      "blan": 1503,
      "pile": 1504,
      "##irc": 1505,
      "goal": 1506,
      "##pped": 1507,
      "Group": 1508,
      "land": 1509,
      "##iness": 1510,
      "makes": 1511,
      "##ater": 1512,
      "##ators": 1513,
      "##avy": 1514,
      "##rest": 1515,
      "mart": 1516,
      "gloves": 1517,
      "paint": 1518,
      "##nding": 1519,
      "##pping": 1520,
      "##ival": 1521,
      "friends": 1522,
      "St": 1523,
      "##aching": 1524,
      "happ": 1525,
      "inf": 1526,
      "cars": 1527,
      "concert": 1528,
      "##elf": 1529,
      "cheer": 1530,
      "gentleman": 1531,
      "##let": 1532,
      "break": 1533,
      "dock": 1534,
      "mul": 1535,
      "court": 1536,
      "##ides": 1537,
      "blanket": 1538,
      "say": 1539,
      "reads": 1540,
      "enjoy": 1541,
      "shoulder": 1542,
      "kick": 1543,
      "pot": 1544,
      "showing": 1545,
      "martial": 1546,
      "##eo": 1547,
      "carries": 1548,
      "circ": 1549,
      "dire": 1550,
      "bull": 1551,
      "draw": 1552,
      "jackets": 1553,
      "drums": 1554,
      "mem": 1555,
      "##use": 1556,
      "Ind": 1557,
      "newspaper": 1558,
      "vegetable": 1559,
      "ce": 1560,
      "##set": 1561,
      "suits": 1562,
      "among": 1563,
      "dig": 1564,
      "flip": 1565,
      "parked": 1566,
      "business": 1567,
      "gogg": 1568,
      "bowl": 1569,
      "##ens": 1570,
      "##eling": 1571,
      "bowling": 1572,
      "drinks": 1573,
      "counter": 1574,
      "fix": 1575,
      "post": 1576,
      "##lookers": 1577,
      "wet": 1578,
      "##ette": 1579,
      "decor": 1580,
      "costumes": 1581,
      "pointing": 1582,
      "photograph": 1583,
      "rodeo": 1584,
      "goggles": 1585,
      "lit": 1586,
      "wrest": 1587,
      "swims": 1588,
      "railing": 1589,
      "##ivid": 1590,
      "close": 1591,
      "vests": 1592,
      "check": 1593,
      "prepares": 1594,
      "mask": 1595,
      "practicing": 1596,
      "ty": 1597,
      "##cher": 1598,
      "bare": 1599,
      "arts": 1600,
      "hug": 1601,
      "##th": 1602,
      "##ooth": 1603,
      "teams": 1604,
      "diff": 1605,
      "bunch": 1606,
      "##ighting": 1607,
      "alley": 1608,
      "listening": 1609,
      "facing": 1610,
      "overl": 1611,
      "talks": 1612,
      "lined": 1613,
      "mother": 1614,
      "dresses": 1615,
      "Someone": 1616,
      "photograp": 1617,
      "##oll": 1618,
      "##erent": 1619,
      "roller": 1620,
      "sports": 1621,
      "rac": 1622,
      "tent": 1623,
      "##try": 1624,
      "cliff": 1625,
      "bathing": 1626,
      "electric": 1627,
      "##ural": 1628,
      "flying": 1629,
      "spect": 1630,
      "qu": 1631,
      "##ush": 1632,
      "feet": 1633,
      "different": 1634,
      "wed": 1635,
      "##lf": 1636,
      "##ser": 1637,
      "ladder": 1638,
      "desk": 1639,
      "har": 1640,
      "vendor": 1641,
      "mil": 1642,
      "##ray": 1643,
      "scene": 1644,
      "su": 1645,
      "onlookers": 1646,
      "##lax": 1647,
      "##ffee": 1648,
      "parking": 1649,
      "int": 1650,
      "##io": 1651,
      "##ige": 1652,
      "##ps": 1653,
      "##fore": 1654,
      "leg": 1655,
      "relax": 1656,
      "rep": 1657,
      "##nic": 1658,
      "speaking": 1659,
      "prod": 1660,
      "swinging": 1661,
      "gymn": 1662,
      "inter": 1663,
      "##red": 1664,
      "bucket": 1665,
      "wedding": 1666,
      "jog": 1667,
      "staring": 1668,
      "laptop": 1669,
      "lead": 1670,
      "time": 1671,
      "##au": 1672,
      "coffee": 1673,
      "##yclists": 1674,
      "biker": 1675,
      "splas": 1676,
      "##men": 1677,
      "before": 1678,
      "swe": 1679,
      "trun": 1680,
      "tie": 1681,
      "talk": 1682,
      "##ator": 1683,
      "surfer": 1684,
      "snowboarder": 1685,
      "##ual": 1686,
      "##ops": 1687,
      "coll": 1688,
      "viol": 1689,
      "younger": 1690,
      "waves": 1691,
      "sort": 1692,
      "##bb": 1693,
      "##bers": 1694,
      "##ars": 1695,
      "leather": 1696,
      "flags": 1697,
      "conversation": 1698,
      "kay": 1699,
      "##itary": 1700,
      "ath": 1701,
      "screen": 1702,
      "match": 1703,
      "empty": 1704,
      "tub": 1705,
      "surfboard": 1706,
      "fing": 1707,
      "kicking": 1708,
      "Person": 1709,
      "##ger": 1710,
      "##ton": 1711,
      "life": 1712,
      "flo": 1713,
      "skateboarding": 1714,
      "attire": 1715,
      "##na": 1716,
      "##ise": 1717,
      "##ulp": 1718,
      "##cts": 1719,
      "items": 1720,
      "silver": 1721,
      "purse": 1722,
      "obser": 1723,
      "foreground": 1724,
      "shot": 1725,
      "individ": 1726,
      "sha": 1727,
      "legs": 1728,
      "various": 1729,
      "overlooking": 1730,
      "spectators": 1731,
      "shad": 1732,
      "ped": 1733,
      "exam": 1734,
      "Con": 1735,
      "gro": 1736,
      "loc": 1737,
      "mon": 1738,
      "tou": 1739,
      "leans": 1740,
      "competition": 1741,
      "same": 1742,
      "way": 1743,
      "##case": 1744,
      "##ower": 1745,
      "sculp": 1746,
      "cement": 1747,
      "gun": 1748,
      "exp": 1749,
      "##ds": 1750,
      "##ession": 1751,
      "writing": 1752,
      "fur": 1753,
      "##cting": 1754,
      "##alm": 1755,
      "##co": 1756,
      "##ctive": 1757,
      "leaps": 1758,
      "##rist": 1759,
      "clos": 1760,
      "tables": 1761,
      "din": 1762,
      "this": 1763,
      "##eath": 1764,
      "attempting": 1765,
      "animal": 1766,
      "violin": 1767,
      "In": 1768,
      "outfits": 1769,
      "Indian": 1770,
      "bicycles": 1771,
      "climbs": 1772,
      "meal": 1773,
      "cla": 1774,
      "led": 1775,
      "log": 1776,
      "place": 1777,
      "kneeling": 1778,
      "dra": 1779,
      "plat": 1780,
      "musical": 1781,
      "turn": 1782,
      "students": 1783,
      "med": 1784,
      "signs": 1785,
      "Six": 1786,
      "cas": 1787,
      "##ward": 1788,
      "gets": 1789,
      "stroller": 1790,
      "##ticip": 1791,
      "bearded": 1792,
      "produ": 1793,
      "tries": 1794,
      "indoor": 1795,
      "skin": 1796,
      "good": 1797,
      "##bs": 1798,
      "##cu": 1799,
      "site": 1800,
      "##inese": 1801,
      "##aks": 1802,
      "grocer": 1803,
      "##ken": 1804,
      "##read": 1805,
      "##estri": 1806,
      "sings": 1807,
      "vegetables": 1808,
      "gard": 1809,
      "##ied": 1810,
      "##oe": 1811,
      "##arate": 1812,
      "block": 1813,
      "##lage": 1814,
      "streets": 1815,
      "golf": 1816,
      "helmets": 1817,
      "cut": 1818,
      "gathering": 1819,
      "garb": 1820,
      "chasing": 1821,
      "incl": 1822,
      "wra": 1823,
      "wears": 1824,
      "sold": 1825,
      "kissing": 1826,
      "says": 1827,
      "fighting": 1828,
      "##aff": 1829,
      "##mas": 1830,
      "##alf": 1831,
      "##vert": 1832,
      "##lebr": 1833,
      "skier": 1834,
      "prote": 1835,
      "bikini": 1836,
      "tool": 1837,
      "##nel": 1838,
      "##ffic": 1839,
      "surfing": 1840,
      "balan": 1841,
      "platform": 1842,
      "blowing": 1843,
      "##ape": 1844,
      "country": 1845,
      "meat": 1846,
      "##ners": 1847,
      "clown": 1848,
      "contain": 1849,
      "bride": 1850,
      "sunset": 1851,
      "sleeve": 1852,
      "tire": 1853,
      "clou": 1854,
      "walkway": 1855,
      "cake": 1856,
      "bald": 1857,
      "artist": 1858,
      "celebr": 1859,
      "military": 1860,
      "##unette": 1861,
      "##ips": 1862,
      "##olding": 1863,
      "balloons": 1864,
      "cand": 1865,
      "vide": 1866,
      "##osing": 1867,
      "##wing": 1868,
      "part": 1869,
      "##ristmas": 1870,
      "ur": 1871,
      "##ib": 1872,
      "##ram": 1873,
      "advert": 1874,
      "##ized": 1875,
      "classroom": 1876,
      "ham": 1877,
      "mir": 1878,
      "##ert": 1879,
      "##lesc": 1880,
      "uses": 1881,
      "##ike": 1882,
      "##alle": 1883,
      "##ached": 1884,
      "##ooter": 1885,
      "tracks": 1886,
      "enter": 1887,
      "mirro": 1888,
      "bur": 1889,
      "##athon": 1890,
      "diving": 1891,
      "Construction": 1892,
      "round": 1893,
      "##ough": 1894,
      "##acks": 1895,
      "##ading": 1896,
      "coming": 1897,
      "crou": 1898,
      "faces": 1899,
      "vis": 1900,
      "##allow": 1901,
      "scooter": 1902,
      "alone": 1903,
      "##uddle": 1904,
      "advertis": 1905,
      "pier": 1906,
      "##ully": 1907,
      "pour": 1908,
      "row": 1909,
      "tour": 1910,
      "sandy": 1911,
      "##itional": 1912,
      "##cord": 1913,
      "type": 1914,
      "ledge": 1915,
      "fa": 1916,
      "##fully": 1917,
      "males": 1918,
      "wooded": 1919,
      "hiking": 1920,
      "teenag": 1921,
      "resting": 1922,
      "Wh": 1923,
      "traffic": 1924,
      "competing": 1925,
      "bubbles": 1926,
      "rug": 1927,
      "tro": 1928,
      "project": 1929,
      "foll": 1930,
      "##foot": 1931,
      "##vice": 1932,
      "straw": 1933,
      "particip": 1934,
      "##aches": 1935,
      "shows": 1936,
      "course": 1937,
      "Black": 1938,
      "present": 1939,
      "booth": 1940,
      "##ker": 1941,
      "##lders": 1942,
      "huge": 1943,
      "bath": 1944,
      "##za": 1945,
      "trunks": 1946,
      "made": 1947,
      "##ics": 1948,
      "stream": 1949,
      "trad": 1950,
      "refle": 1951,
      "town": 1952,
      "lights": 1953,
      "son": 1954,
      "well": 1955,
      "##cers": 1956,
      "upside": 1957,
      "helping": 1958,
      "passing": 1959,
      "officer": 1960,
      "athle": 1961,
      "mirror": 1962,
      "stret": 1963,
      "headphones": 1964,
      "prot": 1965,
      "opposing": 1966,
      "gymnast": 1967,
      "##if": 1968,
      "trash": 1969,
      "eng": 1970,
      "swings": 1971,
      "direction": 1972,
      "garden": 1973,
      "five": 1974,
      "ring": 1975,
      "plate": 1976,
      "sandals": 1977,
      "microsc": 1978,
      "collar": 1979,
      "##ang": 1980,
      "sty": 1981,
      "skating": 1982,
      "##ocks": 1983,
      "waving": 1984,
      "oper": 1985,
      "skiing": 1986,
      "traditional": 1987,
      "##port": 1988,
      "urban": 1989,
      "im": 1990,
      "##ia": 1991,
      "##ental": 1992,
      "brightly": 1993,
      "sculpture": 1994,
      "fest": 1995,
      "gre": 1996,
      "stad": 1997,
      "brunette": 1998,
      "##ustom": 1999,
      "prin": 2000,
      "##actor": 2001,
      "pupp": 2002,
      "tun": 2003,
      "clear": 2004,
      "##aster": 2005,
      "stadium": 2006,
      "Sm": 2007,
      "ass": 2008,
      "##ness": 2009,
      "chur": 2010,
      "chain": 2011,
      "musicians": 2012,
      "held": 2013,
      "includ": 2014,
      "Kids": 2015,
      "tack": 2016,
      "##ped": 2017,
      "##chair": 2018,
      "barefoot": 2019,
      "Dog": 2020,
      "marathon": 2021,
      "karate": 2022,
      "##ersk": 2023,
      "performance": 2024,
      "chef": 2025,
      "waits": 2026,
      "sliding": 2027,
      "doorway": 2028,
      "leaping": 2029,
      "church": 2030,
      "eat": 2031,
      "father": 2032,
      "teenage": 2033,
      "pack": 2034,
      "##enc": 2035,
      "stuff": 2036,
      "hole": 2037,
      "##ticol": 2038,
      "##hak": 2039,
      "cafe": 2040,
      "repair": 2041,
      "hur": 2042,
      "seen": 2043,
      "multicol": 2044,
      "balls": 2045,
      "prof": 2046,
      "deck": 2047,
      "fixing": 2048,
      "khak": 2049,
      "pill": 2050,
      "##ew": 2051,
      "##hone": 2052,
      "sled": 2053,
      "pick": 2054,
      "##alls": 2055,
      "coats": 2056,
      "Christmas": 2057,
      "video": 2058,
      "star": 2059,
      "stra": 2060,
      "telesc": 2061,
      "sea": 2062,
      "digging": 2063,
      "bra": 2064,
      "##ative": 2065,
      "sticks": 2066,
      "##ese": 2067,
      "spray": 2068,
      "sec": 2069,
      "office": 2070,
      "circle": 2071,
      "photographer": 2072,
      "see": 2073,
      "colle": 2074,
      "dirty": 2075,
      "toys": 2076,
      "##iant": 2077,
      "lab": 2078,
      "shoulders": 2079,
      "##allen": 2080,
      "Gu": 2081,
      "##line": 2082,
      "##ob": 2083,
      "##apers": 2084,
      "windows": 2085,
      "bro": 2086,
      "shallow": 2087,
      "books": 2088,
      "##cuss": 2089,
      "fair": 2090,
      "##enter": 2091,
      "canoe": 2092,
      "desert": 2093,
      "kind": 2094,
      "##tom": 2095,
      "##leep": 2096,
      "stun": 2097,
      "mag": 2098,
      "pul": 2099,
      "##tail": 2100,
      "##orch": 2101,
      "##eth": 2102,
      "heavy": 2103,
      "attached": 2104,
      "below": 2105,
      "##cordion": 2106,
      "Sp": 2107,
      "fight": 2108,
      "##ered": 2109,
      "accordion": 2110,
      "deep": 2111,
      "umbrellas": 2112,
      "sus": 2113,
      "tong": 2114,
      "##lead": 2115,
      "asleep": 2116,
      "pond": 2117,
      "moving": 2118,
      "throws": 2119,
      "microscope": 2120,
      "multicolored": 2121,
      "susp": 2122,
      "hall": 2123,
      "##ung": 2124,
      "third": 2125,
      "leash": 2126,
      "bottom": 2127,
      "laund": 2128,
      "hugging": 2129,
      "end": 2130,
      "##ient": 2131,
      "##fts": 2132,
      "seat": 2133,
      "##ipe": 2134,
      "##scape": 2135,
      "makeup": 2136,
      "washing": 2137,
      "members": 2138,
      "beige": 2139,
      "scaff": 2140,
      "catching": 2141,
      "Work": 2142,
      "crying": 2143,
      "giant": 2144,
      "ret": 2145,
      "##zz": 2146,
      "stare": 2147,
      "performer": 2148,
      "reaching": 2149,
      "nose": 2150,
      "happy": 2151,
      "grocery": 2152,
      "jugg": 2153,
      "hoop": 2154,
      "runner": 2155,
      "trans": 2156,
      "Chinese": 2157,
      "sleeved": 2158,
      "how": 2159,
      "key": 2160,
      "wets": 2161,
      "produce": 2162,
      "telescope": 2163,
      "custom": 2164,
      "cloth": 2165,
      "pair": 2166,
      "##uals": 2167,
      "shoo": 2168,
      "##emon": 2169,
      "dinner": 2170,
      "##so": 2171,
      "##eng": 2172,
      "spr": 2173,
      "dry": 2174,
      "relaxing": 2175,
      "jogging": 2176,
      "Guy": 2177,
      "wetsuit": 2178,
      "don": 2179,
      "pan": 2180,
      "##self": 2181,
      "himself": 2182,
      "exc": 2183,
      "square": 2184,
      "swimsuit": 2185,
      "card": 2186,
      "heads": 2187,
      "sweeping": 2188,
      "##ering": 2189,
      "##stac": 2190,
      "pos": 2191,
      "kayak": 2192,
      "act": 2193,
      "attempts": 2194,
      "hoodie": 2195,
      "van": 2196,
      "##arrow": 2197,
      "##riental": 2198,
      "##ures": 2199,
      "closed": 2200,
      "cook": 2201,
      "emb": 2202,
      "gl": 2203,
      "ter": 2204,
      "##neath": 2205,
      "tricks": 2206,
      "##oline": 2207,
      "underneath": 2208,
      "discuss": 2209,
      "##ages": 2210,
      "lays": 2211,
      "eye": 2212,
      "##oes": 2213,
      "atop": 2214,
      "tramp": 2215,
      "##estrians": 2216,
      "fram": 2217,
      "##light": 2218,
      "##wards": 2219,
      "##ute": 2220,
      "string": 2221,
      "fin": 2222,
      "racket": 2223,
      "teeth": 2224,
      "trampoline": 2225,
      "feat": 2226,
      "must": 2227,
      "##yard": 2228,
      "dancers": 2229,
      "obstac": 2230,
      "paddle": 2231,
      "suspend": 2232,
      "##work": 2233,
      "##icycle": 2234,
      "waterf": 2235,
      "clean": 2236,
      "falling": 2237,
      "decorated": 2238,
      "pulled": 2239,
      "##band": 2240,
      "picnic": 2241,
      "catches": 2242,
      "infl": 2243,
      "individuals": 2244,
      "Lad": 2245,
      "fallen": 2246,
      "mix": 2247,
      "##lers": 2248,
      "##od": 2249,
      "##ular": 2250,
      "##augh": 2251,
      "stuffed": 2252,
      "tile": 2253,
      "comple": 2254,
      "underw": 2255,
      "device": 2256,
      "most": 2257,
      "officers": 2258,
      "drawing": 2259,
      "##bla": 2260,
      "##cas": 2261,
      "##erman": 2262,
      "##nds": 2263,
      "##ouf": 2264,
      "also": 2265,
      "goes": 2266,
      "singer": 2267,
      "cane": 2268,
      "matching": 2269,
      "including": 2270,
      "khaki": 2271,
      "\".": 2272,
      "center": 2273,
      "##ital": 2274,
      "camouf": 2275,
      "##aughter": 2276,
      "dun": 2277,
      "fan": 2278,
      "half": 2279,
      "put": 2280,
      "wide": 2281,
      "##ab": 2282,
      "sax": 2283,
      "balc": 2284,
      "muddy": 2285,
      "mom": 2286,
      "These": 2287,
      "bran": 2288,
      "dances": 2289,
      "profession": 2290,
      "cyclist": 2291,
      "den": 2292,
      "##gy": 2293,
      "##que": 2294,
      "##eds": 2295,
      "##vement": 2296,
      "travel": 2297,
      "plants": 2298,
      "pushes": 2299,
      "wrapped": 2300,
      "festival": 2301,
      "wine": 2302,
      "##nival": 2303,
      "##atting": 2304,
      "lift": 2305,
      "covering": 2306,
      "cau": 2307,
      "##ns": 2308,
      "##road": 2309,
      "##stand": 2310,
      "rob": 2311,
      "sail": 2312,
      "hula": 2313,
      "gest": 2314,
      "low": 2315,
      "##dling": 2316,
      "cold": 2317,
      "##ockey": 2318,
      "crosswalk": 2319,
      "appro": 2320,
      "button": 2321,
      "splashing": 2322,
      "Older": 2323,
      "carri": 2324,
      "curly": 2325,
      "skinned": 2326,
      "Small": 2327,
      "New": 2328,
      "fig": 2329,
      "groom": 2330,
      "##iers": 2331,
      "##back": 2332,
      "jean": 2333,
      "chest": 2334,
      "finger": 2335,
      "camouflage": 2336,
      "##ront": 2337,
      "sto": 2338,
      "blouse": 2339,
      "taken": 2340,
      "carnival": 2341,
      "airpl": 2342,
      "bicyclist": 2343,
      "knit": 2344,
      "tongue": 2345,
      "daughter": 2346,
      "eats": 2347,
      "##opes": 2348,
      "poss": 2349,
      "speaks": 2350,
      "meet": 2351,
      "tunnel": 2352,
      "fre": 2353,
      "##fting": 2354,
      "##ster": 2355,
      "paved": 2356,
      "help": 2357,
      "keyboard": 2358,
      "whil": 2359,
      "guard": 2360,
      "gives": 2361,
      "hooded": 2362,
      "style": 2363,
      "obstacle": 2364,
      "kicks": 2365,
      "tw": 2366,
      "##icem": 2367,
      "picking": 2368,
      "checking": 2369,
      "bandan": 2370,
      "marching": 2371,
      "move": 2372,
      "wheelchair": 2373,
      "curb": 2374,
      "railroad": 2375,
      "##leaders": 2376,
      "denim": 2377,
      "whilst": 2378,
      "lone": 2379,
      "mural": 2380,
      "##ten": 2381,
      "insp": 2382,
      "##ature": 2383,
      "conf": 2384,
      "points": 2385,
      "golden": 2386,
      "supp": 2387,
      "pouring": 2388,
      "stunt": 2389,
      "pian": 2390,
      "wire": 2391,
      "##cue": 2392,
      "step": 2393,
      "##ophone": 2394,
      "robe": 2395,
      "flies": 2396,
      "spot": 2397,
      "boats": 2398,
      "females": 2399,
      "hurdle": 2400,
      "balcony": 2401,
      "nap": 2402,
      "##gon": 2403,
      "##ects": 2404,
      "##ible": 2405,
      "hose": 2406,
      "backyard": 2407,
      "pavement": 2408,
      "opening": 2409,
      "mu": 2410,
      "warm": 2411,
      "##ife": 2412,
      "runners": 2413,
      "tele": 2414,
      "##tiple": 2415,
      "hammer": 2416,
      "entertain": 2417,
      "mop": 2418,
      "nice": 2419,
      "pin": 2420,
      "shap": 2421,
      "beam": 2422,
      "##ctor": 2423,
      "brus": 2424,
      "guitars": 2425,
      "sleeps": 2426,
      "hitting": 2427,
      "airplane": 2428,
      "Sh": 2429,
      "port": 2430,
      "sale": 2431,
      "##ently": 2432,
      "colors": 2433,
      "passes": 2434,
      "Workers": 2435,
      "On": 2436,
      "stool": 2437,
      "bever": 2438,
      "slides": 2439,
      "surface": 2440,
      "rolling": 2441,
      "infant": 2442,
      "pony": 2443,
      "puddle": 2444,
      "##per": 2445,
      "##kers": 2446,
      "adj": 2447,
      "soft": 2448,
      "##place": 2449,
      "war": 2450,
      "##rop": 2451,
      "atte": 2452,
      "overalls": 2453,
      "barbe": 2454,
      "knee": 2455,
      "touching": 2456,
      "presentation": 2457,
      "Lady": 2458,
      "piano": 2459,
      "bou": 2460,
      "mess": 2461,
      "sum": 2462,
      "##inning": 2463,
      "##esting": 2464,
      "##ooks": 2465,
      "carp": 2466,
      "drives": 2467,
      "polo": 2468,
      "laundry": 2469,
      "shooting": 2470,
      "bandanna": 2471,
      "Te": 2472,
      "ext": 2473,
      "pet": 2474,
      "rub": 2475,
      "##haw": 2476,
      "##ina": 2477,
      "##ache": 2478,
      "jumpsuit": 2479,
      "raised": 2480,
      "protective": 2481,
      ".\"": 2482,
      "aw": 2483,
      "esc": 2484,
      "##ring": 2485,
      "##cy": 2486,
      "beg": 2487,
      "seems": 2488,
      "scr": 2489,
      "climber": 2490,
      "##quet": 2491,
      "motorb": 2492,
      "harness": 2493,
      "##uts": 2494,
      "living": 2495,
      "refer": 2496,
      "wrestling": 2497,
      "balancing": 2498,
      "fabr": 2499,
      "motorcycles": 2500,
      "rollersk": 2501,
      "Old": 2502,
      "##ilt": 2503,
      "policem": 2504,
      "##uggage": 2505,
      "landscape": 2506,
      "rollerbla": 2507,
      "luggage": 2508,
      "##ited": 2509,
      "only": 2510,
      "doll": 2511,
      "##lymp": 2512,
      "sewing": 2513,
      "walls": 2514,
      "papers": 2515,
      "##ls": 2516,
      "##erc": 2517,
      "##erial": 2518,
      "##ord": 2519,
      "White": 2520,
      "hear": 2521,
      "##ection": 2522,
      "##its": 2523,
      "##icket": 2524,
      "##akers": 2525,
      "neckl": 2526,
      "local": 2527,
      "##emonstr": 2528,
      "dust": 2529,
      "oriental": 2530,
      "pipe": 2531,
      "##ka": 2532,
      "waters": 2533,
      "poles": 2534,
      "sport": 2535,
      "cast": 2536,
      "oppon": 2537,
      "checkered": 2538,
      "image": 2539,
      "scaffolding": 2540,
      "navy": 2541,
      "sim": 2542,
      "##itor": 2543,
      "##ention": 2544,
      "skis": 2545,
      "flor": 2546,
      "banner": 2547,
      "goods": 2548,
      "shoe": 2549,
      "mod": 2550,
      "pulls": 2551,
      "oppos": 2552,
      "##artment": 2553,
      "puts": 2554,
      "professional": 2555,
      "fans": 2556,
      "tri": 2557,
      "##pt": 2558,
      "##cut": 2559,
      "##jam": 2560,
      "cobble": 2561,
      "pajam": 2562,
      "dancer": 2563,
      "paints": 2564,
      "kiss": 2565,
      "enjoys": 2566,
      "rugby": 2567,
      "referee": 2568,
      "demonstr": 2569,
      "gaz": 2570,
      "##ipping": 2571,
      "##irst": 2572,
      "cond": 2573,
      "tractor": 2574,
      "rece": 2575,
      "slope": 2576,
      "design": 2577,
      "patter": 2578,
      "cone": 2579,
      "##com": 2580,
      "ship": 2581,
      "peace": 2582,
      "belt": 2583,
      "shaving": 2584,
      "embr": 2585,
      "inflat": 2586,
      "fabric": 2587,
      "pig": 2588,
      "reaches": 2589,
      "waterfall": 2590,
      "inflatable": 2591,
      "american": 2592,
      "boun": 2593,
      "without": 2594,
      "exerc": 2595,
      "staircase": 2596,
      "floating": 2597,
      "garbage": 2598,
      "juggling": 2599,
      "cer": 2600,
      "##ucks": 2601,
      "##ither": 2602,
      "##eding": 2603,
      "toss": 2604,
      "bill": 2605,
      "camp": 2606,
      "lies": 2607,
      "teamm": 2608,
      "magaz": 2609,
      "position": 2610,
      "gate": 2611,
      "##yh": 2612,
      "arena": 2613,
      "plane": 2614,
      "##aked": 2615,
      "goalie": 2616,
      "teenagers": 2617,
      "escal": 2618,
      "either": 2619,
      "hay": 2620,
      "##pan": 2621,
      "##apan": 2622,
      "club": 2623,
      "smoke": 2624,
      "conversing": 2625,
      "examining": 2626,
      "floral": 2627,
      "mer": 2628,
      "palm": 2629,
      "##ges": 2630,
      "##dium": 2631,
      "##ory": 2632,
      "chalk": 2633,
      "bending": 2634,
      "guitarist": 2635,
      "plant": 2636,
      "sheet": 2637,
      "opposite": 2638,
      "foc": 2639,
      "rout": 2640,
      "##sel": 2641,
      "driver": 2642,
      "crew": 2643,
      "ears": 2644,
      "grind": 2645,
      "pitcher": 2646,
      "saxophone": 2647,
      "thrown": 2648,
      "podium": 2649,
      "riders": 2650,
      "raft": 2651,
      "moves": 2652,
      "hangs": 2653,
      "shoveling": 2654,
      "funny": 2655,
      "stares": 2656,
      "fresh": 2657,
      "##rack": 2658,
      "redhead": 2659,
      "trump": 2660,
      "themsel": 2661,
      "boxes": 2662,
      "weld": 2663,
      "birds": 2664,
      "serving": 2665,
      "formal": 2666,
      "focus": 2667,
      "themselves": 2668,
      "York": 2669,
      "##ca": 2670,
      "##acher": 2671,
      "stack": 2672,
      "##oney": 2673,
      "##ult": 2674,
      "soldier": 2675,
      "cloudy": 2676,
      "protest": 2677,
      "shaped": 2678,
      "Here": 2679,
      "bent": 2680,
      "shaking": 2681,
      "##anta": 2682,
      "appl": 2683,
      "hiker": 2684,
      "Blond": 2685,
      "mustache": 2686,
      "Br": 2687,
      "broom": 2688,
      "farm": 2689,
      "lunch": 2690,
      "##bow": 2691,
      "##ues": 2692,
      "##eter": 2693,
      "##oustic": 2694,
      "shade": 2695,
      "neon": 2696,
      "flight": 2697,
      "acoustic": 2698,
      "pract": 2699,
      "jerseys": 2700,
      "writ": 2701,
      "animals": 2702,
      "fingers": 2703,
      "pedestrians": 2704,
      "robes": 2705,
      "##yhound": 2706,
      "##inery": 2707,
      "##very": 2708,
      "plan": 2709,
      "firef": 2710,
      "pajamas": 2711,
      "far": 2712,
      "lane": 2713,
      "drummer": 2714,
      "bread": 2715,
      "container": 2716,
      "puppy": 2717,
      "fast": 2718,
      "hers": 2719,
      "porch": 2720,
      "rem": 2721,
      "##tr": 2722,
      "##ret": 2723,
      "##raying": 2724,
      "biking": 2725,
      "towel": 2726,
      "foreign": 2727,
      "surrounding": 2728,
      "machinery": 2729,
      "steep": 2730,
      "caught": 2731,
      "##house": 2732,
      "char": 2733,
      "chop": 2734,
      "bucking": 2735,
      "##elling": 2736,
      "polka": 2737,
      "lots": 2738,
      "##useum": 2739,
      "racet": 2740,
      "print": 2741,
      "underwater": 2742,
      "trip": 2743,
      "use": 2744,
      "##mers": 2745,
      "sne": 2746,
      "liqu": 2747,
      "sheep": 2748,
      "athletic": 2749,
      "##casian": 2750,
      "carpet": 2751,
      "practice": 2752,
      "racetrack": 2753,
      "bin": 2754,
      "puck": 2755,
      "blocks": 2756,
      "##iss": 2757,
      "cones": 2758,
      "##uters": 2759,
      "pieces": 2760,
      "Girls": 2761,
      "##usement": 2762,
      "tube": 2763,
      "suspended": 2764,
      "escalator": 2765,
      "BM": 2766,
      "fill": 2767,
      "money": 2768,
      "power": 2769,
      "##land": 2770,
      "##time": 2771,
      "shown": 2772,
      "thum": 2773,
      "marketplace": 2774,
      "boxing": 2775,
      "pitch": 2776,
      "##ky": 2777,
      "sticking": 2778,
      "hosp": 2779,
      "##tered": 2780,
      "arch": 2781,
      "headband": 2782,
      "heels": 2783,
      "def": 2784,
      "amusement": 2785,
      "observing": 2786,
      "ponytail": 2787,
      "herself": 2788,
      "hospital": 2789,
      "Japan": 2790,
      "cro": 2791,
      "six": 2792,
      "youth": 2793,
      "##bat": 2794,
      "##day": 2795,
      "##boat": 2796,
      "order": 2797,
      "teacher": 2798,
      "socks": 2799,
      "backpacks": 2800,
      "load": 2801,
      "bottles": 2802,
      "##uffy": 2803,
      "member": 2804,
      "float": 2805,
      "motorbike": 2806,
      "##ech": 2807,
      "##front": 2808,
      "##iny": 2809,
      "##ersection": 2810,
      "wagon": 2811,
      "##eather": 2812,
      "maroon": 2813,
      "ribb": 2814,
      "chases": 2815,
      "intersection": 2816,
      "candy": 2817,
      "hallway": 2818,
      "summer": 2819,
      "Olymp": 2820,
      "amp": 2821,
      "del": 2822,
      "let": 2823,
      "narrow": 2824,
      "rel": 2825,
      "tight": 2826,
      "weather": 2827,
      "##res": 2828,
      "##rol": 2829,
      "stri": 2830,
      "backwards": 2831,
      "try": 2832,
      "haircut": 2833,
      "##ations": 2834,
      "##aker": 2835,
      "drive": 2836,
      "paddling": 2837,
      "raising": 2838,
      "tattoos": 2839,
      "happily": 2840,
      "tools": 2841,
      "participating": 2842,
      "softball": 2843,
      "trumpet": 2844,
      "Ar": 2845,
      "At": 2846,
      "first": 2847,
      "##jects": 2848,
      "inv": 2849,
      "##rier": 2850,
      "bass": 2851,
      "tray": 2852,
      "drill": 2853,
      "laughs": 2854,
      "visible": 2855,
      "sprink": 2856,
      "frame": 2857,
      "barbecue": 2858,
      "opponent": 2859,
      "ke": 2860,
      "##ost": 2861,
      "##hill": 2862,
      "things": 2863,
      "skirts": 2864,
      "##astern": 2865,
      "AT": 2866,
      "Santa": 2867,
      "care": 2868,
      "lamp": 2869,
      "##rance": 2870,
      "##ift": 2871,
      "##town": 2872,
      "plaza": 2873,
      "##stone": 2874,
      "firetr": 2875,
      "leaf": 2876,
      "celebrating": 2877,
      "meeting": 2878,
      "German": 2879,
      "Male": 2880,
      "cool": 2881,
      "sup": 2882,
      "vac": 2883,
      "##hou": 2884,
      "spread": 2885,
      "headsc": 2886,
      "benches": 2887,
      "sets": 2888,
      "##ashion": 2889,
      "poster": 2890,
      "##enced": 2891,
      "fold": 2892,
      "map": 2893,
      "mound": 2894,
      "dot": 2895,
      "performers": 2896,
      "tops": 2897,
      "bicyclists": 2898,
      "parach": 2899,
      "speech": 2900,
      "rests": 2901,
      "flowered": 2902,
      "dep": 2903,
      "wild": 2904,
      "orn": 2905,
      "swimmer": 2906,
      "crosses": 2907,
      "leading": 2908,
      "individual": 2909,
      "advertisement": 2910,
      "athlete": 2911,
      "necklace": 2912,
      "sneakers": 2913,
      "mall": 2914,
      "pige": 2915,
      "tug": 2916,
      "##vis": 2917,
      "cho": 2918,
      "##rie": 2919,
      "##ions": 2920,
      "backs": 2921,
      "handstand": 2922,
      "airport": 2923,
      "Seven": 2924,
      "saw": 2925,
      "cheerleaders": 2926,
      "shadow": 2927,
      "beverage": 2928,
      "adjus": 2929,
      "model": 2930,
      "routine": 2931,
      "Brown": 2932,
      "bun": 2933,
      "fashion": 2934,
      "jockey": 2935,
      "museum": 2936,
      "##med": 2937,
      "##dress": 2938,
      "##amb": 2939,
      "downtown": 2940,
      "##rench": 2941,
      "fly": 2942,
      "comm": 2943,
      "##ipes": 2944,
      "computers": 2945,
      "bars": 2946,
      "exh": 2947,
      "sells": 2948,
      "eleph": 2949,
      "squatting": 2950,
      "greyhound": 2951,
      "excited": 2952,
      "carriage": 2953,
      "cyclists": 2954,
      "fenced": 2955,
      "##dog": 2956,
      "tax": 2957,
      "helps": 2958,
      "##aged": 2959,
      "amid": 2960,
      "kneels": 2961,
      "##ibly": 2962,
      "reflective": 2963,
      "BMX": 2964,
      "cal": 2965,
      "chick": 2966,
      "##tery": 2967,
      "##ocking": 2968,
      "##ocross": 2969,
      "teal": 2970,
      "##uba": 2971,
      "stripes": 2972,
      "catcher": 2973,
      "barrel": 2974,
      "hikers": 2975,
      "patio": 2976,
      "grilling": 2977,
      "teenager": 2978,
      "customers": 2979,
      "firetruck": 2980,
      "Pol": 2981,
      "frisbee": 2982,
      "gas": 2983,
      "rink": 2984,
      "blow": 2985,
      "##rain": 2986,
      "thin": 2987,
      "buying": 2988,
      "##athers": 2989,
      "baskets": 2990,
      "caps": 2991,
      "transport": 2992,
      "figure": 2993,
      "##hawk": 2994,
      "cobblestone": 2995,
      "Che": 2996,
      "ble": 2997,
      "main": 2998,
      "mini": 2999,
      "pun": 3000,
      "tar": 3001,
      "##ex": 3002,
      "##suit": 3003,
      "##wel": 3004,
      "##cess": 3005,
      "##aced": 3006,
      "tag": 3007,
      "##cted": 3008,
      "chee": 3009,
      "dish": 3010,
      "##ivers": 3011,
      "##tyard": 3012,
      "courtyard": 3013,
      "electron": 3014,
      "operating": 3015,
      "retrie": 3016,
      "Mus": 3017,
      "aut": 3018,
      "action": 3019,
      "ahead": 3020,
      "##pher": 3021,
      "##laying": 3022,
      "##ister": 3023,
      "been": 3024,
      "bul": 3025,
      "##ighters": 3026,
      "pret": 3027,
      "boardwalk": 3028,
      "mostly": 3029,
      "branch": 3030,
      "brushing": 3031,
      "welding": 3032,
      "##ished": 3033,
      "sword": 3034,
      "##ured": 3035,
      "prete": 3036,
      "hang": 3037,
      "evening": 3038,
      "snowboarding": 3039,
      "patient": 3040,
      "silhou": 3041,
      "##thnic": 3042,
      "possibly": 3043,
      "Japanese": 3044,
      "Female": 3045,
      "Sk": 3046,
      "dim": 3047,
      "dread": 3048,
      "tu": 3049,
      "you": 3050,
      "##min": 3051,
      "##erby": 3052,
      "##orm": 3053,
      "forward": 3054,
      "airbor": 3055,
      "rec": 3056,
      "cab": 3057,
      "balance": 3058,
      "african": 3059,
      "##izza": 3060,
      "homeless": 3061,
      "Stre": 3062,
      "cheering": 3063,
      "donkey": 3064,
      "##ption": 3065,
      "redheaded": 3066,
      "airborne": 3067,
      "biting": 3068,
      "free": 3069,
      "##ior": 3070,
      "bell": 3071,
      "##ilar": 3072,
      "##ility": 3073,
      "gravel": 3074,
      "##ighter": 3075,
      "student": 3076,
      "##born": 3077,
      "garage": 3078,
      "clad": 3079,
      "indoors": 3080,
      "repairing": 3081,
      "Street": 3082,
      "Crowd": 3083,
      "pump": 3084,
      "##hood": 3085,
      "blows": 3086,
      "##ried": 3087,
      "scuba": 3088,
      "attention": 3089,
      "fisher": 3090,
      "apple": 3091,
      "grand": 3092,
      "drag": 3093,
      "college": 3094,
      "policeman": 3095,
      "similar": 3096,
      "It": 3097,
      "Large": 3098,
      "folding": 3099,
      "pop": 3100,
      "pay": 3101,
      "sy": 3102,
      "tied": 3103,
      "vil": 3104,
      "##ef": 3105,
      "##int": 3106,
      "blur": 3107,
      "neigh": 3108,
      "space": 3109,
      "brush": 3110,
      "##chest": 3111,
      "newborn": 3112,
      "corn": 3113,
      "cree": 3114,
      "gown": 3115,
      "song": 3116,
      "##fa": 3117,
      "carving": 3118,
      "carry": 3119,
      "cons": 3120,
      "smaller": 3121,
      "tee": 3122,
      "jewel": 3123,
      "crossed": 3124,
      "motorcyclist": 3125,
      "strange": 3126,
      "compete": 3127,
      "##loy": 3128,
      "bikers": 3129,
      "smokes": 3130,
      "hits": 3131,
      "gentlemen": 3132,
      "racer": 3133,
      "fen": 3134,
      "id": 3135,
      "job": 3136,
      "rowing": 3137,
      "sized": 3138,
      "##eled": 3139,
      "##aling": 3140,
      "##isting": 3141,
      "backd": 3142,
      "libr": 3143,
      "motocross": 3144,
      "objects": 3145,
      "balding": 3146,
      "material": 3147,
      "displaying": 3148,
      "sporting": 3149,
      "sleeveless": 3150,
      "follow": 3151,
      "##chestra": 3152,
      "20": 3153,
      "dump": 3154,
      "##gan": 3155,
      "item": 3156,
      "crane": 3157,
      "intently": 3158,
      "soldiers": 3159,
      "liquid": 3160,
      "neighbor": 3161,
      "##pers": 3162,
      "skates": 3163,
      "spinning": 3164,
      "lifting": 3165,
      "skateboards": 3166,
      "sofa": 3167,
      "rainbow": 3168,
      "hotdog": 3169,
      "raises": 3170,
      "amongst": 3171,
      "##engers": 3172,
      "magazine": 3173,
      "ethnic": 3174,
      "fle": 3175,
      "##go": 3176,
      "##eb": 3177,
      "##ident": 3178,
      "buy": 3179,
      "outst": 3180,
      "orchestra": 3181,
      "seem": 3182,
      "colla": 3183,
      "microphones": 3184,
      "barber": 3185,
      "knees": 3186,
      "studio": 3187,
      "wea": 3188,
      "express": 3189,
      "bathroom": 3190,
      "stove": 3191,
      "Fire": 3192,
      "if": 3193,
      "lines": 3194,
      "rough": 3195,
      "tents": 3196,
      "##und": 3197,
      "start": 3198,
      "sharing": 3199,
      "##irth": 3200,
      "##box": 3201,
      "##rents": 3202,
      "social": 3203,
      "bushes": 3204,
      "single": 3205,
      "compan": 3206,
      "speed": 3207,
      "turned": 3208,
      "cricket": 3209,
      "entrance": 3210,
      "ceiling": 3211,
      "closeup": 3212,
      "splashes": 3213,
      "crouches": 3214,
      "pillow": 3215,
      "library": 3216,
      "neighborhood": 3217,
      "##ze": 3218,
      "##urity": 3219,
      "spar": 3220,
      "adm": 3221,
      "photos": 3222,
      "ballet": 3223,
      "vehicles": 3224,
      "fruits": 3225,
      "control": 3226,
      "knife": 3227,
      "tackle": 3228,
      "second": 3229,
      "cardboard": 3230,
      "patterned": 3231,
      "choir": 3232,
      "exhib": 3233,
      "Soc": 3234,
      "naked": 3235,
      "range": 3236,
      "sal": 3237,
      "sink": 3238,
      "sol": 3239,
      "##me": 3240,
      "##erence": 3241,
      "##oping": 3242,
      "##boarder": 3243,
      "attempt": 3244,
      "stops": 3245,
      "formation": 3246,
      "multiple": 3247,
      "guns": 3248,
      "medical": 3249,
      "heart": 3250,
      "super": 3251,
      "headscarf": 3252,
      "cards": 3253,
      "lan": 3254,
      "ropes": 3255,
      "##ots": 3256,
      "share": 3257,
      "bean": 3258,
      "watched": 3259,
      "bund": 3260,
      "trim": 3261,
      "handing": 3262,
      "##ycling": 3263,
      "waist": 3264,
      "dishes": 3265,
      "##ively": 3266,
      "wheels": 3267,
      "buckets": 3268,
      "rubber": 3269,
      "castle": 3270,
      "##irthday": 3271,
      "Soccer": 3272,
      "Un": 3273,
      "us": 3274,
      "##gers": 3275,
      "##ced": 3276,
      "##iddle": 3277,
      "##umn": 3278,
      "uniformed": 3279,
      "army": 3280,
      "storefront": 3281,
      "stopped": 3282,
      "cups": 3283,
      "stretching": 3284,
      "muzz": 3285,
      "backdrop": 3286,
      "mis": 3287,
      "nail": 3288,
      "native": 3289,
      "##ged": 3290,
      "##ws": 3291,
      "##cial": 3292,
      "##view": 3293,
      "shoot": 3294,
      "doors": 3295,
      "##urf": 3296,
      "coach": 3297,
      "##emony": 3298,
      "flops": 3299,
      "surg": 3300,
      "plates": 3301,
      "sandw": 3302,
      "conference": 3303,
      "ceremony": 3304,
      "taxi": 3305,
      "transportation": 3306,
      "##pherd": 3307,
      "City": 3308,
      "dining": 3309,
      "el": 3310,
      "fac": 3311,
      "nur": 3312,
      "##bag": 3313,
      "##tub": 3314,
      "organ": 3315,
      "slight": 3316,
      "feeding": 3317,
      "push": 3318,
      "##aved": 3319,
      "leaving": 3320,
      "bank": 3321,
      "photographs": 3322,
      "furn": 3323,
      "bouquet": 3324,
      "billboard": 3325,
      "##retched": 3326,
      "elephant": 3327,
      "She": 3328,
      "birthday": 3329,
      "emer": 3330,
      "jo": 3331,
      "##locks": 3332,
      "##uro": 3333,
      "##ked": 3334,
      "##ded": 3335,
      "unicycle": 3336,
      "called": 3337,
      "creek": 3338,
      "outstretched": 3339,
      "cuts": 3340,
      "sad": 3341,
      "sides": 3342,
      "##ass": 3343,
      "##ually": 3344,
      "##ma": 3345,
      "##cent": 3346,
      "##ict": 3347,
      "##ads": 3348,
      "reg": 3349,
      "suitcase": 3350,
      "##gged": 3351,
      "employ": 3352,
      "Boys": 3353,
      "terrain": 3354,
      "invol": 3355,
      "pigeons": 3356,
      "electronic": 3357,
      "village": 3358,
      "jewelry": 3359,
      "Be": 3360,
      "lear": 3361,
      "pen": 3362,
      "wings": 3363,
      "##cture": 3364,
      "skater": 3365,
      "##usk": 3366,
      "wake": 3367,
      "beneath": 3368,
      "purch": 3369,
      "bagp": 3370,
      "married": 3371,
      "falls": 3372,
      "breakd": 3373,
      "directions": 3374,
      "security": 3375,
      "dune": 3376,
      "chicken": 3377,
      "dreadlocks": 3378,
      "aqu": 3379,
      "hum": 3380,
      "wading": 3381,
      "##zen": 3382,
      "##enger": 3383,
      "##orting": 3384,
      "##ames": 3385,
      "##achers": 3386,
      "##aps": 3387,
      "baller": 3388,
      "checks": 3389,
      "horseback": 3390,
      "mob": 3391,
      "training": 3392,
      "sod": 3393,
      "apartment": 3394,
      "balances": 3395,
      "engine": 3396,
      "thumbs": 3397,
      "ribbon": 3398,
      "Sc": 3399,
      "Tour": 3400,
      "gall": 3401,
      "gathers": 3402,
      "jet": 3403,
      "own": 3404,
      "pizza": 3405,
      "rural": 3406,
      "##ai": 3407,
      "##lish": 3408,
      "##tes": 3409,
      "##ica": 3410,
      "reach": 3411,
      "shops": 3412,
      "##izon": 3413,
      "loom": 3414,
      "butter": 3415,
      "##letes": 3416,
      "photographed": 3417,
      "gymnas": 3418,
      "chains": 3419,
      "discussion": 3420,
      "telephone": 3421,
      "extend": 3422,
      "pretty": 3423,
      "collared": 3424,
      "Ad": 3425,
      "ax": 3426,
      "name": 3427,
      "press": 3428,
      "##des": 3429,
      "##ino": 3430,
      "##iring": 3431,
      "upon": 3432,
      "spoon": 3433,
      "hillside": 3434,
      "artwork": 3435,
      "##actory": 3436,
      "##ungle": 3437,
      "exercise": 3438,
      "deli": 3439,
      "dimly": 3440,
      "breakdan": 3441,
      "Cau": 3442,
      "calm": 3443,
      "derby": 3444,
      "huddle": 3445,
      "##mat": 3446,
      "##can": 3447,
      "##ense": 3448,
      "attr": 3449,
      "passengers": 3450,
      "wheeled": 3451,
      "converse": 3452,
      "shovels": 3453,
      "casual": 3454,
      "##estrian": 3455,
      "straight": 3456,
      "traveling": 3457,
      "attending": 3458,
      "fisherman": 3459,
      "Co": 3460,
      "cong": 3461,
      "case": 3462,
      "every": 3463,
      "jungle": 3464,
      "kite": 3465,
      "##uum": 3466,
      "still": 3467,
      "##igious": 3468,
      "##ubs": 3469,
      "parti": 3470,
      "barrier": 3471,
      "trailer": 3472,
      "observe": 3473,
      "fancy": 3474,
      "petting": 3475,
      "awa": 3476,
      "vacuum": 3477,
      "Caucasian": 3478,
      "imp": 3479,
      "joy": 3480,
      "wig": 3481,
      "##ecting": 3482,
      "##iving": 3483,
      "##yl": 3484,
      "##iture": 3485,
      "stir": 3486,
      "doctor": 3487,
      "carts": 3488,
      "snack": 3489,
      "paras": 3490,
      "turning": 3491,
      "crafts": 3492,
      "steel": 3493,
      "pottery": 3494,
      "drawn": 3495,
      "leads": 3496,
      "furry": 3497,
      "applying": 3498,
      "tux": 3499,
      "partially": 3500,
      "Pro": 3501,
      "Red": 3502,
      "bad": 3503,
      "calf": 3504,
      "fo": 3505,
      "more": 3506,
      "##vi": 3507,
      "##ians": 3508,
      "tech": 3509,
      "teaching": 3510,
      "seats": 3511,
      "cleans": 3512,
      "kayaking": 3513,
      "clouds": 3514,
      "discussing": 3515,
      "slightly": 3516,
      "Mar": 3517,
      "dusk": 3518,
      "had": 3519,
      "##ments": 3520,
      "shaved": 3521,
      "fluffy": 3522,
      "handle": 3523,
      "camping": 3524,
      "##illy": 3525,
      "tattooed": 3526,
      "craft": 3527,
      "wrestle": 3528,
      "broken": 3529,
      "teammate": 3530,
      "Police": 3531,
      "furniture": 3532,
      "mobile": 3533,
      "Mul": 3534,
      "clay": 3535,
      "fet": 3536,
      "hou": 3537,
      "##nam": 3538,
      "##pical": 3539,
      "##ters": 3540,
      "##ream": 3541,
      "##ald": 3542,
      "##ider": 3543,
      "##chan": 3544,
      "##ilts": 3545,
      "##entr": 3546,
      "tricycle": 3547,
      "overhead": 3548,
      "parents": 3549,
      "horizon": 3550,
      "chess": 3551,
      "numbers": 3552,
      "rainy": 3553,
      "contest": 3554,
      "clapping": 3555,
      "crouching": 3556,
      "engaged": 3557,
      "customer": 3558,
      "activ": 3559,
      "religious": 3560,
      "bleachers": 3561,
      "soda": 3562,
      "fol": 3563,
      "factory": 3564,
      "iron": 3565,
      "races": 3566,
      "##where": 3567,
      "##ately": 3568,
      "flat": 3569,
      "flipping": 3570,
      "leot": 3571,
      "snowsh": 3572,
      "live": 3573,
      "tower": 3574,
      "banan": 3575,
      "advertising": 3576,
      "protesting": 3577,
      "great": 3578,
      "mixing": 3579,
      "merch": 3580,
      "Foot": 3581,
      "brow": 3582,
      "loung": 3583,
      "pine": 3584,
      "yog": 3585,
      "##iety": 3586,
      "##py": 3587,
      "##itors": 3588,
      "though": 3589,
      "clut": 3590,
      "section": 3591,
      "##ways": 3592,
      "slacks": 3593,
      "##izing": 3594,
      "trunk": 3595,
      "##bbing": 3596,
      "candles": 3597,
      "assem": 3598,
      "finish": 3599,
      "##vision": 3600,
      "cheek": 3601,
      "sandwich": 3602,
      "gymnasium": 3603,
      "US": 3604,
      "cooks": 3605,
      "eastern": 3606,
      "fat": 3607,
      "lar": 3608,
      "rap": 3609,
      "##zer": 3610,
      "##ount": 3611,
      "downhill": 3612,
      "tail": 3613,
      "bricks": 3614,
      "##olate": 3615,
      "placing": 3616,
      "dec": 3617,
      "coloring": 3618,
      "batter": 3619,
      "##brush": 3620,
      "loading": 3621,
      "quick": 3622,
      "follows": 3623,
      "paddles": 3624,
      "inspecting": 3625,
      "grinding": 3626,
      "filling": 3627,
      "fencing": 3628,
      "Football": 3629,
      "games": 3630,
      "pee": 3631,
      "rows": 3632,
      "##ake": 3633,
      "##wood": 3634,
      "instru": 3635,
      "##orn": 3636,
      "chinese": 3637,
      "bends": 3638,
      "hoops": 3639,
      "covers": 3640,
      "score": 3641,
      "creating": 3642,
      "splash": 3643,
      "examines": 3644,
      "tourist": 3645,
      "tourists": 3646,
      "following": 3647,
      "gymnastics": 3648,
      "starting": 3649,
      "##tails": 3650,
      "written": 3651,
      "ornate": 3652,
      "bulld": 3653,
      "attract": 3654,
      "yoga": 3655,
      "Middle": 3656,
      "call": 3657,
      "dro": 3658,
      "hom": 3659,
      "ju": 3660,
      "sem": 3661,
      "##ees": 3662,
      "##my": 3663,
      "##mel": 3664,
      "stall": 3665,
      "##ishing": 3666,
      "tape": 3667,
      "flute": 3668,
      "spraying": 3669,
      "cameras": 3670,
      "patch": 3671,
      "grad": 3672,
      "listen": 3673,
      "glove": 3674,
      "athletes": 3675,
      "reflection": 3676,
      "branches": 3677,
      "ATV": 3678,
      "folded": 3679,
      "##ives": 3680,
      "##oth": 3681,
      "##arket": 3682,
      "lean": 3683,
      "mass": 3684,
      "labor": 3685,
      "elev": 3686,
      "amidst": 3687,
      "ident": 3688,
      "weaving": 3689,
      "tuxed": 3690,
      "Multiple": 3691,
      "Can": 3692,
      "He": 3693,
      "Run": 3694,
      "aim": 3695,
      "crown": 3696,
      "cage": 3697,
      "dead": 3698,
      "duck": 3699,
      "kilt": 3700,
      "rear": 3701,
      "ven": 3702,
      "##barrow": 3703,
      "##kin": 3704,
      "##acting": 3705,
      "##ices": 3706,
      "watersk": 3707,
      "world": 3708,
      "come": 3709,
      "brief": 3710,
      "forehead": 3711,
      "cello": 3712,
      "wheelbarrow": 3713,
      "point": 3714,
      "variety": 3715,
      "laptops": 3716,
      "closely": 3717,
      "moment": 3718,
      "support": 3719,
      "binoc": 3720,
      "Cou": 3721,
      "Num": 3722,
      "age": 3723,
      "dive": 3724,
      "nature": 3725,
      "ow": 3726,
      "odd": 3727,
      "pins": 3728,
      "##iet": 3729,
      "##lies": 3730,
      "##wor": 3731,
      "inform": 3732,
      "##reg": 3733,
      "##arn": 3734,
      "##arves": 3735,
      "shr": 3736,
      "##ically": 3737,
      "ange": 3738,
      "coaster": 3739,
      "tea": 3740,
      "##ondon": 3741,
      "fireman": 3742,
      "listens": 3743,
      "noteb": 3744,
      "tires": 3745,
      "fake": 3746,
      "tropical": 3747,
      "gestures": 3748,
      "sprinkler": 3749,
      "commun": 3750,
      "belly": 3751,
      "##urope": 3752,
      "larger": 3753,
      "gradu": 3754,
      "craw": 3755,
      "dy": 3756,
      "sla": 3757,
      "theater": 3758,
      "whom": 3759,
      "chase": 3760,
      "##bles": 3761,
      "headed": 3762,
      "recor": 3763,
      "##ills": 3764,
      "swimmers": 3765,
      "ages": 3766,
      "shel": 3767,
      "mov": 3768,
      "opens": 3769,
      "nighttime": 3770,
      "wheelie": 3771,
      "mechan": 3772,
      "##weight": 3773,
      "viewing": 3774,
      "scenic": 3775,
      "practices": 3776,
      "circular": 3777,
      "##coat": 3778,
      "groceries": 3779,
      "crouched": 3780,
      "pours": 3781,
      "trashcan": 3782,
      "Couple": 3783,
      "ais": 3784,
      "ber": 3785,
      "done": 3786,
      "fit": 3787,
      "stom": 3788,
      "##ising": 3789,
      "poor": 3790,
      "sniff": 3791,
      "pale": 3792,
      "cameram": 3793,
      "placed": 3794,
      "couples": 3795,
      "moder": 3796,
      "canv": 3797,
      "scenery": 3798,
      "hotel": 3799,
      "cray": 3800,
      "observes": 3801,
      "exper": 3802,
      "turns": 3803,
      "casually": 3804,
      "participate": 3805,
      "television": 3806,
      "messy": 3807,
      "silhouette": 3808,
      "beanie": 3809,
      "houses": 3810,
      "venue": 3811,
      "bit": 3812,
      "eg": 3813,
      "hun": 3814,
      "link": 3815,
      "rally": 3816,
      "##ipp": 3817,
      "##ther": 3818,
      "##erous": 3819,
      "whis": 3820,
      "played": 3821,
      "grabbing": 3822,
      "word": 3823,
      "jumped": 3824,
      "arc": 3825,
      "chewing": 3826,
      "speak": 3827,
      "firemen": 3828,
      "desce": 3829,
      "pathway": 3830,
      "peers": 3831,
      "notes": 3832,
      "saying": 3833,
      "hugs": 3834,
      "puppies": 3835,
      "portra": 3836,
      "attend": 3837,
      "tossing": 3838,
      "firefighters": 3839,
      "carefully": 3840,
      "parachute": 3841,
      "juice": 3842,
      "London": 3843,
      "Mc": 3844,
      "Sn": 3845,
      "bron": 3846,
      "fog": 3847,
      "lighting": 3848,
      "sep": 3849,
      "##lled": 3850,
      "mane": 3851,
      "##outs": 3852,
      "##ounge": 3853,
      "ang": 3854,
      "chatting": 3855,
      "rolled": 3856,
      "##ctors": 3857,
      "##ulars": 3858,
      "wares": 3859,
      "lifts": 3860,
      "surfs": 3861,
      "strugg": 3862,
      "masks": 3863,
      "displays": 3864,
      "shoreline": 3865,
      "Stud": 3866,
      "approaching": 3867,
      "moped": 3868,
      "rollerskating": 3869,
      "##panic": 3870,
      "chalkboard": 3871,
      "remo": 3872,
      "butterf": 3873,
      "binoculars": 3874,
      "aisle": 3875,
      "cop": 3876,
      "dough": 3877,
      "hind": 3878,
      "tiny": 3879,
      "ump": 3880,
      "yarn": 3881,
      "##lit": 3882,
      "##pes": 3883,
      "##most": 3884,
      "##hol": 3885,
      "##vil": 3886,
      "##ities": 3887,
      "stones": 3888,
      "##oring": 3889,
      "##ument": 3890,
      "groups": 3891,
      "alco": 3892,
      "motion": 3893,
      "##agull": 3894,
      "presents": 3895,
      "cras": 3896,
      "bowls": 3897,
      "touches": 3898,
      "skinny": 3899,
      "tiled": 3900,
      "supplies": 3901,
      "rollerblading": 3902,
      "pigtails": 3903,
      "adjusting": 3904,
      "missing": 3905,
      "snowshoes": 3906,
      "Eight": 3907,
      "Elderly": 3908,
      "Ped": 3909,
      "bite": 3910,
      "oven": 3911,
      "rack": 3912,
      "rust": 3913,
      "##arious": 3914,
      "##across": 3915,
      "stump": 3916,
      "##orts": 3917,
      "##rail": 3918,
      "watermel": 3919,
      "##inder": 3920,
      "arr": 3921,
      "sunlight": 3922,
      "headdress": 3923,
      "sleep": 3924,
      "envi": 3925,
      "passenger": 3926,
      "##ronment": 3927,
      "newly": 3928,
      "turban": 3929,
      "kisses": 3930,
      "vendors": 3931,
      "alleyway": 3932,
      "sweeps": 3933,
      "shades": 3934,
      "shadows": 3935,
      "touch": 3936,
      "logo": 3937,
      "celebration": 3938,
      "printed": 3939,
      "teammates": 3940,
      "firefighter": 3941,
      "defend": 3942,
      "Cheer": 3943,
      "201": 3944,
      "exhibit": 3945,
      "canvas": 3946,
      "umpire": 3947,
      "environment": 3948,
      "Amer": 3949,
      "oc": 3950,
      "pir": 3951,
      "silly": 3952,
      "##fire": 3953,
      "##ara": 3954,
      "##arp": 3955,
      "chin": 3956,
      "pock": 3957,
      "almost": 3958,
      "##nequ": 3959,
      "march": 3960,
      "descent": 3961,
      "##dding": 3962,
      "flips": 3963,
      "##atory": 3964,
      "examine": 3965,
      "##obile": 3966,
      "feather": 3967,
      "spotted": 3968,
      "Music": 3969,
      "learning": 3970,
      "congreg": 3971,
      "modern": 3972,
      "eggs": 3973,
      "Snow": 3974,
      "##acrosse": 3975,
      "Le": 3976,
      "av": 3977,
      "hut": 3978,
      "sat": 3979,
      "val": 3980,
      "##hift": 3981,
      "##inet": 3982,
      "##rew": 3983,
      "story": 3984,
      "within": 3985,
      "shield": 3986,
      "frozen": 3987,
      "overweight": 3988,
      "lecture": 3989,
      "##used": 3990,
      "seagull": 3991,
      "##ution": 3992,
      "brace": 3993,
      "recl": 3994,
      "horn": 3995,
      "stripe": 3996,
      "winds": 3997,
      "expl": 3998,
      "shower": 3999,
      "rif": 4000,
      "machines": 4001,
      "pads": 4002,
      "landing": 4003,
      "makeshift": 4004,
      "racers": 4005,
      "products": 4006,
      "While": 4007,
      "rollerskates": 4008,
      "embrace": 4009,
      "embracing": 4010,
      "tripod": 4011,
      "expression": 4012,
      "chainsaw": 4013,
      "rapids": 4014,
      "quickly": 4015,
      "bulldo": 4016,
      "movie": 4017,
      "stomach": 4018,
      "arcade": 4019,
      "Ba": 4020,
      "Europe": 4021,
      "Mo": 4022,
      "cot": 4023,
      "lounge": 4024,
      "may": 4025,
      "pri": 4026,
      "torch": 4027,
      "##oise": 4028,
      "##arter": 4029,
      "##ata": 4030,
      "mannequ": 4031,
      "##oned": 4032,
      "##opter": 4033,
      "##icopter": 4034,
      "##imes": 4035,
      "words": 4036,
      "handrail": 4037,
      "##ocolate": 4038,
      "##iger": 4039,
      "seven": 4040,
      "camel": 4041,
      "scale": 4042,
      "lass": 4043,
      "comes": 4044,
      "midst": 4045,
      "musc": 4046,
      "##ustri": 4047,
      "hills": 4048,
      "rolls": 4049,
      "lock": 4050,
      "crates": 4051,
      "serve": 4052,
      "shakes": 4053,
      "medium": 4054,
      "lanter": 4055,
      "Students": 4056,
      "butterfly": 4057,
      "alcohol": 4058,
      "Baby": 4059,
      "Base": 4060,
      "DJ": 4061,
      "dou": 4062,
      "ela": 4063,
      "hook": 4064,
      "tom": 4065,
      "tas": 4066,
      "tut": 4067,
      "tooth": 4068,
      "trench": 4069,
      "vict": 4070,
      "wand": 4071,
      "##con": 4072,
      "##den": 4073,
      "##ato": 4074,
      "##ided": 4075,
      "##ades": 4076,
      "##sticks": 4077,
      "##unk": 4078,
      "##umin": 4079,
      "comfor": 4080,
      "acc": 4081,
      "soap": 4082,
      "curtain": 4083,
      "##appy": 4084,
      "##clos": 4085,
      "industri": 4086,
      "interacting": 4087,
      "suspenders": 4088,
      "twirl": 4089,
      "Shirt": 4090,
      "Olympics": 4091,
      "keep": 4092,
      "fashioned": 4093,
      "wakeboard": 4094,
      "bagpipes": 4095,
      "ballerina": 4096,
      "gallery": 4097,
      "notebook": 4098,
      "Pedestrians": 4099,
      "Baseball": 4100,
      "industrial": 4101,
      "bamb": 4102,
      "ge": 4103,
      "ill": 4104,
      "lower": 4105,
      "##ose": 4106,
      "##Don": 4107,
      "shaw": 4108,
      "chocolate": 4109,
      "buff": 4110,
      "built": 4111,
      "mail": 4112,
      "camels": 4113,
      "perched": 4114,
      "##ney": 4115,
      "acro": 4116,
      "accom": 4117,
      "##quoise": 4118,
      "debr": 4119,
      "wheeler": 4120,
      "toddlers": 4121,
      "gift": 4122,
      "squirt": 4123,
      "rooft": 4124,
      "blankets": 4125,
      "##ency": 4126,
      "Teen": 4127,
      "scrubs": 4128,
      "conduct": 4129,
      "Brit": 4130,
      "admiring": 4131,
      "leotard": 4132,
      "owner": 4133,
      "McDon": 4134,
      "valley": 4135,
      "elabor": 4136,
      "bamboo": 4137,
      "debris": 4138,
      "Various": 4139,
      "lip": 4140,
      "licking": 4141,
      "lacrosse": 4142,
      "nun": 4143,
      "pood": 4144,
      "rice": 4145,
      "tights": 4146,
      "##ng": 4147,
      "##gency": 4148,
      "##lley": 4149,
      "##pris": 4150,
      "##ole": 4151,
      "##tor": 4152,
      "##hop": 4153,
      "##coun": 4154,
      "##aters": 4155,
      "blood": 4156,
      "flan": 4157,
      "text": 4158,
      "##ational": 4159,
      "enclos": 4160,
      "mouths": 4161,
      "dives": 4162,
      "turquoise": 4163,
      "hike": 4164,
      "concentr": 4165,
      "skiers": 4166,
      "decorative": 4167,
      "##ific": 4168,
      "##anges": 4169,
      "underwear": 4170,
      "knitting": 4171,
      "wires": 4172,
      "begins": 4173,
      "dusty": 4174,
      "bouncing": 4175,
      "semi": 4176,
      "bound": 4177,
      "##net": 4178,
      "##girl": 4179,
      "##lines": 4180,
      "##bur": 4181,
      "##fl": 4182,
      "##inis": 4183,
      "##rent": 4184,
      "playfully": 4185,
      "boards": 4186,
      "spark": 4187,
      "colum": 4188,
      "##ooters": 4189,
      "helicopter": 4190,
      "appare": 4191,
      "stairway": 4192,
      "boxer": 4193,
      "cru": 4194,
      "indian": 4195,
      "aprons": 4196,
      "contra": 4197,
      "cute": 4198,
      "brass": 4199,
      "scaffold": 4200,
      "swimsuits": 4201,
      "##ably": 4202,
      "sailboat": 4203,
      "rollerblades": 4204,
      "##coming": 4205,
      "Tourists": 4206,
      "cameraman": 4207,
      "Cheerleaders": 4208,
      "bulldozer": 4209,
      "rooftop": 4210,
      "cash": 4211,
      "got": 4212,
      "give": 4213,
      "hy": 4214,
      "praying": 4215,
      "wash": 4216,
      "##ikes": 4217,
      "##bies": 4218,
      "##ham": 4219,
      "##ders": 4220,
      "##atoes": 4221,
      "##attered": 4222,
      "##andise": 4223,
      "chat": 4224,
      "beads": 4225,
      "##amed": 4226,
      "##ults": 4227,
      "tex": 4228,
      "scooters": 4229,
      "unus": 4230,
      "surpris": 4231,
      "capture": 4232,
      "diver": 4233,
      "newspapers": 4234,
      "wrestler": 4235,
      "located": 4236,
      "monkey": 4237,
      "trolley": 4238,
      "bathtub": 4239,
      "stretches": 4240,
      "tackled": 4241,
      "approaches": 4242,
      "pinata": 4243,
      "demonstration": 4244,
      "writes": 4245,
      "Olympic": 4246,
      "target": 4247,
      "human": 4248,
      "merchandise": 4249,
      "lounging": 4250,
      "angel": 4251,
      "Mohawk": 4252,
      "contraption": 4253,
      "Band": 4254,
      "Kid": 4255,
      "Mex": 4256,
      "Ph": 4257,
      "cher": 4258,
      "cans": 4259,
      "fed": 4260,
      "mower": 4261,
      "sack": 4262,
      "ut": 4263,
      "were": 4264,
      "wife": 4265,
      "##bal": 4266,
      "##mo": 4267,
      "##val": 4268,
      "##itive": 4269,
      "shag": 4270,
      "sharp": 4271,
      "sele": 4272,
      "heav": 4273,
      "mountainside": 4274,
      "motorized": 4275,
      "cape": 4276,
      "disc": 4277,
      "highway": 4278,
      "highchair": 4279,
      "##ize": 4280,
      "resp": 4281,
      "milk": 4282,
      "interview": 4283,
      "monument": 4284,
      "packed": 4285,
      "gesture": 4286,
      "brushes": 4287,
      "company": 4288,
      "surgery": 4289,
      "portrait": 4290,
      "SU": 4291,
      "late": 4292,
      "mug": 4293,
      "will": 4294,
      "yo": 4295,
      "##een": 4296,
      "##ios": 4297,
      "##inger": 4298,
      "stilts": 4299,
      "##ersby": 4300,
      "chis": 4301,
      "cargo": 4302,
      "legged": 4303,
      "constru": 4304,
      "scream": 4305,
      "##ared": 4306,
      "sledding": 4307,
      "mohawk": 4308,
      "fishes": 4309,
      "battle": 4310,
      "masc": 4311,
      "interesting": 4312,
      "jogs": 4313,
      "burg": 4314,
      "assist": 4315,
      "strapped": 4316,
      "lifted": 4317,
      "entertaining": 4318,
      "demonstrating": 4319,
      "gazes": 4320,
      "loaded": 4321,
      "pretending": 4322,
      "Skate": 4323,
      "followed": 4324,
      "Canad": 4325,
      "briefcase": 4326,
      "accompan": 4327,
      "shaggy": 4328,
      "heavily": 4329,
      "Mot": 4330,
      "Sw": 4331,
      "Squ": 4332,
      "To": 4333,
      "cycling": 4334,
      "find": 4335,
      "jud": 4336,
      "pil": 4337,
      "sym": 4338,
      "tiger": 4339,
      "va": 4340,
      "##ah": 4341,
      "##uzz": 4342,
      "##ank": 4343,
      "##itiz": 4344,
      "##romat": 4345,
      "##enting": 4346,
      "blaz": 4347,
      "shining": 4348,
      "shiny": 4349,
      "champ": 4350,
      "##ott": 4351,
      "##right": 4352,
      "##emade": 4353,
      "snowsuit": 4354,
      "##uses": 4355,
      "ador": 4356,
      "places": 4357,
      "turtle": 4358,
      "curve": 4359,
      "teens": 4360,
      "film": 4361,
      "##cloth": 4362,
      "enth": 4363,
      "displayed": 4364,
      "workshop": 4365,
      "belong": 4366,
      "##bank": 4367,
      "posters": 4368,
      "quarter": 4369,
      "pedestrian": 4370,
      "##ifier": 4371,
      "Dogs": 4372,
      "figures": 4373,
      "pumpkin": 4374,
      "##undy": 4375,
      "breakdancing": 4376,
      "homemade": 4377,
      "information": 4378,
      "2012": 4379,
      "lasso": 4380,
      "acrobat": 4381,
      "burgundy": 4382,
      "Am": 4383,
      "Col": 4384,
      "Haw": 4385,
      "dad": 4386,
      "hiding": 4387,
      "mill": 4388,
      "nets": 4389,
      "rings": 4390,
      "sear": 4391,
      "too": 4392,
      "tired": 4393,
      "year": 4394,
      "##rant": 4395,
      "##ients": 4396,
      "##bing": 4397,
      "ing": 4398,
      "##leas": 4399,
      "stocking": 4400,
      "##ises": 4401,
      "##opless": 4402,
      "##otic": 4403,
      "##imon": 4404,
      "jumper": 4405,
      "##body": 4406,
      "sidelines": 4407,
      "snowball": 4408,
      "##usi": 4409,
      "seas": 4410,
      "scient": 4411,
      "goat": 4412,
      "colorfully": 4413,
      "clearing": 4414,
      "wrist": 4415,
      "banjo": 4416,
      "direct": 4417,
      "location": 4418,
      "containing": 4419,
      "containers": 4420,
      "burning": 4421,
      "##encil": 4422,
      "stringed": 4423,
      "extre": 4424,
      "policemen": 4425,
      "farmer": 4426,
      "punching": 4427,
      "autumn": 4428,
      "axe": 4429,
      "maneu": 4430,
      "cotton": 4431,
      "double": 4432,
      "##country": 4433,
      "Square": 4434,
      "Cla": 4435,
      "Is": 4436,
      "egg": 4437,
      "lime": 4438,
      "mit": 4439,
      "##gress": 4440,
      "##uting": 4441,
      "##hat": 4442,
      "##zy": 4443,
      "pots": 4444,
      "bib": 4445,
      "level": 4446,
      "handling": 4447,
      "##igning": 4448,
      "ware": 4449,
      "##phy": 4450,
      "unf": 4451,
      "bush": 4452,
      "Asians": 4453,
      "cheese": 4454,
      "mountainous": 4455,
      "studying": 4456,
      "##ensive": 4457,
      "wrestlers": 4458,
      "legging": 4459,
      "splashed": 4460,
      "images": 4461,
      "chefs": 4462,
      "pillar": 4463,
      "stoop": 4464,
      "planting": 4465,
      "Army": 4466,
      "adjusts": 4467,
      "consisting": 4468,
      "Firef": 4469,
      "##nament": 4470,
      "laboratory": 4471,
      "beret": 4472,
      "rifle": 4473,
      "shawl": 4474,
      "elaborate": 4475,
      "hyd": 4476,
      "SUV": 4477,
      "Bas": 4478,
      "His": 4479,
      "Hockey": 4480,
      "Lots": 4481,
      "School": 4482,
      "TV": 4483,
      "aerial": 4484,
      "ducks": 4485,
      "lips": 4486,
      "nav": 4487,
      "##iner": 4488,
      "inj": 4489,
      "inst": 4490,
      "blo": 4491,
      "bend": 4492,
      "##vering": 4493,
      "##immed": 4494,
      "##ief": 4495,
      "bystand": 4496,
      "snacks": 4497,
      "leas": 4498,
      "sco": 4499,
      "##ude": 4500,
      "process": 4501,
      "underground": 4502,
      "shepherd": 4503,
      "barric": 4504,
      "marble": 4505,
      "cellphones": 4506,
      "artists": 4507,
      "amount": 4508,
      "skyd": 4509,
      "sleeves": 4510,
      "statues": 4511,
      "vending": 4512,
      "kicked": 4513,
      "businessman": 4514,
      "entering": 4515,
      "stretched": 4516,
      "laundromat": 4517,
      "complete": 4518,
      "stepping": 4519,
      "beverages": 4520,
      "chopping": 4521,
      "miniature": 4522,
      "##aiian": 4523,
      "identical": 4524,
      "graduation": 4525,
      "columns": 4526,
      "leggings": 4527,
      "Family": 4528,
      "divers": 4529,
      "kimon": 4530,
      "sar": 4531,
      "wo": 4532,
      "##ipped": 4533,
      "##ened": 4534,
      "##oms": 4535,
      "stain": 4536,
      "stuck": 4537,
      "##orning": 4538,
      "##icle": 4539,
      "plain": 4540,
      "anti": 4541,
      "grab": 4542,
      "clock": 4543,
      "handbag": 4544,
      "science": 4545,
      "tablecloth": 4546,
      "jeep": 4547,
      "Asia": 4548,
      "crosscountry": 4549,
      "boarding": 4550,
      "service": 4551,
      "contemp": 4552,
      "washes": 4553,
      "quiet": 4554,
      "sund": 4555,
      "monitor": 4556,
      "candle": 4557,
      "tournament": 4558,
      "tackling": 4559,
      "brother": 4560,
      "framed": 4561,
      "gesturing": 4562,
      "gazing": 4563,
      "designs": 4564,
      "driveway": 4565,
      "socializing": 4566,
      "##works": 4567,
      "experim": 4568,
      "occ": 4569,
      "toothbrush": 4570,
      "enthusi": 4571,
      "warehouse": 4572,
      "hop": 4573,
      "jack": 4574,
      "kios": 4575,
      "##bling": 4576,
      "##oph": 4577,
      "menu": 4578,
      "grabs": 4579,
      "skills": 4580,
      "oranges": 4581,
      "somewhere": 4582,
      "##ested": 4583,
      "picks": 4584,
      "guards": 4585,
      "daytime": 4586,
      "speaker": 4587,
      "marked": 4588,
      "sailing": 4589,
      "subur": 4590,
      "brides": 4591,
      "crack": 4592,
      "squats": 4593,
      "##ails": 4594,
      "steam": 4595,
      "types": 4596,
      "product": 4597,
      "projector": 4598,
      "operates": 4599,
      "repairs": 4600,
      "reception": 4601,
      "strike": 4602,
      "department": 4603,
      "superm": 4604,
      "involving": 4605,
      "attractive": 4606,
      "tuxedo": 4607,
      "Runners": 4608,
      "crayons": 4609,
      "pirate": 4610,
      "mannequin": 4611,
      "belongings": 4612,
      "Mon": 4613,
      "leng": 4614,
      "overs": 4615,
      "sou": 4616,
      "topless": 4617,
      "ver": 4618,
      "##lim": 4619,
      "##bby": 4620,
      "##uto": 4621,
      "##anging": 4622,
      "##ora": 4623,
      "##onge": 4624,
      "##oof": 4625,
      "##aded": 4626,
      "##iled": 4627,
      "##ements": 4628,
      "sideways": 4629,
      "sciss": 4630,
      "scaling": 4631,
      "address": 4632,
      "foods": 4633,
      "prop": 4634,
      "cows": 4635,
      "bikinis": 4636,
      "meas": 4637,
      "##bbles": 4638,
      "skyline": 4639,
      "cowboys": 4640,
      "butcher": 4641,
      "auditor": 4642,
      "official": 4643,
      "Blue": 4644,
      "decorations": 4645,
      "expla": 4646,
      "logs": 4647,
      "casting": 4648,
      "cloud": 4649,
      "Spect": 4650,
      "bottoms": 4651,
      "termin": 4652,
      "caucasian": 4653,
      "awning": 4654,
      "scrat": 4655,
      "merry": 4656,
      "retriever": 4657,
      "dragging": 4658,
      "employee": 4659,
      "purchas": 4660,
      "waterski": 4661,
      "conductor": 4662,
      "flannel": 4663,
      "unusual": 4664,
      "cherry": 4665,
      "Hawaiian": 4666,
      "supermarket": 4667,
      "length": 4668,
      "auditorium": 4669,
      "10": 4670,
      "Bic": 4671,
      "Cow": 4672,
      "Do": 4673,
      "Eastern": 4674,
      "Oriental": 4675,
      "Roll": 4676,
      "cub": 4677,
      "citiz": 4678,
      "est": 4679,
      "lion": 4680,
      "mead": 4681,
      "ol": 4682,
      "pray": 4683,
      "##ral": 4684,
      "##vent": 4685,
      "##omin": 4686,
      "stay": 4687,
      "shape": 4688,
      "##rous": 4689,
      "##adio": 4690,
      "beers": 4691,
      "##amil": 4692,
      "than": 4693,
      "cock": 4694,
      "##illed": 4695,
      "##rib": 4696,
      "tags": 4697,
      "waterway": 4698,
      "They": 4699,
      "trucks": 4700,
      "##emple": 4701,
      "##ples": 4702,
      "unlo": 4703,
      "rabb": 4704,
      "whose": 4705,
      "fireworks": 4706,
      "##ickshaw": 4707,
      "##iously": 4708,
      "kickbox": 4709,
      "photographers": 4710,
      "draped": 4711,
      "booths": 4712,
      "retur": 4713,
      "eyeglasses": 4714,
      "spotlight": 4715,
      "gaze": 4716,
      "condu": 4717,
      "pattern": 4718,
      "letters": 4719,
      "blurry": 4720,
      "dumpster": 4721,
      "activity": 4722,
      "crashing": 4723,
      "Shirtless": 4724,
      "illumin": 4725,
      "British": 4726,
      "ingred": 4727,
      "Basket": 4728,
      "navig": 4729,
      "kiosk": 4730,
      "Spectators": 4731,
      "meadow": 4732,
      "Eng": 4733,
      "Jo": 4734,
      "Or": 4735,
      "eas": 4736,
      "harm": 4737,
      "nat": 4738,
      "rickshaw": 4739,
      "signing": 4740,
      "##uins": 4741,
      "##inging": 4742,
      "inner": 4743,
      "##roke": 4744,
      "##alt": 4745,
      "staff": 4746,
      "##ester": 4747,
      "blind": 4748,
      "##iday": 4749,
      "##andel": 4750,
      "##rab": 4751,
      "upward": 4752,
      "skies": 4753,
      "conv": 4754,
      "babies": 4755,
      "sees": 4756,
      "haul": 4757,
      "sunbat": 4758,
      "##tender": 4759,
      "ado": 4760,
      "raz": 4761,
      "shoppers": 4762,
      "attack": 4763,
      "China": 4764,
      "marsh": 4765,
      "treat": 4766,
      "##agne": 4767,
      "canal": 4768,
      "passersby": 4769,
      "bedroom": 4770,
      "##apped": 4771,
      "peering": 4772,
      "checked": 4773,
      "harbor": 4774,
      "relaxes": 4775,
      "visiting": 4776,
      "festive": 4777,
      "featuring": 4778,
      "campfire": 4779,
      "magazines": 4780,
      "ATM": 4781,
      "blurred": 4782,
      "hotdogs": 4783,
      "bundled": 4784,
      "##urfer": 4785,
      "else": 4786,
      "facial": 4787,
      "nurse": 4788,
      "techn": 4789,
      "foli": 4790,
      "browsing": 4791,
      "whistle": 4792,
      "victory": 4793,
      "Mexican": 4794,
      "champagne": 4795,
      "hydrant": 4796,
      "bridesma": 4797,
      "scissors": 4798,
      "terminal": 4799,
      "Roller": 4800,
      "El": 4801,
      "Gre": 4802,
      "Green": 4803,
      "em": 4804,
      "eight": 4805,
      "eag": 4806,
      "iP": 4807,
      "lining": 4808,
      "moun": 4809,
      "mur": 4810,
      "ox": 4811,
      "pencil": 4812,
      "sam": 4813,
      "yelling": 4814,
      "zone": 4815,
      "##aging": 4816,
      "##anish": 4817,
      "##lets": 4818,
      "##arium": 4819,
      "blocking": 4820,
      "##opy": 4821,
      "##icing": 4822,
      "toile": 4823,
      "thick": 4824,
      "coast": 4825,
      "cocon": 4826,
      "upper": 4827,
      "##aphone": 4828,
      "skull": 4829,
      "handed": 4830,
      "##ocal": 4831,
      "scra": 4832,
      "scarves": 4833,
      "pauses": 4834,
      "heading": 4835,
      "really": 4836,
      "shelf": 4837,
      "stores": 4838,
      "boxers": 4839,
      "##acters": 4840,
      "series": 4841,
      "digs": 4842,
      "electrical": 4843,
      "advertisements": 4844,
      "transit": 4845,
      "focused": 4846,
      "protesters": 4847,
      "characters": 4848,
      "tarp": 4849,
      "autom": 4850,
      "Shepherd": 4851,
      "emergency": 4852,
      "aquarium": 4853,
      "bananas": 4854,
      "instructor": 4855,
      "avo": 4856,
      "surprised": 4857,
      "blazer": 4858,
      "bystanders": 4859,
      "estab": 4860,
      "ingredients": 4861,
      "foliage": 4862,
      "Bi": 4863,
      "De": 4864,
      "Mother": 4865,
      "Par": 4866,
      "Play": 4867,
      "bay": 4868,
      "fellow": 4869,
      "hus": 4870,
      "hip": 4871,
      "sen": 4872,
      "sound": 4873,
      "temple": 4874,
      "##nes": 4875,
      "##noon": 4876,
      "##gu": 4877,
      "##rings": 4878,
      "##mill": 4879,
      "stars": 4880,
      "##ison": 4881,
      "##imate": 4882,
      "here": 4883,
      "spons": 4884,
      "fields": 4885,
      "pictured": 4886,
      "record": 4887,
      "clothed": 4888,
      "unique": 4889,
      "special": 4890,
      "trains": 4891,
      "driven": 4892,
      "##ague": 4893,
      "costumed": 4894,
      "##ously": 4895,
      "pushed": 4896,
      "afternoon": 4897,
      "numbered": 4898,
      "earrings": 4899,
      "##uffs": 4900,
      "raise": 4901,
      "floats": 4902,
      "clowns": 4903,
      "Smiling": 4904,
      "inspect": 4905,
      "inspects": 4906,
      "Shop": 4907,
      "grinds": 4908,
      "##cake": 4909,
      "farmers": 4910,
      "chopsticks": 4911,
      "used": 4912,
      "purchase": 4913,
      "extended": 4914,
      "Canadian": 4915,
      "Hispanic": 4916,
      "harmon": 4917,
      "establish": 4918,
      "Cl": 4919,
      "Native": 4920,
      "det": 4921,
      "morning": 4922,
      "py": 4923,
      "punch": 4924,
      "sorting": 4925,
      "tv": 4926,
      "ticket": 4927,
      "##mx": 4928,
      "##omp": 4929,
      "shirted": 4930,
      "christmas": 4931,
      "histor": 4932,
      "roses": 4933,
      "##esters": 4934,
      "arrow": 4935,
      "##olog": 4936,
      "sweaters": 4937,
      "tread": 4938,
      "obsc": 4939,
      "motorcyclists": 4940,
      "cann": 4941,
      "##osaur": 4942,
      "desks": 4943,
      "lighted": 4944,
      "passed": 4945,
      "news": 4946,
      "##lose": 4947,
      "paperwork": 4948,
      "raincoat": 4949,
      "filming": 4950,
      "prepared": 4951,
      "crate": 4952,
      "earphones": 4953,
      "Star": 4954,
      "digital": 4955,
      "overlooks": 4956,
      "dinosaur": 4957,
      "casino": 4958,
      "celebrate": 4959,
      "buried": 4960,
      "assort": 4961,
      "sprayed": 4962,
      "finishing": 4963,
      "##tenance": 4964,
      "barbecu": 4965,
      "jumpsuits": 4966,
      "receiving": 4967,
      "muzzle": 4968,
      "stirring": 4969,
      "Prot": 4970,
      "community": 4971,
      "buffet": 4972,
      "Phot": 4973,
      "symbo": 4974,
      "Firefighters": 4975,
      "contempl": 4976,
      "olive": 4977,
      "Car": 4978,
      "Close": 4979,
      "Gr": 4980,
      "bump": 4981,
      "bmx": 4982,
      "limb": 4983,
      "lush": 4984,
      "min": 4985,
      "##oly": 4986,
      "##happy": 4987,
      "##lent": 4988,
      "##ndo": 4989,
      "asking": 4990,
      "asce": 4991,
      "##vey": 4992,
      "personnel": 4993,
      "commer": 4994,
      "climbers": 4995,
      "sheets": 4996,
      "bartender": 4997,
      "marker": 4998,
      "saus": 4999,
      "flowing": 5000,
      "flam": 5001,
      "paintings": 5002,
      "apart": 5003,
      "pointed": 5004,
      "cigarettes": 5005,
      "serves": 5006,
      "presenting": 5007,
      "wrap": 5008,
      "##leader": 5009,
      "##quee": 5010,
      "thumb": 5011,
      "silhouet": 5012,
      "paying": 5013,
      "syn": 5014,
      "employees": 5015,
      "foam": 5016,
      "bronco": 5017,
      "McDonald": 5018,
      "poodle": 5019,
      "Skateboarder": 5020,
      "mitt": 5021,
      "injured": 5022,
      "enthusiast": 5023,
      "Cowboy": 5024,
      "##amilies": 5025,
      "natural": 5026,
      "razor": 5027,
      "harmonica": 5028,
      "Dan": 5029,
      "Dark": 5030,
      "Sold": 5031,
      "amb": 5032,
      "grow": 5033,
      "icy": 5034,
      "lens": 5035,
      "pipes": 5036,
      "ten": 5037,
      "##rit": 5038,
      "##liday": 5039,
      "##tie": 5040,
      "##haps": 5041,
      "##yon": 5042,
      "##zes": 5043,
      "##ote": 5044,
      "##ami": 5045,
      "holiday": 5046,
      "clar": 5047,
      "skaters": 5048,
      "flop": 5049,
      "conne": 5050,
      "tending": 5051,
      "##utes": 5052,
      "perhaps": 5053,
      "laid": 5054,
      "purses": 5055,
      "raking": 5056,
      "rafting": 5057,
      "mountaintop": 5058,
      "deer": 5059,
      "##ship": 5060,
      "flaming": 5061,
      "when": 5062,
      "butt": 5063,
      "garment": 5064,
      "India": 5065,
      "dryer": 5066,
      "possession": 5067,
      "portable": 5068,
      "begin": 5069,
      "tribal": 5070,
      "freshly": 5071,
      "archite": 5072,
      "crops": 5073,
      "letter": 5074,
      "fatig": 5075,
      "dyed": 5076,
      "recording": 5077,
      "sniffing": 5078,
      "bites": 5079,
      "European": 5080,
      "tutu": 5081,
      "twirling": 5082,
      "Motor": 5083,
      "Todd": 5084,
      "directly": 5085,
      "Basketball": 5086,
      "establishment": 5087,
      "Closeup": 5088,
      "Per": 5089,
      "South": 5090,
      "found": 5091,
      "hal": 5092,
      "ske": 5093,
      "tying": 5094,
      "##gie": 5095,
      "##ixt": 5096,
      "##bed": 5097,
      "##ints": 5098,
      "##oman": 5099,
      "##opoly": 5100,
      "##roud": 5101,
      "##stick": 5102,
      "##ils": 5103,
      "##illa": 5104,
      "##ieval": 5105,
      "backse": 5106,
      "fork": 5107,
      "snake": 5108,
      "flock": 5109,
      "spi": 5110,
      "scouts": 5111,
      "labe": 5112,
      "acting": 5113,
      "speeds": 5114,
      "competitive": 5115,
      "eyed": 5116,
      "contents": 5117,
      "piles": 5118,
      "cheerleader": 5119,
      "photographing": 5120,
      "harves": 5121,
      "intense": 5122,
      "interact": 5123,
      "kayaks": 5124,
      "protection": 5125,
      "khakis": 5126,
      "stunts": 5127,
      "shoots": 5128,
      "cleaner": 5129,
      "much": 5130,
      "entertains": 5131,
      "boulder": 5132,
      "beginning": 5133,
      "stacked": 5134,
      "youths": 5135,
      "striking": 5136,
      "drilling": 5137,
      "maintenance": 5138,
      "apples": 5139,
      "syst": 5140,
      "surgical": 5141,
      "Number": 5142,
      "pocket": 5143,
      "screaming": 5144,
      "pilot": 5145,
      "antique": 5146,
      "suburban": 5147,
      "waterskiing": 5148,
      "Protesters": 5149,
      "commercial": 5150,
      "backseat": 5151,
      "labeled": 5152,
      "Arab": 5153,
      "Bar": 5154,
      "Bus": 5155,
      "Tr": 5156,
      "With": 5157,
      "cul": 5158,
      "fer": 5159,
      "my": 5160,
      "ming": 5161,
      "pac": 5162,
      "ran": 5163,
      "##af": 5164,
      "##nown": 5165,
      "##pit": 5166,
      "##known": 5167,
      "##dish": 5168,
      "##zing": 5169,
      "##erness": 5170,
      "##ords": 5171,
      "##sters": 5172,
      "##store": 5173,
      "##ama": 5174,
      "reddish": 5175,
      "upwards": 5176,
      "swords": 5177,
      "flood": 5178,
      "persons": 5179,
      "maj": 5180,
      "goate": 5181,
      "workout": 5182,
      "unhappy": 5183,
      "unknown": 5184,
      "##uds": 5185,
      "bicycling": 5186,
      "progress": 5187,
      "exiting": 5188,
      "caf": 5189,
      "even": 5190,
      "amaz": 5191,
      "love": 5192,
      "turkey": 5193,
      "hardwood": 5194,
      "##club": 5195,
      "draws": 5196,
      "racquet": 5197,
      "medieval": 5198,
      "hambur": 5199,
      "rowboat": 5200,
      "stretch": 5201,
      "barefooted": 5202,
      "pillows": 5203,
      "pillars": 5204,
      "juggles": 5205,
      "feathers": 5206,
      "completing": 5207,
      "hurdles": 5208,
      "warmly": 5209,
      "necklaces": 5210,
      "depic": 5211,
      "wilderness": 5212,
      "##minton": 5213,
      "##intage": 5214,
      "Adults": 5215,
      "awaiting": 5216,
      "fetch": 5217,
      "peeking": 5218,
      "America": 5219,
      "seagulls": 5220,
      "quarterback": 5221,
      "vertic": 5222,
      "conducting": 5223,
      "During": 5224,
      "Jeng": 5225,
      "Spe": 5226,
      "We": 5227,
      "cries": 5228,
      "dest": 5229,
      "file": 5230,
      "frying": 5231,
      "named": 5232,
      "pow": 5233,
      "ties": 5234,
      "tips": 5235,
      "und": 5236,
      "vintage": 5237,
      "zip": 5238,
      "##ailing": 5239,
      "##avel": 5240,
      "##oke": 5241,
      "##tely": 5242,
      "##vices": 5243,
      "##lap": 5244,
      "##icans": 5245,
      "chips": 5246,
      "rocking": 5247,
      "asph": 5248,
      "least": 5249,
      "snowman": 5250,
      "split": 5251,
      "arri": 5252,
      "last": 5253,
      "##iping": 5254,
      "themed": 5255,
      "propped": 5256,
      "waitress": 5257,
      "marking": 5258,
      "cave": 5259,
      "caution": 5260,
      "##rong": 5261,
      "bowler": 5262,
      "strum": 5263,
      "metro": 5264,
      "rescue": 5265,
      "belts": 5266,
      "strollers": 5267,
      "vegetation": 5268,
      "##bbling": 5269,
      "dragon": 5270,
      "golfer": 5271,
      "strawber": 5272,
      "package": 5273,
      "hooping": 5274,
      "sailor": 5275,
      "bounce": 5276,
      "exercising": 5277,
      "##eteria": 5278,
      "greyhounds": 5279,
      "Muslim": 5280,
      "sparks": 5281,
      "sparring": 5282,
      "saddle": 5283,
      "horizont": 5284,
      "aiming": 5285,
      "mechanical": 5286,
      "Musicians": 5287,
      "lanterns": 5288,
      "accident": 5289,
      "apparent": 5290,
      "fedora": 5291,
      "experiment": 5292,
      "convention": 5293,
      "adolesc": 5294,
      "mounted": 5295,
      "Toddler": 5296,
      "system": 5297,
      "cafeteria": 5298,
      "Jenga": 5299,
      "asphalt": 5300,
      "Ele": 5301,
      "Friend": 5302,
      "Kit": 5303,
      "Mi": 5304,
      "Mil": 5305,
      "NY": 5306,
      "fist": 5307,
      "hips": 5308,
      "##rd": 5309,
      "##lph": 5310,
      "##pass": 5311,
      "##ustr": 5312,
      "##mock": 5313,
      "##leading": 5314,
      "##alth": 5315,
      "stor": 5316,
      "stance": 5317,
      "##oud": 5318,
      "##ought": 5319,
      "##ishes": 5320,
      "siting": 5321,
      "beat": 5322,
      "##chron": 5323,
      "bugg": 5324,
      "watering": 5325,
      "uphill": 5326,
      "greenery": 5327,
      "paws": 5328,
      "guide": 5329,
      "prov": 5330,
      "cattle": 5331,
      "##ugs": 5332,
      "dried": 5333,
      "flash": 5334,
      "riot": 5335,
      "canopy": 5336,
      "deser": 5337,
      "##scent": 5338,
      "bookstore": 5339,
      "nightclub": 5340,
      "bodysuit": 5341,
      "corr": 5342,
      "subst": 5343,
      "meg": 5344,
      "classic": 5345,
      "forested": 5346,
      "weap": 5347,
      "early": 5348,
      "puzz": 5349,
      "checkers": 5350,
      "quest": 5351,
      "tuba": 5352,
      "hammock": 5353,
      "picket": 5354,
      "mixer": 5355,
      "completely": 5356,
      "carrier": 5357,
      "beams": 5358,
      "tosses": 5359,
      "ribbons": 5360,
      "jockeys": 5361,
      "flee": 5362,
      "nails": 5363,
      "aqua": 5364,
      "badminton": 5365,
      "handleb": 5366,
      "banana": 5367,
      "cluttered": 5368,
      "USA": 5369,
      "crawling": 5370,
      "hunched": 5371,
      "separate": 5372,
      "watermelon": 5373,
      "bracelet": 5374,
      "scales": 5375,
      "task": 5376,
      "texting": 5377,
      "##ottish": 5378,
      "install": 5379,
      "sundress": 5380,
      "illuminated": 5381,
      "automobile": 5382,
      "sponsored": 5383,
      "pyram": 5384,
      "Motorc": 5385,
      "pacifier": 5386,
      "Miami": 5387,
      "Custom": 5388,
      "Ro": 5389,
      "Tw": 5390,
      "bon": 5391,
      "cult": 5392,
      "dess": 5393,
      "deter": 5394,
      "domin": 5395,
      "gig": 5396,
      "ruins": 5397,
      "sling": 5398,
      "squee": 5399,
      "test": 5400,
      "wield": 5401,
      "##lights": 5402,
      "##kery": 5403,
      "##whe": 5404,
      "##vy": 5405,
      "##itch": 5406,
      "##iderman": 5407,
      "toe": 5408,
      "doctors": 5409,
      "dolph": 5410,
      "##itement": 5411,
      "thought": 5412,
      "smooth": 5413,
      "##cept": 5414,
      "tast": 5415,
      "carous": 5416,
      "need": 5417,
      "spike": 5418,
      "bakery": 5419,
      "nearly": 5420,
      "surge": 5421,
      "parka": 5422,
      "roadside": 5423,
      "waiter": 5424,
      "whole": 5425,
      "looked": 5426,
      "surfers": 5427,
      "dribbles": 5428,
      "fireplace": 5429,
      "numerous": 5430,
      "weight": 5431,
      "served": 5432,
      "steering": 5433,
      "vibr": 5434,
      "lands": 5435,
      "cheerleading": 5436,
      "potato": 5437,
      "harp": 5438,
      "monitors": 5439,
      "gardening": 5440,
      "countryside": 5441,
      "trophy": 5442,
      "greet": 5443,
      "puppet": 5444,
      "includes": 5445,
      "picker": 5446,
      "braided": 5447,
      "collection": 5448,
      "Spanish": 5449,
      "excitement": 5450,
      "waterfront": 5451,
      "mixed": 5452,
      "complex": 5453,
      "##cases": 5454,
      "travels": 5455,
      "##cause": 5456,
      "applies": 5457,
      "plank": 5458,
      "Art": 5459,
      "ornam": 5460,
      "bunny": 5461,
      "facility": 5462,
      "involved": 5463,
      "vacuuming": 5464,
      "muscular": 5465,
      "mascot": 5466,
      "accompanied": 5467,
      "Swim": 5468,
      "Claus": 5469,
      "Joh": 5470,
      "innertub": 5471,
      "murky": 5472,
      "fatigues": 5473,
      "goatee": 5474,
      "buggy": 5475,
      "substance": 5476,
      "12": 5477,
      "11": 5478,
      "Bull": 5479,
      "Coc": 5480,
      "Jew": 5481,
      "Soon": 5482,
      "Walm": 5483,
      "cycle": 5484,
      "da": 5485,
      "dandel": 5486,
      "nood": 5487,
      "olymp": 5488,
      "pong": 5489,
      "pant": 5490,
      "radio": 5491,
      "wond": 5492,
      "xyl": 5493,
      "##lor": 5494,
      "##bie": 5495,
      "##po": 5496,
      "##ties": 5497,
      "##wear": 5498,
      "##cra": 5499,
      "##fold": 5500,
      "these": 5501,
      "##orke": 5502,
      "##order": 5503,
      "##oose": 5504,
      "##gee": 5505,
      "because": 5506,
      "bust": 5507,
      "##cep": 5508,
      "sket": 5509,
      "skim": 5510,
      "snorke": 5511,
      "spots": 5512,
      "releas": 5513,
      "horns": 5514,
      "##ivil": 5515,
      "floors": 5516,
      "opened": 5517,
      "##vely": 5518,
      "riverbank": 5519,
      "lobby": 5520,
      "boogie": 5521,
      "breaking": 5522,
      "viewer": 5523,
      "weird": 5524,
      "grim": 5525,
      "rails": 5526,
      "cigar": 5527,
      "peak": 5528,
      "##awning": 5529,
      "circuit": 5530,
      "directing": 5531,
      "fixes": 5532,
      "videot": 5533,
      "visor": 5534,
      "##ified": 5535,
      "engage": 5536,
      "sprays": 5537,
      "collecting": 5538,
      "finished": 5539,
      "inflated": 5540,
      "tiles": 5541,
      "motorbikes": 5542,
      "archway": 5543,
      "ordering": 5544,
      "dotted": 5545,
      "admire": 5546,
      "Cola": 5547,
      "Numerous": 5548,
      "slam": 5549,
      "mailbox": 5550,
      "years": 5551,
      "soup": 5552,
      "senior": 5553,
      "treadmill": 5554,
      "flames": 5555,
      "clarinet": 5556,
      "harvesting": 5557,
      "Friends": 5558,
      "pyramid": 5559,
      "Walmart": 5560,
      "Ex": 5561,
      "Gentle": 5562,
      "Hi": 5563,
      "Nike": 5564,
      "Out": 5565,
      "Times": 5566,
      "Vol": 5567,
      "cry": 5568,
      "dam": 5569,
      "fell": 5570,
      "gor": 5571,
      "hung": 5572,
      "lat": 5573,
      "licks": 5574,
      "mel": 5575,
      "mist": 5576,
      "mowing": 5577,
      "ping": 5578,
      "pets": 5579,
      "proud": 5580,
      "tick": 5581,
      "wiping": 5582,
      "##pants": 5583,
      "##ula": 5584,
      "##uce": 5585,
      "##inas": 5586,
      "##ination": 5587,
      "##inished": 5588,
      "##ena": 5589,
      "##acts": 5590,
      "stacks": 5591,
      "shines": 5592,
      "bored": 5593,
      "##ells": 5594,
      "upset": 5595,
      "snap": 5596,
      "flour": 5597,
      "##toon": 5598,
      "snowm": 5599,
      "baked": 5600,
      "camps": 5601,
      "laun": 5602,
      "##antly": 5603,
      "roadway": 5604,
      "chem": 5605,
      "slow": 5606,
      "canoes": 5607,
      "canyon": 5608,
      "polit": 5609,
      "polish": 5610,
      "##scra": 5611,
      "baton": 5612,
      "clothesline": 5613,
      "curved": 5614,
      "skyscra": 5615,
      "fountains": 5616,
      "stopping": 5617,
      "peach": 5618,
      "monk": 5619,
      "sculpting": 5620,
      "diner": 5621,
      "incline": 5622,
      "tracksuit": 5623,
      "##alloween": 5624,
      "broad": 5625,
      "spring": 5626,
      "adjust": 5627,
      "strikes": 5628,
      "bungee": 5629,
      "companion": 5630,
      "salon": 5631,
      "bundle": 5632,
      "activities": 5633,
      "assemble": 5634,
      "elevator": 5635,
      "shelter": 5636,
      "foggy": 5637,
      "tomatoes": 5638,
      "lipstick": 5639,
      "enclosed": 5640,
      "cruise": 5641,
      "vaul": 5642,
      "bloss": 5643,
      "kickboxing": 5644,
      "bridesmaids": 5645,
      "Elmo": 5646,
      "toilet": 5647,
      "avoid": 5648,
      "silhouetted": 5649,
      "Perform": 5650,
      "Military": 5651,
      "##chronized": 5652,
      "megaphone": 5653,
      "Customers": 5654,
      "carousel": 5655,
      "Coca": 5656,
      "##craft": 5657,
      "Bud": 5658,
      "Nine": 5659,
      "less": 5660,
      "mes": 5661,
      "pep": 5662,
      "rus": 5663,
      "rush": 5664,
      "sacks": 5665,
      "tin": 5666,
      "torn": 5667,
      "yawning": 5668,
      "##gn": 5669,
      "##bre": 5670,
      "##pie": 5671,
      "##cast": 5672,
      "##fast": 5673,
      "##friend": 5674,
      "##inting": 5675,
      "##allet": 5676,
      "##acter": 5677,
      "##orial": 5678,
      "shut": 5679,
      "##icely": 5680,
      "anc": 5681,
      "##asting": 5682,
      "backh": 5683,
      "worn": 5684,
      "swan": 5685,
      "ridden": 5686,
      "flu": 5687,
      "##ores": 5688,
      "##ulance": 5689,
      "spin": 5690,
      "##isters": 5691,
      "perio": 5692,
      "brand": 5693,
      "laden": 5694,
      "##ubby": 5695,
      "cityscape": 5696,
      "health": 5697,
      "walked": 5698,
      "rag": 5699,
      "painter": 5700,
      "helmeted": 5701,
      "barren": 5702,
      "spec": 5703,
      "speeding": 5704,
      "##mentary": 5705,
      "prepar": 5706,
      "aband": 5707,
      "Afric": 5708,
      "earth": 5709,
      "peer": 5710,
      "grills": 5711,
      "serious": 5712,
      "strolls": 5713,
      "varying": 5714,
      "breakfast": 5715,
      "quad": 5716,
      "shaves": 5717,
      "blocked": 5718,
      "microscopes": 5719,
      "operate": 5720,
      "braids": 5721,
      "glan": 5722,
      "dunk": 5723,
      "saxoph": 5724,
      "napping": 5725,
      "hammering": 5726,
      "opponents": 5727,
      "piggy": 5728,
      "sprinklers": 5729,
      "cheeks": 5730,
      "Ital": 5731,
      "materials": 5732,
      "nurses": 5733,
      "Scottish": 5734,
      "huddled": 5735,
      "shelves": 5736,
      "newlyw": 5737,
      "Teenag": 5738,
      "scientist": 5739,
      "maneuver": 5740,
      "unfinished": 5741,
      "barricade": 5742,
      "explaining": 5743,
      "easel": 5744,
      "blindfold": 5745,
      "Rollerbla": 5746,
      "Grand": 5747,
      "Soldiers": 5748,
      "All": 5749,
      "Bo": 5750,
      "Bra": 5751,
      "Cyclists": 5752,
      "Dis": 5753,
      "Dirt": 5754,
      "Food": 5755,
      "Pat": 5756,
      "Pic": 5757,
      "Park": 5758,
      "Pass": 5759,
      "Re": 5760,
      "Rock": 5761,
      "award": 5762,
      "border": 5763,
      "dem": 5764,
      "elder": 5765,
      "goof": 5766,
      "mouse": 5767,
      "nicely": 5768,
      "oil": 5769,
      "pon": 5770,
      "sister": 5771,
      "##tur": 5772,
      "##mon": 5773,
      "##was": 5774,
      "##zard": 5775,
      "##oma": 5776,
      "##owers": 5777,
      "##andom": 5778,
      "ann": 5779,
      "##umber": 5780,
      "threw": 5781,
      "those": 5782,
      "##asts": 5783,
      "##ilted": 5784,
      "##aping": 5785,
      "##cked": 5786,
      "##orescent": 5787,
      "league": 5788,
      "handles": 5789,
      "spins": 5790,
      "##igan": 5791,
      "sex": 5792,
      "sunsh": 5793,
      "column": 5794,
      "headset": 5795,
      "review": 5796,
      "paralle": 5797,
      "phones": 5798,
      "baggy": 5799,
      "slicing": 5800,
      "attent": 5801,
      "cable": 5802,
      "bows": 5803,
      "mats": 5804,
      "matt": 5805,
      "filmed": 5806,
      "patron": 5807,
      "sweatshirts": 5808,
      "banners": 5809,
      "##azz": 5810,
      "checkout": 5811,
      "such": 5812,
      "monks": 5813,
      "medit": 5814,
      "##anged": 5815,
      "pickup": 5816,
      "seaf": 5817,
      "Guys": 5818,
      "posed": 5819,
      "cookie": 5820,
      "gliding": 5821,
      "approach": 5822,
      "Tex": 5823,
      "##cakes": 5824,
      "##issance": 5825,
      "##iversity": 5826,
      "flex": 5827,
      "solo": 5828,
      "trimming": 5829,
      "University": 5830,
      "parasailing": 5831,
      "massive": 5832,
      "angry": 5833,
      "watermelons": 5834,
      "Snowboarder": 5835,
      "maybe": 5836,
      "adorned": 5837,
      "leashes": 5838,
      "skydiving": 5839,
      "kimono": 5840,
      "woven": 5841,
      "unloading": 5842,
      "seesaw": 5843,
      "sunbathing": 5844,
      "##nesses": 5845,
      "cannon": 5846,
      "ambulance": 5847,
      "connected": 5848,
      "major": 5849,
      "##avelin": 5850,
      "deserted": 5851,
      "##enaissance": 5852,
      "period": 5853,
      "piggyback": 5854,
      "Bear": 5855,
      "Bald": 5856,
      "Ca": 5857,
      "Cal": 5858,
      "High": 5859,
      "Mem": 5860,
      "Ob": 5861,
      "Sub": 5862,
      "civil": 5863,
      "wit": 5864,
      "##gling": 5865,
      "##eer": 5866,
      "##iver": 5867,
      "##ero": 5868,
      "##held": 5869,
      "##acy": 5870,
      "##idge": 5871,
      "##idated": 5872,
      "##ised": 5873,
      "##earing": 5874,
      "dots": 5875,
      "change": 5876,
      "frolic": 5877,
      "##ello": 5878,
      "backst": 5879,
      "ups": 5880,
      "overpass": 5881,
      "handheld": 5882,
      "spl": 5883,
      "tends": 5884,
      "scattered": 5885,
      "offering": 5886,
      "haw": 5887,
      "ladders": 5888,
      "parts": 5889,
      "barking": 5890,
      "coveralls": 5891,
      "sawing": 5892,
      "strolling": 5893,
      "note": 5894,
      "forms": 5895,
      "typing": 5896,
      "suite": 5897,
      "leader": 5898,
      "sweep": 5899,
      "##ifying": 5900,
      "dolls": 5901,
      "focusing": 5902,
      "Brunette": 5903,
      "character": 5904,
      "cooler": 5905,
      "dishwas": 5906,
      "patiently": 5907,
      "cabin": 5908,
      "similarly": 5909,
      "muzzled": 5910,
      "elbow": 5911,
      "Beautiful": 5912,
      "pressure": 5913,
      "stirs": 5914,
      "clutching": 5915,
      "elevated": 5916,
      "descending": 5917,
      "exploring": 5918,
      "##hammer": 5919,
      "utility": 5920,
      "##uzzy": 5921,
      "extreme": 5922,
      "occup": 5923,
      "barbecuing": 5924,
      "Dancers": 5925,
      "vertical": 5926,
      "handlebars": 5927,
      "John": 5928,
      "Sooners": 5929,
      "##point": 5930,
      "political": 5931,
      "ancient": 5932,
      "preparation": 5933,
      "##turned": 5934,
      "parallel": 5935,
      "seafood": 5936,
      "Lat": 5937,
      "Seat": 5938,
      "aboard": 5939,
      "aff": 5940,
      "crib": 5941,
      "drop": 5942,
      "fav": 5943,
      "families": 5944,
      "grown": 5945,
      "javelin": 5946,
      "lin": 5947,
      "lim": 5948,
      "loud": 5949,
      "mime": 5950,
      "rimmed": 5951,
      "sight": 5952,
      "self": 5953,
      "tor": 5954,
      "tul": 5955,
      "tip": 5956,
      "wool": 5957,
      "your": 5958,
      "##gear": 5959,
      "##lt": 5960,
      "##wra": 5961,
      "##what": 5962,
      "##come": 5963,
      "blower": 5964,
      "toes": 5965,
      "##chief": 5966,
      "rose": 5967,
      "caric": 5968,
      "dressing": 5969,
      "fort": 5970,
      "##boats": 5971,
      "spend": 5972,
      "somewhat": 5973,
      "parent": 5974,
      "headgear": 5975,
      "drying": 5976,
      "buses": 5977,
      "rehe": 5978,
      "relay": 5979,
      "danger": 5980,
      "walker": 5981,
      "accep": 5982,
      "skateboarders": 5983,
      "sweatpants": 5984,
      "defe": 5985,
      "soil": 5986,
      "strings": 5987,
      "feeds": 5988,
      "bridal": 5989,
      "gifts": 5990,
      "current": 5991,
      "distant": 5992,
      "padded": 5993,
      "chased": 5994,
      "crazy": 5995,
      "schoolgirl": 5996,
      "harnesses": 5997,
      "sucking": 5998,
      "violins": 5999,
      "screens": 6000,
      "shaded": 6001,
      "clap": 6002,
      "wrapping": 6003,
      "celebrates": 6004,
      "partner": 6005,
      "packages": 6006,
      "transp": 6007,
      "kayaker": 6008,
      "terrier": 6009,
      "robot": 6010,
      "chested": 6011,
      "demonstrates": 6012,
      "campus": 6013,
      "leafy": 6014,
      "thinking": 6015,
      "retrieving": 6016,
      "##idential": 6017,
      "register": 6018,
      "ballerinas": 6019,
      "fetching": 6020,
      "dye": 6021,
      "struggling": 6022,
      "Leg": 6023,
      "windsurf": 6024,
      "comfort": 6025,
      "measuring": 6026,
      "citizens": 6027,
      "prayer": 6028,
      "English": 6029,
      "synchronized": 6030,
      "floppy": 6031,
      "halter": 6032,
      "powder": 6033,
      "unders": 6034,
      "##lapidated": 6035,
      "xylophone": 6036,
      "campsite": 6037,
      "abandoned": 6038,
      "Picture": 6039,
      "mattress": 6040,
      "dishwasher": 6041,
      "'.": 6042,
      "Ap": 6043,
      "Com": 6044,
      "Father": 6045,
      "Gold": 6046,
      "La": 6047,
      "Race": 6048,
      "You": 6049,
      "du": 6050,
      "fuzzy": 6051,
      "lie": 6052,
      "pou": 6053,
      "que": 6054,
      "ted": 6055,
      "tum": 6056,
      "tamb": 6057,
      "wre": 6058,
      "wick": 6059,
      "##bull": 6060,
      "##hist": 6061,
      "##ys": 6062,
      "##rols": 6063,
      "##etti": 6064,
      "##oped": 6065,
      "tot": 6066,
      "##llip": 6067,
      "ans": 6068,
      "whiteboard": 6069,
      "##unte": 6070,
      "strewn": 6071,
      "##ressed": 6072,
      "tap": 6073,
      "cartoon": 6074,
      "##seen": 6075,
      "overlook": 6076,
      "##using": 6077,
      "somebody": 6078,
      "basement": 6079,
      "scout": 6080,
      "perf": 6081,
      "unseen": 6082,
      "guiding": 6083,
      "guests": 6084,
      "real": 6085,
      "height": 6086,
      "helped": 6087,
      "plush": 6088,
      "chews": 6089,
      "prob": 6090,
      "singers": 6091,
      "windbre": 6092,
      "cats": 6093,
      "sheer": 6094,
      "barn": 6095,
      "moon": 6096,
      "dribbling": 6097,
      "itself": 6098,
      "flame": 6099,
      "dilapidated": 6100,
      "likely": 6101,
      "##izes": 6102,
      "submer": 6103,
      "fully": 6104,
      "railway": 6105,
      "##rolling": 6106,
      "doesn": 6107,
      "pitching": 6108,
      "knock": 6109,
      "happening": 6110,
      "railings": 6111,
      "pedals": 6112,
      "##angu": 6113,
      "strap": 6114,
      "magn": 6115,
      "magic": 6116,
      "Worker": 6117,
      "excav": 6118,
      "cookies": 6119,
      "Team": 6120,
      "simult": 6121,
      "ceremon": 6122,
      "pigeon": 6123,
      "excitedly": 6124,
      "flea": 6125,
      "seeming": 6126,
      "everywhere": 6127,
      "Prof": 6128,
      "technic": 6129,
      "dropping": 6130,
      "communic": 6131,
      "crawls": 6132,
      "attendant": 6133,
      "removing": 6134,
      "Americans": 6135,
      "enclosure": 6136,
      "chisel": 6137,
      "stockings": 6138,
      "purchasing": 6139,
      "coconut": 6140,
      "Speed": 6141,
      "markings": 6142,
      "apparently": 6143,
      "cultural": 6144,
      "vibrant": 6145,
      "innertube": 6146,
      "Jewish": 6147,
      "snowmobile": 6148,
      "Texas": 6149,
      "favor": 6150,
      "tulips": 6151,
      "tambour": 6152,
      "simultane": 6153,
      "Cam": 6154,
      "Day": 6155,
      "Farm": 6156,
      "Gra": 6157,
      "Ice": 6158,
      "Kore": 6159,
      "Long": 6160,
      "Market": 6161,
      "Yellow": 6162,
      "best": 6163,
      "french": 6164,
      "heat": 6165,
      "langu": 6166,
      "pans": 6167,
      "sipping": 6168,
      "wades": 6169,
      "zom": 6170,
      "##muffs": 6171,
      "##wer": 6172,
      "instruction": 6173,
      "##itual": 6174,
      "##resh": 6175,
      "storm": 6176,
      "##orse": 6177,
      "##esus": 6178,
      "##opard": 6179,
      "toast": 6180,
      "##allic": 6181,
      "##ador": 6182,
      "dozen": 6183,
      "##storm": 6184,
      "##ashing": 6185,
      "##riers": 6186,
      "graph": 6187,
      "upright": 6188,
      "forming": 6189,
      "##eman": 6190,
      "overcoat": 6191,
      "leopard": 6192,
      "spir": 6193,
      "goers": 6194,
      "unison": 6195,
      "plow": 6196,
      "cheers": 6197,
      "proper": 6198,
      "armed": 6199,
      "devices": 6200,
      "trainer": 6201,
      "drivers": 6202,
      "##iven": 6203,
      "##osed": 6204,
      "veil": 6205,
      "wheat": 6206,
      "creates": 6207,
      "##hedral": 6208,
      "##weed": 6209,
      "breat": 6210,
      "breast": 6211,
      "concession": 6212,
      "snowboards": 6213,
      "distric": 6214,
      "crut": 6215,
      "weights": 6216,
      "earmuffs": 6217,
      "controls": 6218,
      "washer": 6219,
      "formally": 6220,
      "multi": 6221,
      "##reds": 6222,
      "collie": 6223,
      "shave": 6224,
      "balanced": 6225,
      "piercing": 6226,
      "reflecting": 6227,
      "heavyset": 6228,
      "panel": 6229,
      "Ladies": 6230,
      "confetti": 6231,
      "mule": 6232,
      "mopping": 6233,
      "warming": 6234,
      "designed": 6235,
      "bouncy": 6236,
      "remote": 6237,
      "floaties": 6238,
      "tugging": 6239,
      "Marathon": 6240,
      "tuxedos": 6241,
      "separ": 6242,
      "rusty": 6243,
      "pockets": 6244,
      "lantern": 6245,
      "selection": 6246,
      "films": 6247,
      "acrobatic": 6248,
      "searching": 6249,
      "stained": 6250,
      "scratching": 6251,
      "rabbits": 6252,
      "Orange": 6253,
      "sausages": 6254,
      "flooded": 6255,
      "storage": 6256,
      "fleece": 6257,
      "Cafe": 6258,
      "backstroke": 6259,
      "rehear": 6260,
      "Legos": 6261,
      "teddy": 6262,
      "probably": 6263,
      "favorite": 6264,
      "district": 6265,
      "\",": 6266,
      "Air": 6267,
      "French": 6268,
      "Go": 6269,
      "Ne": 6270,
      "Ok": 6271,
      "Surfer": 6272,
      "Very": 6273,
      "War": 6274,
      "Wor": 6275,
      "auto": 6276,
      "cush": 6277,
      "cyl": 6278,
      "ec": 6279,
      "gen": 6280,
      "hed": 6281,
      "jam": 6282,
      "pops": 6283,
      "roping": 6284,
      "random": 6285,
      "ritual": 6286,
      "took": 6287,
      "telling": 6288,
      "vocal": 6289,
      "##ae": 6290,
      "##abo": 6291,
      "##sping": 6292,
      "##mother": 6293,
      "##mely": 6294,
      "##well": 6295,
      "##capped": 6296,
      "##Bob": 6297,
      "##anitor": 6298,
      "inline": 6299,
      "##alks": 6300,
      "island": 6301,
      "shack": 6302,
      "##andex": 6303,
      "ank": 6304,
      "anticip": 6305,
      "situ": 6306,
      "hispanic": 6307,
      "thing": 6308,
      "##vern": 6309,
      "loose": 6310,
      "carved": 6311,
      "sombr": 6312,
      "##blem": 6313,
      "snowstorm": 6314,
      "snowcapped": 6315,
      "spandex": 6316,
      "baking": 6317,
      "seating": 6318,
      "seeds": 6319,
      "artic": 6320,
      "array": 6321,
      "goats": 6322,
      "woodland": 6323,
      "##illing": 6324,
      "darkened": 6325,
      "signal": 6326,
      "cathedral": 6327,
      "shed": 6328,
      "exit": 6329,
      "exotic": 6330,
      "flowery": 6331,
      "bearing": 6332,
      "besides": 6333,
      "metallic": 6334,
      "create": 6335,
      "hikes": 6336,
      "curling": 6337,
      "residential": 6338,
      "winning": 6339,
      "equestrian": 6340,
      "squad": 6341,
      "weeds": 6342,
      "grins": 6343,
      "closes": 6344,
      "paintbrush": 6345,
      "intric": 6346,
      "drain": 6347,
      "rounds": 6348,
      "participants": 6349,
      "princess": 6350,
      "profess": 6351,
      "kinds": 6352,
      "Sponge": 6353,
      "cooked": 6354,
      "carried": 6355,
      "sumo": 6356,
      "rollerblader": 6357,
      "trio": 6358,
      "receives": 6359,
      "liquor": 6360,
      "carpeted": 6361,
      "barrels": 6362,
      "pretends": 6363,
      "recre": 6364,
      "cabinet": 6365,
      "muzzles": 6366,
      "arranged": 6367,
      "wakeboarding": 6368,
      "cashier": 6369,
      "captured": 6370,
      "milling": 6371,
      "season": 6372,
      "wristband": 6373,
      "hopping": 6374,
      "hauling": 6375,
      "eager": 6376,
      "iPod": 6377,
      "husband": 6378,
      "architecture": 6379,
      "##ixture": 6380,
      "destination": 6381,
      "strawberry": 6382,
      "adolescent": 6383,
      "corrid": 6384,
      "puzzle": 6385,
      "dessert": 6386,
      "Outdoor": 6387,
      "Teenagers": 6388,
      "Bearded": 6389,
      "defender": 6390,
      "Golden": 6391,
      "wicker": 6392,
      "ceremonial": 6393,
      "simultaneously": 6394,
      "SpongeBob": 6395,
      "Ath": 6396,
      "Cars": 6397,
      "Fis": 6398,
      "Rod": 6399,
      "bong": 6400,
      "boot": 6401,
      "cem": 6402,
      "dent": 6403,
      "given": 6404,
      "hides": 6405,
      "jar": 6406,
      "lumber": 6407,
      "rig": 6408,
      "rapp": 6409,
      "rising": 6410,
      "sure": 6411,
      "zoo": 6412,
      "##glass": 6413,
      "##ran": 6414,
      "##uc": 6415,
      "##tling": 6416,
      "##mith": 6417,
      "##cro": 6418,
      "##yle": 6419,
      "##de": 6420,
      "##field": 6421,
      "##arat": 6422,
      "ones": 6423,
      "oncoming": 6424,
      "##atula": 6425,
      "stead": 6426,
      "shing": 6427,
      "##iders": 6428,
      "##ism": 6429,
      "##otion": 6430,
      "holes": 6431,
      "##nter": 6432,
      "downward": 6433,
      "smart": 6434,
      "talent": 6435,
      "##vender": 6436,
      "spatula": 6437,
      "conver": 6438,
      "teaches": 6439,
      "travers": 6440,
      "lavender": 6441,
      "sunhat": 6442,
      "##stry": 6443,
      "topped": 6444,
      "combat": 6445,
      "reve": 6446,
      "##antily": 6447,
      "##ript": 6448,
      "chew": 6449,
      "proc": 6450,
      "purs": 6451,
      "sleds": 6452,
      "towed": 6453,
      "winding": 6454,
      "slot": 6455,
      "shell": 6456,
      "exch": 6457,
      "cause": 6458,
      "surroundings": 6459,
      "desc": 6460,
      "kites": 6461,
      "cartwhe": 6462,
      "competes": 6463,
      "lost": 6464,
      "##corn": 6465,
      "eleg": 6466,
      "breath": 6467,
      "views": 6468,
      "patri": 6469,
      "docked": 6470,
      "potatoes": 6471,
      "memorial": 6472,
      "businessmen": 6473,
      "pedal": 6474,
      "protect": 6475,
      "contains": 6476,
      "styled": 6477,
      "sculptures": 6478,
      "assisting": 6479,
      "tongs": 6480,
      "cardigan": 6481,
      "glider": 6482,
      "features": 6483,
      "sailboats": 6484,
      "wheelchairs": 6485,
      "message": 6486,
      "messenger": 6487,
      "rubble": 6488,
      "cobbled": 6489,
      "exercises": 6490,
      "billi": 6491,
      "headscarves": 6492,
      "elephants": 6493,
      "chickens": 6494,
      "pretz": 6495,
      "Firemen": 6496,
      "salad": 6497,
      "bagpipe": 6498,
      "everyone": 6499,
      "await": 6500,
      "arrange": 6501,
      "reclining": 6502,
      "priest": 6503,
      "alcoholic": 6504,
      "concentrating": 6505,
      "respond": 6506,
      "constructing": 6507,
      "Amish": 6508,
      "extremely": 6509,
      "Monopoly": 6510,
      "cubicle": 6511,
      "Players": 6512,
      "Shoppers": 6513,
      "obscured": 6514,
      "Photogra": 6515,
      "buttons": 6516,
      "Arabic": 6517,
      "culture": 6518,
      "depicting": 6519,
      "dolphin": 6520,
      "daily": 6521,
      "noodles": 6522,
      "##piece": 6523,
      "Rollerblades": 6524,
      "sunshine": 6525,
      "##ltimate": 6526,
      "windbreaker": 6527,
      "submerged": 6528,
      "corridor": 6529,
      "13": 6530,
      "Easter": 6531,
      "Every": 6532,
      "Mouse": 6533,
      "Over": 6534,
      "Wall": 6535,
      "Water": 6536,
      "dental": 6537,
      "gla": 6538,
      "gum": 6539,
      "hour": 6540,
      "rom": 6541,
      "sash": 6542,
      "sorts": 6543,
      "size": 6544,
      "vel": 6545,
      "##gun": 6546,
      "##ique": 6547,
      "##book": 6548,
      "##sting": 6549,
      "##pen": 6550,
      "##hirt": 6551,
      "##ware": 6552,
      "##writ": 6553,
      "##anting": 6554,
      "##anke": 6555,
      "inc": 6556,
      "##orary": 6557,
      "##ether": 6558,
      "##las": 6559,
      "any": 6560,
      "girlfriend": 6561,
      "beating": 6562,
      "our": 6563,
      "##aint": 6564,
      "##cement": 6565,
      "tagged": 6566,
      "backward": 6567,
      "##sem": 6568,
      "Ange": 6569,
      "hate": 6570,
      "overcast": 6571,
      "crowds": 6572,
      "##ept": 6573,
      "baseman": 6574,
      "waff": 6575,
      "alike": 6576,
      "tram": 6577,
      "unident": 6578,
      "unwra": 6579,
      "guitarists": 6580,
      "##antic": 6581,
      "proced": 6582,
      "rake": 6583,
      "tanned": 6584,
      "agility": 6585,
      "ensem": 6586,
      "exits": 6587,
      "marina": 6588,
      "moss": 6589,
      "disco": 6590,
      "apparat": 6591,
      "pastries": 6592,
      "bowtie": 6593,
      "diaper": 6594,
      "competitor": 6595,
      "competitors": 6596,
      "lollip": 6597,
      "appearing": 6598,
      "elementary": 6599,
      "resort": 6600,
      "write": 6601,
      "earb": 6602,
      "contin": 6603,
      "closing": 6604,
      "crash": 6605,
      "##looker": 6606,
      "steer": 6607,
      "Groups": 6608,
      "directs": 6609,
      "jogger": 6610,
      "tubes": 6611,
      "##essional": 6612,
      "casts": 6613,
      "rounding": 6614,
      "rugs": 6615,
      "tromb": 6616,
      "engaging": 6617,
      "##angle": 6618,
      "operation": 6619,
      "tackles": 6620,
      "pulley": 6621,
      "retail": 6622,
      "wetsuits": 6623,
      "wineglasses": 6624,
      "Onlookers": 6625,
      "positioned": 6626,
      "brooms": 6627,
      "keeping": 6628,
      "keeps": 6629,
      "vacation": 6630,
      "pretend": 6631,
      "recently": 6632,
      "donkeys": 6633,
      "exhibition": 6634,
      "delivery": 6635,
      "peeks": 6636,
      "##working": 6637,
      "sniffs": 6638,
      "bronze": 6639,
      "angle": 6640,
      "feathered": 6641,
      "congregate": 6642,
      "tomato": 6643,
      "sari": 6644,
      "Starb": 6645,
      "symbols": 6646,
      "lettering": 6647,
      "question": 6648,
      "Motorcycle": 6649,
      "Gentleman": 6650,
      "cryst": 6651,
      "tickets": 6652,
      "assembled": 6653,
      "vaulting": 6654,
      "newlywed": 6655,
      "Disney": 6656,
      "Obama": 6657,
      "technician": 6658,
      "Korean": 6659,
      "language": 6660,
      "graphic": 6661,
      "crutches": 6662,
      "professor": 6663,
      "Big": 6664,
      "Bicycle": 6665,
      "Bost": 6666,
      "Gray": 6667,
      "Light": 6668,
      "Pizza": 6669,
      "Qu": 6670,
      "Ru": 6671,
      "Tra": 6672,
      "Toy": 6673,
      "Ve": 6674,
      "Wal": 6675,
      "cinder": 6676,
      "dum": 6677,
      "dut": 6678,
      "ditch": 6679,
      "era": 6680,
      "gain": 6681,
      "hid": 6682,
      "jug": 6683,
      "janitor": 6684,
      "ket": 6685,
      "lun": 6686,
      "lemon": 6687,
      "mache": 6688,
      "pam": 6689,
      "puffy": 6690,
      "rises": 6691,
      "temp": 6692,
      "vast": 6693,
      "##green": 6694,
      "##mic": 6695,
      "##ki": 6696,
      "##hole": 6697,
      "##woman": 6698,
      "##yond": 6699,
      "##robe": 6700,
      "onlooker": 6701,
      "##oming": 6702,
      "##etery": 6703,
      "##lah": 6704,
      "##ands": 6705,
      "doc": 6706,
      "challen": 6707,
      "##una": 6708,
      "beyond": 6709,
      "smelling": 6710,
      "poking": 6711,
      "brownish": 6712,
      "convey": 6713,
      "bale": 6714,
      "scope": 6715,
      "scantily": 6716,
      "offers": 6717,
      "percuss": 6718,
      "brimmed": 6719,
      "bringing": 6720,
      "launch": 6721,
      "unit": 6722,
      "dangling": 6723,
      "lives": 6724,
      "##neck": 6725,
      "theme": 6726,
      "adv": 6727,
      "swimwear": 6728,
      "rafts": 6729,
      "towels": 6730,
      "armor": 6731,
      "slopes": 6732,
      "deal": 6733,
      "captain": 6734,
      "##ortant": 6735,
      "hilly": 6736,
      "solder": 6737,
      "soaked": 6738,
      "passion": 6739,
      "pride": 6740,
      "prim": 6741,
      "kitten": 6742,
      "bats": 6743,
      "batman": 6744,
      "cord": 6745,
      "amused": 6746,
      "loaf": 6747,
      "smock": 6748,
      "kneel": 6749,
      "raining": 6750,
      "skipping": 6751,
      "patrol": 6752,
      "##wns": 6753,
      "gloved": 6754,
      "##ugged": 6755,
      "pitbull": 6756,
      "interested": 6757,
      "collide": 6758,
      "shake": 6759,
      "shady": 6760,
      "##almon": 6761,
      "artistic": 6762,
      "participates": 6763,
      "streamers": 6764,
      "starring": 6765,
      "straps": 6766,
      "fighters": 6767,
      "pairs": 6768,
      "pancake": 6769,
      "dunking": 6770,
      "knitted": 6771,
      "guarding": 6772,
      "confused": 6773,
      "pinned": 6774,
      "rubs": 6775,
      "condition": 6776,
      "peaceful": 6777,
      "embraces": 6778,
      "tightly": 6779,
      "trays": 6780,
      "superman": 6781,
      "parachuting": 6782,
      "electronics": 6783,
      "popping": 6784,
      "##ebra": 6785,
      "organized": 6786,
      "emerges": 6787,
      "extends": 6788,
      "awaits": 6789,
      "impro": 6790,
      "tricycles": 6791,
      "lounges": 6792,
      "attraction": 6793,
      "slab": 6794,
      "##ippers": 6795,
      "descend": 6796,
      "hooked": 6797,
      "apparel": 6798,
      "judges": 6799,
      "turtleneck": 6800,
      "Colle": 6801,
      "addresses": 6802,
      "Bicyclists": 6803,
      "Great": 6804,
      "historic": 6805,
      "assortment": 6806,
      "contemplating": 6807,
      "horizontal": 6808,
      "dominoes": 6809,
      "wielding": 6810,
      "Swimmers": 6811,
      "Budd": 6812,
      "saxophones": 6813,
      "ponch": 6814,
      "hawk": 6815,
      "caricature": 6816,
      "magnifying": 6817,
      "seemingly": 6818,
      "breathing": 6819,
      "ankle": 6820,
      "Fisher": 6821,
      "cemetery": 6822,
      "ensemble": 6823,
      "apparatus": 6824,
      "crystal": 6825,
      "Boston": 6826,
      "pamph": 6827,
      "percussion": 6828,
      "Bare": 6829,
      "Cyclist": 6830,
      "Dr": 6831,
      "France": 6832,
      "Happy": 6833,
      "Halloween": 6834,
      "Jesus": 6835,
      "Mr": 6836,
      "Pa": 6837,
      "Rug": 6838,
      "Ste": 6839,
      "Vend": 6840,
      "Wi": 6841,
      "Washing": 6842,
      "ast": 6843,
      "cuto": 6844,
      "due": 6845,
      "dug": 6846,
      "escape": 6847,
      "iro": 6848,
      "kilts": 6849,
      "lid": 6850,
      "mallet": 6851,
      "national": 6852,
      "oll": 6853,
      "pear": 6854,
      "rather": 6855,
      "salmon": 6856,
      "testing": 6857,
      "unt": 6858,
      "ultimate": 6859,
      "vase": 6860,
      "veter": 6861,
      "##gra": 6862,
      "##rup": 6863,
      "##ien": 6864,
      "##ially": 6865,
      "##pa": 6866,
      "##pect": 6867,
      "##ule": 6868,
      "##tand": 6869,
      "##mined": 6870,
      "##kins": 6871,
      "##kward": 6872,
      "##die": 6873,
      "##fo": 6874,
      "##first": 6875,
      "##zil": 6876,
      "##inn": 6877,
      "incoming": 6878,
      "##rot": 6879,
      "##rope": 6880,
      "stock": 6881,
      "##orter": 6882,
      "shit": 6883,
      "tote": 6884,
      "anvil": 6885,
      "chaps": 6886,
      "chubby": 6887,
      "##strip": 6888,
      "beans": 6889,
      "bug": 6890,
      "cob": 6891,
      "##elly": 6892,
      "##airs": 6893,
      "grasping": 6894,
      "##achi": 6895,
      "cler": 6896,
      "clip": 6897,
      "clust": 6898,
      "skill": 6899,
      "ridge": 6900,
      "overturned": 6901,
      "someones": 6902,
      "##pled": 6903,
      "tend": 6904,
      "hairy": 6905,
      "pavil": 6906,
      "gondo": 6907,
      "##ubb": 6908,
      "phys": 6909,
      "add": 6910,
      "advent": 6911,
      "suitcases": 6912,
      "climbed": 6913,
      "kiddie": 6914,
      "Christ": 6915,
      "coverings": 6916,
      "except": 6917,
      "cables": 6918,
      "disk": 6919,
      "##orted": 6920,
      "flas": 6921,
      "##osc": 6922,
      "soars": 6923,
      "##ronts": 6924,
      "bowing": 6925,
      "strad": 6926,
      "feed": 6927,
      "bookbag": 6928,
      "battling": 6929,
      "artific": 6930,
      "meter": 6931,
      "stairwell": 6932,
      "noses": 6933,
      "should": 6934,
      "curious": 6935,
      "viewed": 6936,
      "fourth": 6937,
      "better": 6938,
      "rooster": 6939,
      "index": 6940,
      "contact": 6941,
      "washed": 6942,
      "knives": 6943,
      "crab": 6944,
      "piled": 6945,
      "State": 6946,
      "harv": 6947,
      "surfboards": 6948,
      "clasp": 6949,
      "meats": 6950,
      "partly": 6951,
      "##kerchief": 6952,
      "protester": 6953,
      "gymnastic": 6954,
      "##angular": 6955,
      "starts": 6956,
      "seaweed": 6957,
      "cloths": 6958,
      "donations": 6959,
      "kayakers": 6960,
      "frames": 6961,
      "mixes": 6962,
      "dunes": 6963,
      "shapes": 6964,
      "awkward": 6965,
      "welds": 6966,
      "focuses": 6967,
      "Bride": 6968,
      "powerpoint": 6969,
      "defense": 6970,
      "delic": 6971,
      "tightrope": 6972,
      "parachutes": 6973,
      "Chef": 6974,
      "punk": 6975,
      "Crowds": 6976,
      "fishermen": 6977,
      "popul": 6978,
      "popcorn": 6979,
      "gowns": 6980,
      "join": 6981,
      "delivering": 6982,
      "important": 6983,
      "wigs": 6984,
      "parasail": 6985,
      "folder": 6986,
      "##entral": 6987,
      "assembling": 6988,
      "struggles": 6989,
      "rustic": 6990,
      "shielding": 6991,
      "locked": 6992,
      "tutus": 6993,
      "bounds": 6994,
      "##flowers": 6995,
      "chiseling": 6996,
      "leashed": 6997,
      "scoop": 6998,
      "saris": 6999,
      "oversized": 7000,
      "cockpit": 7001,
      "navigates": 7002,
      "##estern": 7003,
      "Greyhound": 7004,
      "samples": 7005,
      "Bikers": 7006,
      "##ology": 7007,
      "assorted": 7008,
      "skelet": 7009,
      "weapon": 7010,
      "dandelion": 7011,
      "wonder": 7012,
      "skimpy": 7013,
      "Performers": 7014,
      "mesh": 7015,
      "backhoe": 7016,
      "Africans": 7017,
      "Brazil": 7018,
      "meditating": 7019,
      "Subway": 7020,
      "Seattle": 7021,
      "dangerous": 7022,
      "accepting": 7023,
      "currently": 7024,
      "Apple": 7025,
      "Professional": 7026,
      "Speedo": 7027,
      "Oklah": 7028,
      "cushion": 7029,
      "intricate": 7030,
      "exchange": 7031,
      "earbuds": 7032,
      "conveyor": 7033,
      "Rugby": 7034,
      "Washington": 7035,
      "cutoff": 7036,
      "ironing": 7037,
      "Oklahoma": 7038,
      "19": 7039,
      "Bat": 7040,
      "Bike": 7041,
      "For": 7042,
      "Fans": 7043,
      "Ford": 7044,
      "Hot": 7045,
      "Pr": 7046,
      "Tennis": 7047,
      "Wa": 7048,
      "Yanke": 7049,
      "esp": 7050,
      "fut": 7051,
      "firing": 7052,
      "gay": 7053,
      "grip": 7054,
      "ginger": 7055,
      "jazz": 7056,
      "kabo": 7057,
      "lon": 7058,
      "mops": 7059,
      "mount": 7060,
      "oar": 7061,
      "pane": 7062,
      "peng": 7063,
      "pleas": 7064,
      "pomp": 7065,
      "trou": 7066,
      "tether": 7067,
      "vine": 7068,
      "zebra": 7069,
      "##aust": 7070,
      "##nia": 7071,
      "##rac": 7072,
      "##ifor": 7073,
      "##lin": 7074,
      "##over": 7075,
      "##ove": 7076,
      "##orous": 7077,
      "##mark": 7078,
      "##care": 7079,
      "##ja": 7080,
      "##vation": 7081,
      "##inter": 7082,
      "inse": 7083,
      "##itting": 7084,
      "##het": 7085,
      "##alds": 7086,
      "##ene": 7087,
      "##anding": 7088,
      "##sstand": 7089,
      "playhouse": 7090,
      "##rael": 7091,
      "chip": 7092,
      "changing": 7093,
      "##otch": 7094,
      "bee": 7095,
      "beaded": 7096,
      "thread": 7097,
      "##rows": 7098,
      "##illet": 7099,
      "##rig": 7100,
      "herd": 7101,
      "##elcome": 7102,
      "aside": 7103,
      "pokes": 7104,
      "##ford": 7105,
      "snaps": 7106,
      "flipped": 7107,
      "overh": 7108,
      "leis": 7109,
      "handic": 7110,
      "handkerchief": 7111,
      "sponge": 7112,
      "conven": 7113,
      "master": 7114,
      "##igator": 7115,
      "seash": 7116,
      "arched": 7117,
      "scary": 7118,
      "scared": 7119,
      "offer": 7120,
      "##ista": 7121,
      "##isted": 7122,
      "pail": 7123,
      "headfirst": 7124,
      "reb": 7125,
      "access": 7126,
      "darker": 7127,
      "prom": 7128,
      "raw": 7129,
      "footp": 7130,
      "barriers": 7131,
      "exe": 7132,
      "shots": 7133,
      "mos": 7134,
      "##ivan": 7135,
      "ripped": 7136,
      "bears": 7137,
      "##nyrd": 7138,
      "##rish": 7139,
      "##action": 7140,
      "studies": 7141,
      "weigh": 7142,
      "grin": 7143,
      "refresh": 7144,
      "entry": 7145,
      "huts": 7146,
      "garments": 7147,
      "crafting": 7148,
      "structures": 7149,
      "potted": 7150,
      "circles": 7151,
      "decorating": 7152,
      "littered": 7153,
      "masked": 7154,
      "quart": 7155,
      "monster": 7156,
      "violinist": 7157,
      "dramat": 7158,
      "trot": 7159,
      "sledge": 7160,
      "seeing": 7161,
      "broch": 7162,
      "ends": 7163,
      "juggler": 7164,
      "keys": 7165,
      "obstacles": 7166,
      "dunks": 7167,
      "professionals": 7168,
      "wineglass": 7169,
      "sales": 7170,
      "stools": 7171,
      "rubbing": 7172,
      "scrub": 7173,
      "scruffy": 7174,
      "defensive": 7175,
      "lamps": 7176,
      "maintain": 7177,
      "200": 7178,
      "buys": 7179,
      "supervis": 7180,
      "lanes": 7181,
      "owners": 7182,
      "Adult": 7183,
      "leotards": 7184,
      "pineap": 7185,
      "records": 7186,
      "mechanic": 7187,
      "struggle": 7188,
      "reclines": 7189,
      "geese": 7190,
      "McDonalds": 7191,
      "mascara": 7192,
      "adorable": 7193,
      "Color": 7194,
      "Israel": 7195,
      "kimonos": 7196,
      "occur": 7197,
      "rabbit": 7198,
      "eagle": 7199,
      "symbol": 7200,
      "limbs": 7201,
      "ascending": 7202,
      "ferry": 7203,
      "mingle": 7204,
      "hamburgers": 7205,
      "strumming": 7206,
      "Kitchen": 7207,
      "damaged": 7208,
      "slowly": 7209,
      "fluorescent": 7210,
      "blindfolded": 7211,
      "goofy": 7212,
      "Members": 7213,
      "occupied": 7214,
      "transporting": 7215,
      "undershirt": 7216,
      "zombie": 7217,
      "rehearsing": 7218,
      "dentist": 7219,
      "cartwheel": 7220,
      "patriotic": 7221,
      "billiards": 7222,
      "kettle": 7223,
      "##oscope": 7224,
      "artificial": 7225,
      "##ifornia": 7226,
      "seashore": 7227,
      "50": 7228,
      "Cr": 7229,
      "Inter": 7230,
      "Local": 7231,
      "Ser": 7232,
      "Sun": 7233,
      "Sum": 7234,
      "Singer": 7235,
      "View": 7236,
      "aid": 7237,
      "bout": 7238,
      "bins": 7239,
      "binder": 7240,
      "fighter": 7241,
      "junk": 7242,
      "kart": 7243,
      "might": 7244,
      "mout": 7245,
      "non": 7246,
      "nine": 7247,
      "nude": 7248,
      "oars": 7249,
      "rot": 7250,
      "sips": 7251,
      "trous": 7252,
      "##ault": 7253,
      "##bell": 7254,
      "##son": 7255,
      "##ox": 7256,
      "##torch": 7257,
      "##wning": 7258,
      "##car": 7259,
      "##col": 7260,
      "##xim": 7261,
      "##IN": 7262,
      "##inte": 7263,
      "##lease": 7264,
      "##arts": 7265,
      "##alia": 7266,
      "##atic": 7267,
      "##ench": 7268,
      "isle": 7269,
      "manip": 7270,
      "manual": 7271,
      "##omot": 7272,
      "steth": 7273,
      "strong": 7274,
      "shined": 7275,
      "##oos": 7276,
      "##oored": 7277,
      "##ico": 7278,
      "##icag": 7279,
      "playpen": 7280,
      "frowning": 7281,
      "beaker": 7282,
      "wallet": 7283,
      "##riage": 7284,
      "smoot": 7285,
      "##ays": 7286,
      "grain": 7287,
      "greenhouse": 7288,
      "skillet": 7289,
      "swamp": 7290,
      "orders": 7291,
      "snowf": 7292,
      "snowbank": 7293,
      "##terior": 7294,
      "bage": 7295,
      "baker": 7296,
      "##eper": 7297,
      "sequ": 7298,
      "hairst": 7299,
      "pastry": 7300,
      "survey": 7301,
      "woodworking": 7302,
      "guides": 7303,
      "univers": 7304,
      "pregn": 7305,
      "plac": 7306,
      "proj": 7307,
      "rakes": 7308,
      "sleigh": 7309,
      "strips": 7310,
      "footbr": 7311,
      "slung": 7312,
      "mush": 7313,
      "capri": 7314,
      "trek": 7315,
      "alligator": 7316,
      "##agle": 7317,
      "sauna": 7318,
      "##berman": 7319,
      "canned": 7320,
      "cellular": 7321,
      "soaking": 7322,
      "##scotch": 7323,
      "stride": 7324,
      "diag": 7325,
      "newsstand": 7326,
      "backpacker": 7327,
      "drumsticks": 7328,
      "turb": 7329,
      "shouting": 7330,
      "hipp": 7331,
      "resear": 7332,
      "volunte": 7333,
      "stoplight": 7334,
      "squat": 7335,
      "welder": 7336,
      "earring": 7337,
      "bottled": 7338,
      "bucked": 7339,
      "silk": 7340,
      "preser": 7341,
      "nothing": 7342,
      "##tible": 7343,
      "drawings": 7344,
      "quilt": 7345,
      "interior": 7346,
      "locomot": 7347,
      "projected": 7348,
      "tunic": 7349,
      "fairy": 7350,
      "canoeing": 7351,
      "Sports": 7352,
      "glowing": 7353,
      "sails": 7354,
      "fingern": 7355,
      "twent": 7356,
      "entertainment": 7357,
      "pinstrip": 7358,
      "extra": 7359,
      "receive": 7360,
      "tossed": 7361,
      "remain": 7362,
      "powered": 7363,
      "croche": 7364,
      "blowtorch": 7365,
      "punches": 7366,
      "grandmother": 7367,
      "United": 7368,
      "emerging": 7369,
      "wakeboarder": 7370,
      "presses": 7371,
      "folk": 7372,
      "merchant": 7373,
      "drops": 7374,
      "aims": 7375,
      "##ipper": 7376,
      "descends": 7377,
      "shields": 7378,
      "bracelets": 7379,
      "poodles": 7380,
      "selecting": 7381,
      "constructed": 7382,
      "hopscotch": 7383,
      "addressing": 7384,
      "citizen": 7385,
      "historical": 7386,
      "minivan": 7387,
      "hamburger": 7388,
      "Eleven": 7389,
      "installing": 7390,
      "determined": 7391,
      "surgeon": 7392,
      "greeting": 7393,
      "olympics": 7394,
      "Hikers": 7395,
      "Italian": 7396,
      "demol": 7397,
      "patrons": 7398,
      "California": 7399,
      "spending": 7400,
      "tambourine": 7401,
      "vocalist": 7402,
      "shingles": 7403,
      "convertible": 7404,
      "revealing": 7405,
      "elegant": 7406,
      "pretzels": 7407,
      "unidentified": 7408,
      "procedure": 7409,
      "Starbucks": 7410,
      "hidden": 7411,
      "College": 7412,
      "Wii": 7413,
      "clipboard": 7414,
      "pavilion": 7415,
      "skeleton": 7416,
      "convenience": 7417,
      "trousers": 7418,
      "manipul": 7419,
      "##icago": 7420,
      "smoothing": 7421,
      "pregnant": 7422,
      "25": 7423,
      "30": 7424,
      "Ber": 7425,
      "Cap": 7426,
      "Holl": 7427,
      "Jack": 7428,
      "Looks": 7429,
      "Mac": 7430,
      "Ninte": 7431,
      "San": 7432,
      "Ter": 7433,
      "Ten": 7434,
      "bree": 7435,
      "dart": 7436,
      "divid": 7437,
      "fau": 7438,
      "faced": 7439,
      "gated": 7440,
      "hon": 7441,
      "iced": 7442,
      "japan": 7443,
      "lla": 7444,
      "miss": 7445,
      "nin": 7446,
      "page": 7447,
      "rise": 7448,
      "san": 7449,
      "sed": 7450,
      "sip": 7451,
      "sisters": 7452,
      "vers": 7453,
      "vess": 7454,
      "wade": 7455,
      "wanting": 7456,
      "zo": 7457,
      "##ave": 7458,
      "##gles": 7459,
      "##ij": 7460,
      "##iors": 7461,
      "##iachi": 7462,
      "##lift": 7463,
      "##bench": 7464,
      "##thing": 7465,
      "##thers": 7466,
      "##mit": 7467,
      "##made": 7468,
      "##mates": 7469,
      "##wers": 7470,
      "##vine": 7471,
      "##MA": 7472,
      "once": 7473,
      "##atively": 7474,
      "##omet": 7475,
      "##omas": 7476,
      "##acent": 7477,
      "##oust": 7478,
      "blown": 7479,
      "##anda": 7480,
      "anch": 7481,
      "sites": 7482,
      "chops": 7483,
      "blacks": 7484,
      "##otation": 7485,
      "beater": 7486,
      "cola": 7487,
      "##keeper": 7488,
      "graying": 7489,
      "grasp": 7490,
      "##apes": 7491,
      "worship": 7492,
      "poker": 7493,
      "poised": 7494,
      "##tled": 7495,
      "##veled": 7496,
      "flotation": 7497,
      "spiderman": 7498,
      "sews": 7499,
      "scoring": 7500,
      "##cert": 7501,
      "hairnet": 7502,
      "##pper": 7503,
      "paw": 7504,
      "pause": 7505,
      "workmen": 7506,
      "workbench": 7507,
      "drunk": 7508,
      "rect": 7509,
      "requ": 7510,
      "suited": 7511,
      "problem": 7512,
      "Seg": 7513,
      "mothers": 7514,
      "enc": 7515,
      "attaching": 7516,
      "Chicago": 7517,
      "exterior": 7518,
      "##shot": 7519,
      "cakes": 7520,
      "pastel": 7521,
      "restaurants": 7522,
      "passage": 7523,
      "matches": 7524,
      "diam": 7525,
      "cowgirl": 7526,
      "metrop": 7527,
      "crest": 7528,
      "##izard": 7529,
      "##ymn": 7530,
      "shoesh": 7531,
      "resem": 7532,
      "study": 7533,
      "classical": 7534,
      "graffitied": 7535,
      "squinting": 7536,
      "grinning": 7537,
      "audio": 7538,
      "peaks": 7539,
      "entire": 7540,
      "ramps": 7541,
      "banks": 7542,
      "banquet": 7543,
      "stationary": 7544,
      "presum": 7545,
      "function": 7546,
      "landed": 7547,
      "decoration": 7548,
      "Concert": 7549,
      "partying": 7550,
      "hammers": 7551,
      "burgers": 7552,
      "visit": 7553,
      "telescopes": 7554,
      "secured": 7555,
      "windowsill": 7556,
      "brothers": 7557,
      "bookshe": 7558,
      "Spiderman": 7559,
      "squares": 7560,
      "posts": 7561,
      "glides": 7562,
      "eyeb": 7563,
      "finishes": 7564,
      "travelers": 7565,
      "Newly": 7566,
      "possible": 7567,
      "adjacent": 7568,
      "warning": 7569,
      "carpenter": 7570,
      "petals": 7571,
      "bounces": 7572,
      "choppy": 7573,
      "taxis": 7574,
      "retrieves": 7575,
      "Skier": 7576,
      "weaves": 7577,
      "saluting": 7578,
      "trimmed": 7579,
      "region": 7580,
      "extending": 7581,
      "breakdancer": 7582,
      "parasol": 7583,
      "leaned": 7584,
      "supported": 7585,
      "shrubs": 7586,
      "shrubb": 7587,
      "congregating": 7588,
      "satche": 7589,
      "squirting": 7590,
      "Teenage": 7591,
      "concentrates": 7592,
      "respect": 7593,
      "judge": 7594,
      "Bicyclist": 7595,
      "return": 7596,
      "sample": 7597,
      "coconuts": 7598,
      "Photo": 7599,
      "Business": 7600,
      "arrive": 7601,
      "flashlight": 7602,
      "Road": 7603,
      "bonfire": 7604,
      "squeezing": 7605,
      "taste": 7606,
      "admires": 7607,
      "gorilla": 7608,
      "skyscrapers": 7609,
      "Patr": 7610,
      "announ": 7611,
      "reviewing": 7612,
      "splits": 7613,
      "Latin": 7614,
      "limo": 7615,
      "torches": 7616,
      "perfect": 7617,
      "instructions": 7618,
      "World": 7619,
      "gener": 7620,
      "eagerly": 7621,
      "trombone": 7622,
      "Russ": 7623,
      "Buddhist": 7624,
      "##foam": 7625,
      "gondola": 7626,
      "stethoscope": 7627,
      "footbridge": 7628,
      "mushroom": 7629,
      "metropol": 7630,
      "shrubbery": 7631,
      "Al": 7632,
      "Back": 7633,
      "Cro": 7634,
      "East": 7635,
      "Fla": 7636,
      "Good": 7637,
      "Guitar": 7638,
      "Gymn": 7639,
      "Hello": 7640,
      "Jockey": 7641,
      "Looking": 7642,
      "Mic": 7643,
      "Mountain": 7644,
      "Mart": 7645,
      "Not": 7646,
      "Vi": 7647,
      "Wearing": 7648,
      "bone": 7649,
      "cere": 7650,
      "dil": 7651,
      "dren": 7652,
      "duff": 7653,
      "dorm": 7654,
      "fiddle": 7655,
      "gates": 7656,
      "hig": 7657,
      "kept": 7658,
      "lung": 7659,
      "ner": 7660,
      "ply": 7661,
      "sin": 7662,
      "suds": 7663,
      "ti": 7664,
      "tide": 7665,
      "tilted": 7666,
      "won": 7667,
      "waring": 7668,
      "yet": 7669,
      "##looking": 7670,
      "##bly": 7671,
      "##of": 7672,
      "##ued": 7673,
      "##uish": 7674,
      "##walks": 7675,
      "##cis": 7676,
      "##dile": 7677,
      "##Aid": 7678,
      "##vet": 7679,
      "##CE": 7680,
      "##itan": 7681,
      "##itation": 7682,
      "##itively": 7683,
      "##rofoam": 7684,
      "##atch": 7685,
      "manic": 7686,
      "##acier": 7687,
      "states": 7688,
      "##owed": 7689,
      "blade": 7690,
      "##iser": 7691,
      "bod": 7692,
      "boating": 7693,
      "ant": 7694,
      "youngsters": 7695,
      "##ota": 7696,
      "host": 7697,
      "hovering": 7698,
      "##rior": 7699,
      "##eller": 7700,
      "backlit": 7701,
      "ash": 7702,
      "somers": 7703,
      "poke": 7704,
      "##fort": 7705,
      "ridding": 7706,
      "##rought": 7707,
      "personal": 7708,
      "handful": 7709,
      "handmade": 7710,
      "spraw": 7711,
      "bales": 7712,
      "maker": 7713,
      "seal": 7714,
      "##estig": 7715,
      "archer": 7716,
      "##istic": 7717,
      "alb": 7718,
      "trap": 7719,
      "worked": 7720,
      "performed": 7721,
      "##dles": 7722,
      "heeled": 7723,
      "lizard": 7724,
      "pharm": 7725,
      "walkers": 7726,
      "could": 7727,
      "##iller": 7728,
      "rocker": 7729,
      "plum": 7730,
      "slender": 7731,
      "##ques": 7732,
      "bagg": 7733,
      "slices": 7734,
      "sweaty": 7735,
      "attired": 7736,
      "##ugging": 7737,
      "marches": 7738,
      "marriage": 7739,
      "footballer": 7740,
      "##ucked": 7741,
      "fists": 7742,
      "##eeing": 7743,
      "appla": 7744,
      "##orth": 7745,
      "fires": 7746,
      "passerby": 7747,
      "##yclers": 7748,
      "batting": 7749,
      "##erees": 7750,
      "novel": 7751,
      "curled": 7752,
      "laps": 7753,
      "snowboarders": 7754,
      "##auty": 7755,
      "crad": 7756,
      "squir": 7757,
      "referees": 7758,
      "cupcakes": 7759,
      "bangs": 7760,
      "homework": 7761,
      "steal": 7762,
      "blank": 7763,
      "landsc": 7764,
      "mult": 7765,
      "circus": 7766,
      "bulls": 7767,
      "barely": 7768,
      "##ushi": 7769,
      "relaxed": 7770,
      "repl": 7771,
      "reporter": 7772,
      "pedaling": 7773,
      "##codile": 7774,
      "drags": 7775,
      "medals": 7776,
      "protecting": 7777,
      "mirrored": 7778,
      "typewrit": 7779,
      "What": 7780,
      "profile": 7781,
      "sprints": 7782,
      "embro": 7783,
      "putt": 7784,
      "twin": 7785,
      "supporting": 7786,
      "naps": 7787,
      "portion": 7788,
      "begging": 7789,
      "harnessed": 7790,
      "dollhouse": 7791,
      "hearts": 7792,
      "pajama": 7793,
      "stacking": 7794,
      "fills": 7795,
      "crocodile": 7796,
      "investig": 7797,
      "exhaust": 7798,
      "fencers": 7799,
      "expressions": 7800,
      "solitary": 7801,
      "beanbag": 7802,
      "sandwic": 7803,
      "Tourist": 7804,
      "assembly": 7805,
      "decide": 7806,
      "instructing": 7807,
      "crowns": 7808,
      "crayon": 7809,
      "defending": 7810,
      "pirates": 7811,
      "Musician": 7812,
      "tasks": 7813,
      "curtains": 7814,
      "squirted": 7815,
      "interviewed": 7816,
      "latex": 7817,
      "diverse": 7818,
      "stainless": 7819,
      "purchases": 7820,
      "gazebo": 7821,
      "emotion": 7822,
      "Biker": 7823,
      "Deere": 7824,
      "mittens": 7825,
      "enthusiastic": 7826,
      "enthusiastically": 7827,
      "growing": 7828,
      "spiked": 7829,
      "surgeons": 7830,
      "proudly": 7831,
      "glancing": 7832,
      "Passengers": 7833,
      "sexy": 7834,
      "attentively": 7835,
      "windsurfing": 7836,
      "bongo": 7837,
      "onesie": 7838,
      "procession": 7839,
      "lollipop": 7840,
      "conditions": 7841,
      "Vendors": 7842,
      "populated": 7843,
      "weighing": 7844,
      "KitchenAid": 7845,
      "university": 7846,
      "Nintendo": 7847,
      "vessel": 7848,
      "blacksmith": 7849,
      "diamond": 7850,
      "shoeshine": 7851,
      "presumably": 7852,
      "Patrick": 7853,
      "Mickey": 7854,
      "cereal": 7855,
      "dilig": 7856,
      "duffel": 7857,
      "!\"": 7858,
      ",\"": 7859,
      "And": 7860,
      "Ball": 7861,
      "Ge": 7862,
      "Irish": 7863,
      "Mich": 7864,
      "Pe": 7865,
      "Pale": 7866,
      "Ra": 7867,
      "Rep": 7868,
      "Renaissance": 7869,
      "Sup": 7870,
      "Sky": 7871,
      "Tan": 7872,
      "Vict": 7873,
      "Youth": 7874,
      "awe": 7875,
      "ding": 7876,
      "dip": 7877,
      "dome": 7878,
      "darts": 7879,
      "ever": 7880,
      "east": 7881,
      "gy": 7882,
      "gamb": 7883,
      "hoping": 7884,
      "nuts": 7885,
      "norm": 7886,
      "pal": 7887,
      "pel": 7888,
      "piz": 7889,
      "pound": 7890,
      "renaissance": 7891,
      "sour": 7892,
      "sushi": 7893,
      "tucked": 7894,
      "uk": 7895,
      "vig": 7896,
      "vivid": 7897,
      "western": 7898,
      "wizard": 7899,
      "##national": 7900,
      "##game": 7901,
      "##bread": 7902,
      "##uin": 7903,
      "##ught": 7904,
      "##hor": 7905,
      "##wise": 7906,
      "##cs": 7907,
      "##dri": 7908,
      "##father": 7909,
      "##fronts": 7910,
      "##EL": 7911,
      "##zens": 7912,
      "##RE": 7913,
      "##AT": 7914,
      "##BA": 7915,
      "##inary": 7916,
      "##eros": 7917,
      "##lee": 7918,
      "manhole": 7919,
      "stood": 7920,
      "state": 7921,
      "##ories": 7922,
      "##onies": 7923,
      "##lable": 7924,
      "##idas": 7925,
      "##isk": 7926,
      "##ears": 7927,
      "atm": 7928,
      "playful": 7929,
      "##ader": 7930,
      "dod": 7931,
      "blackboard": 7932,
      "##irline": 7933,
      "beagle": 7934,
      "beauty": 7935,
      "waling": 7936,
      "##aming": 7937,
      "##amous": 7938,
      "hoses": 7939,
      "##verty": 7940,
      "##ashes": 7941,
      "coke": 7942,
      "coca": 7943,
      "##iler": 7944,
      "roasting": 7945,
      "outcro": 7946,
      "watery": 7947,
      "watercraft": 7948,
      "##ielder": 7949,
      "carve": 7950,
      "poll": 7951,
      "poverty": 7952,
      "neat": 7953,
      "needs": 7954,
      "lei": 7955,
      "spikes": 7956,
      "conso": 7957,
      "baza": 7958,
      "bases": 7959,
      "camper": 7960,
      "##istry": 7961,
      "aircraft": 7962,
      "bring": 7963,
      "##uddling": 7964,
      "parlor": 7965,
      "couches": 7966,
      "projects": 7967,
      "ravine": 7968,
      "ener": 7969,
      "slip": 7970,
      "daylight": 7971,
      "capt": 7972,
      "speakers": 7973,
      "forefront": 7974,
      "clears": 7975,
      "highly": 7976,
      "desolate": 7977,
      "mature": 7978,
      "evil": 7979,
      "bathed": 7980,
      "coral": 7981,
      "cords": 7982,
      "lovers": 7983,
      "doorst": 7984,
      "friendly": 7985,
      "web": 7986,
      "taller": 7987,
      "gran": 7988,
      "cupcake": 7989,
      "hund": 7990,
      "flowering": 7991,
      "horsesh": 7992,
      "know": 7993,
      "paintball": 7994,
      "States": 7995,
      "Individ": 7996,
      "litter": 7997,
      "checker": 7998,
      "quite": 7999,
      "repres": 8000,
      "lifegu": 8001,
      "peddling": 8002,
      "monopoly": 8003,
      "##coats": 8004,
      "clam": 8005,
      "platter": 8006,
      "advertises": 8007,
      "troop": 8008,
      "troops": 8009,
      "ringing": 8010,
      "operated": 8011,
      "prints": 8012,
      "tuning": 8013,
      "eatery": 8014,
      "decker": 8015,
      "picked": 8016,
      "collect": 8017,
      "donuts": 8018,
      "actors": 8019,
      "glacier": 8020,
      "mustard": 8021,
      "cleaned": 8022,
      "completes": 8023,
      "##casion": 8024,
      "halfway": 8025,
      "balconies": 8026,
      "puddles": 8027,
      "boulders": 8028,
      "waterside": 8029,
      "tribe": 8030,
      "route": 8031,
      "planks": 8032,
      "charco": 8033,
      "cooling": 8034,
      "spreading": 8035,
      "mainly": 8036,
      "retrieve": 8037,
      "dreads": 8038,
      "tuss": 8039,
      "villa": 8040,
      "Beach": 8041,
      "learn": 8042,
      "breakdances": 8043,
      "calling": 8044,
      "oddly": 8045,
      "shrine": 8046,
      "angels": 8047,
      "fitting": 8048,
      "remove": 8049,
      "arranging": 8050,
      "headdresses": 8051,
      "defenders": 8052,
      "##araoke": 8053,
      "windsurfer": 8054,
      "prize": 8055,
      "muscle": 8056,
      "geomet": 8057,
      "textile": 8058,
      "captures": 8059,
      "utens": 8060,
      "assistance": 8061,
      "vault": 8062,
      "##aha": 8063,
      "Clause": 8064,
      "scooping": 8065,
      "wok": 8066,
      "quietly": 8067,
      "jackhammer": 8068,
      "scratches": 8069,
      "returning": 8070,
      "technique": 8071,
      "sausage": 8072,
      "growling": 8073,
      "forklift": 8074,
      "mingling": 8075,
      "strums": 8076,
      "horizontally": 8077,
      "providing": 8078,
      "weapons": 8079,
      "sketch": 8080,
      "skyscraper": 8081,
      "rushing": 8082,
      "specim": 8083,
      "glances": 8084,
      "schoolgirls": 8085,
      "Comm": 8086,
      "spiral": 8087,
      "piercings": 8088,
      "cylinder": 8089,
      "situation": 8090,
      "mossy": 8091,
      "machete": 8092,
      "temporary": 8093,
      "Barefoot": 8094,
      "ollie": 8095,
      "clerk": 8096,
      "paneled": 8097,
      "trotting": 8098,
      "2008": 8099,
      "locomotive": 8100,
      "##ijing": 8101,
      "satchel": 8102,
      "metropolitan": 8103,
      "Gymnast": 8104,
      "drenched": 8105,
      "higher": 8106,
      "squirrel": 8107,
      "embroid": 8108,
      "sandwiches": 8109,
      "diligently": 8110,
      "gambling": 8111,
      "outcropping": 8112,
      "bazaar": 8113,
      "geometric": 8114,
      "Aut": 8115,
      "Bu": 8116,
      "Bright": 8117,
      "Fore": 8118,
      "Horse": 8119,
      "Je": 8120,
      "Joe": 8121,
      "Mom": 8122,
      "Museum": 8123,
      "No": 8124,
      "Navy": 8125,
      "Naked": 8126,
      "Res": 8127,
      "Sen": 8128,
      "Sur": 8129,
      "Train": 8130,
      "Viet": 8131,
      "Well": 8132,
      "Welcome": 8133,
      "Yam": 8134,
      "active": 8135,
      "did": 8136,
      "fu": 8137,
      "fine": 8138,
      "fier": 8139,
      "fixture": 8140,
      "gn": 8141,
      "gently": 8142,
      "jars": 8143,
      "lets": 8144,
      "linger": 8145,
      "mad": 8146,
      "orig": 8147,
      "rim": 8148,
      "ruff": 8149,
      "roped": 8150,
      "sons": 8151,
      "sights": 8152,
      "troup": 8153,
      "tiss": 8154,
      "tattered": 8155,
      "wants": 8156,
      "york": 8157,
      "##ax": 8158,
      "##nce": 8159,
      "##gas": 8160,
      "##gent": 8161,
      "##race": 8162,
      "##rints": 8163,
      "##sts": 8164,
      "##mage": 8165,
      "##water": 8166,
      "##LE": 8167,
      "##vol": 8168,
      "##inar": 8169,
      "##ani": 8170,
      "##anes": 8171,
      "##anse": 8172,
      "onlooking": 8173,
      "##atown": 8174,
      "stro": 8175,
      "stroke": 8176,
      "##isc": 8177,
      "##allows": 8178,
      "boa": 8179,
      "chore": 8180,
      "chart": 8181,
      "##stairs": 8182,
      "walled": 8183,
      "##amic": 8184,
      "##imp": 8185,
      "##riff": 8186,
      "##riger": 8187,
      "herding": 8188,
      "##elled": 8189,
      "backfl": 8190,
      "clings": 8191,
      "clinging": 8192,
      "force": 8193,
      "runway": 8194,
      "Thomas": 8195,
      "greens": 8196,
      "greenish": 8197,
      "##forcement": 8198,
      "##formed": 8199,
      "trade": 8200,
      "ballgame": 8201,
      "snugg": 8202,
      "sideline": 8203,
      "sidewalks": 8204,
      "fliers": 8205,
      "lect": 8206,
      "snowing": 8207,
      "otherwise": 8208,
      "teeter": 8209,
      "wavy": 8210,
      "alumin": 8211,
      "workman": 8212,
      "##stract": 8213,
      "thatched": 8214,
      "##uding": 8215,
      "release": 8216,
      "parag": 8217,
      "lively": 8218,
      "prevent": 8219,
      "roadwork": 8220,
      "##imber": 8221,
      "tanks": 8222,
      "aggress": 8223,
      "windy": 8224,
      "slice": 8225,
      "grounds": 8226,
      "bands": 8227,
      "bandage": 8228,
      "storefronts": 8229,
      "##enna": 8230,
      "drift": 8231,
      "treats": 8232,
      "abstract": 8233,
      "sau": 8234,
      "save": 8235,
      "safe": 8236,
      "##berty": 8237,
      "surrounds": 8238,
      "strides": 8239,
      "cowork": 8240,
      "batons": 8241,
      "artif": 8242,
      "creature": 8243,
      "lob": 8244,
      "loit": 8245,
      "loving": 8246,
      "lovely": 8247,
      "breaks": 8248,
      "patches": 8249,
      "converses": 8250,
      "crus": 8251,
      "refriger": 8252,
      "pean": 8253,
      "peeling": 8254,
      "pitches": 8255,
      "##venue": 8256,
      "cheered": 8257,
      "potent": 8258,
      "##ension": 8259,
      "photography": 8260,
      "liter": 8261,
      "cliffs": 8262,
      "intens": 8263,
      "joggers": 8264,
      "sweet": 8265,
      "shotgun": 8266,
      "sculptor": 8267,
      "expensive": 8268,
      "expanse": 8269,
      "claps": 8270,
      "medal": 8271,
      "candid": 8272,
      "##ibling": 8273,
      "##ibility": 8274,
      "trots": 8275,
      "participant": 8276,
      "bathrobe": 8277,
      "stylish": 8278,
      "chained": 8279,
      "multicolor": 8280,
      "Spider": 8281,
      "sprinting": 8282,
      "pancakes": 8283,
      "mustached": 8284,
      "professionally": 8285,
      "robed": 8286,
      "keyboards": 8287,
      "entertainer": 8288,
      "dolly": 8289,
      "dustpan": 8290,
      "positions": 8291,
      "escalators": 8292,
      "BMW": 8293,
      "ampl": 8294,
      "letting": 8295,
      "##reshing": 8296,
      "Ski": 8297,
      "recipe": 8298,
      "pumps": 8299,
      "consum": 8300,
      "ide": 8301,
      "dumping": 8302,
      "controlled": 8303,
      "shares": 8304,
      "bundles": 8305,
      "organizing": 8306,
      "Scouts": 8307,
      "galloping": 8308,
      "##ailable": 8309,
      "Coke": 8310,
      "everything": 8311,
      "badge": 8312,
      "foil": 8313,
      "homes": 8314,
      "waterskier": 8315,
      "hunting": 8316,
      "occasion": 8317,
      "mannequins": 8318,
      "wander": 8319,
      "lowered": 8320,
      "sparkly": 8321,
      "sparklers": 8322,
      "texts": 8323,
      "interviews": 8324,
      "interviewing": 8325,
      "Skateboard": 8326,
      "acrobatics": 8327,
      "search": 8328,
      "scoops": 8329,
      "marshm": 8330,
      "technology": 8331,
      "husky": 8332,
      "foundation": 8333,
      "spiky": 8334,
      "Busy": 8335,
      "Kitty": 8336,
      "Artist": 8337,
      "ornament": 8338,
      "snorkel": 8339,
      "releasing": 8340,
      "videotaping": 8341,
      "chemistry": 8342,
      "blossoms": 8343,
      "affection": 8344,
      "queen": 8345,
      "communicating": 8346,
      "sombrero": 8347,
      "Rodeo": 8348,
      "descri": 8349,
      "Everyone": 8350,
      "romantic": 8351,
      "velvet": 8352,
      "Angeles": 8353,
      "waffle": 8354,
      "soldering": 8355,
      "##ulele": 8356,
      "flashing": 8357,
      "harvest": 8358,
      "Yankees": 8359,
      "gingerbread": 8360,
      "lonely": 8361,
      "penguin": 8362,
      "trouble": 8363,
      "insect": 8364,
      "handicapped": 8365,
      "quartet": 8366,
      "sledgehammer": 8367,
      "brochure": 8368,
      "swampy": 8369,
      "hairstyle": 8370,
      "projection": 8371,
      "hippie": 8372,
      "research": 8373,
      "breeze": 8374,
      "japanese": 8375,
      "ninja": 8376,
      "Segway": 8377,
      "lunges": 8378,
      "plywood": 8379,
      "tiara": 8380,
      "somersault": 8381,
      "album": 8382,
      "baggage": 8383,
      "typewriter": 8384,
      "Victor": 8385,
      "doorstep": 8386,
      "charcoal": 8387,
      "villagers": 8388,
      "Vietnam": 8389,
      "Yamaha": 8390,
      "troupe": 8391,
      "tissue": 8392,
      "aluminum": 8393,
      "16": 8394,
      "33": 8395,
      "Ab": 8396,
      "Bird": 8397,
      "Bank": 8398,
      "Cor": 8399,
      "DS": 8400,
      "Dad": 8401,
      "Del": 8402,
      "Dalm": 8403,
      "En": 8404,
      "Emer": 8405,
      "Far": 8406,
      "Fro": 8407,
      "Free": 8408,
      "Families": 8409,
      "Gard": 8410,
      "Home": 8411,
      "Li": 8412,
      "Ly": 8413,
      "Los": 8414,
      "Min": 8415,
      "Met": 8416,
      "Outs": 8417,
      "Poke": 8418,
      "RV": 8419,
      "Radio": 8420,
      "Sal": 8421,
      "Sil": 8422,
      "Sitting": 8423,
      "Tar": 8424,
      "bark": 8425,
      "cue": 8426,
      "cors": 8427,
      "cact": 8428,
      "crop": 8429,
      "fi": 8430,
      "fry": 8431,
      "gird": 8432,
      "jets": 8433,
      "jugs": 8434,
      "lem": 8435,
      "mind": 8436,
      "now": 8437,
      "pers": 8438,
      "rainst": 8439,
      "session": 8440,
      "sif": 8441,
      "sizes": 8442,
      "sibling": 8443,
      "tors": 8444,
      "toned": 8445,
      "wou": 8446,
      "wipes": 8447,
      "wrong": 8448,
      "##nets": 8449,
      "##gram": 8450,
      "##ration": 8451,
      "##ik": 8452,
      "##hand": 8453,
      "##hake": 8454,
      "##ywood": 8455,
      "##jab": 8456,
      "##HE": 8457,
      "##itude": 8458,
      "##eno": 8459,
      "##enous": 8460,
      "##onist": 8461,
      "##lamic": 8462,
      "##icul": 8463,
      "areas": 8464,
      "anx": 8465,
      "##geous": 8466,
      "chunk": 8467,
      "youngster": 8468,
      "frosting": 8469,
      "##une": 8470,
      "##ams": 8471,
      "holing": 8472,
      "thro": 8473,
      "##ntable": 8474,
      "##ardi": 8475,
      "streetlight": 8476,
      "##iming": 8477,
      "grouped": 8478,
      "herbs": 8479,
      "smir": 8480,
      "##elt": 8481,
      "taught": 8482,
      "carves": 8483,
      "##achsh": 8484,
      "backed": 8485,
      "##ckled": 8486,
      "forrest": 8487,
      "##indeer": 8488,
      "overfl": 8489,
      "spear": 8490,
      "spag": 8491,
      "##ycler": 8492,
      "builds": 8493,
      "##igenous": 8494,
      "Peoples": 8495,
      "arches": 8496,
      "screw": 8497,
      "govern": 8498,
      "trailing": 8499,
      "##stride": 8500,
      "unp": 8501,
      "comic": 8502,
      "##aled": 8503,
      "##anted": 8504,
      "rocket": 8505,
      "adding": 8506,
      "plugging": 8507,
      "props": 8508,
      "promin": 8509,
      "promo": 8510,
      "enforcement": 8511,
      "devil": 8512,
      "barks": 8513,
      "marks": 8514,
      "mold": 8515,
      "cages": 8516,
      "markers": 8517,
      "sauce": 8518,
      "pasta": 8519,
      "basketballs": 8520,
      "canes": 8521,
      "cleats": 8522,
      "sock": 8523,
      "soaring": 8524,
      "##ector": 8525,
      "bearer": 8526,
      "price": 8527,
      "Somebody": 8528,
      "bigger": 8529,
      "backpackers": 8530,
      "competitively": 8531,
      "sticker": 8532,
      "drumming": 8533,
      "creme": 8534,
      "wheeling": 8535,
      "turntable": 8536,
      "eyel": 8537,
      "pointy": 8538,
      "leave": 8539,
      "hijab": 8540,
      "rains": 8541,
      "winner": 8542,
      "wrang": 8543,
      "hoods": 8544,
      "grace": 8545,
      "refreshing": 8546,
      "globe": 8547,
      "peac": 8548,
      "indic": 8549,
      "takeout": 8550,
      "netting": 8551,
      "preschool": 8552,
      "formed": 8553,
      "formations": 8554,
      "viole": 8555,
      "landmark": 8556,
      "potter": 8557,
      "countertop": 8558,
      "decorate": 8559,
      "intimate": 8560,
      "repelling": 8561,
      "collars": 8562,
      "observed": 8563,
      "shaft": 8564,
      "shading": 8565,
      "closer": 8566,
      "cases": 8567,
      "wraps": 8568,
      "urin": 8569,
      "crouch": 8570,
      "visitors": 8571,
      "pierced": 8572,
      "styrofoam": 8573,
      "include": 8574,
      "started": 8575,
      "Spring": 8576,
      "tongues": 8577,
      "sprint": 8578,
      "glow": 8579,
      "grooms": 8580,
      "twisting": 8581,
      "warmers": 8582,
      "rollerskaters": 8583,
      "grinder": 8584,
      "applied": 8585,
      "pitchers": 8586,
      "related": 8587,
      "weathered": 8588,
      "bassist": 8589,
      "leafless": 8590,
      "bunk": 8591,
      "fashionable": 8592,
      "author": 8593,
      "pumpkins": 8594,
      "dumps": 8595,
      "solid": 8596,
      "Union": 8597,
      "joke": 8598,
      "##maid": 8599,
      "impress": 8600,
      "contestant": 8601,
      "folks": 8602,
      "browse": 8603,
      "tailg": 8604,
      "bulldog": 8605,
      "rearing": 8606,
      "portraits": 8607,
      "sleepy": 8608,
      "congregation": 8609,
      "available": 8610,
      "wandering": 8611,
      "accents": 8612,
      "twirls": 8613,
      "Britain": 8614,
      "sparkler": 8615,
      "surprise": 8616,
      "screams": 8617,
      "finds": 8618,
      "maneuvers": 8619,
      "barricades": 8620,
      "cracked": 8621,
      "cocktail": 8622,
      "bridesmaid": 8623,
      "oxen": 8624,
      "Clown": 8625,
      "ascends": 8626,
      "architect": 8627,
      "amazing": 8628,
      "amazement": 8629,
      "questions": 8630,
      "dandelions": 8631,
      "snorkeling": 8632,
      "misty": 8633,
      "lesson": 8634,
      "peppers": 8635,
      "tinted": 8636,
      "attentive": 8637,
      "flexing": 8638,
      "civilian": 8639,
      "comfortable": 8640,
      "totter": 8641,
      "Farmers": 8642,
      "autogra": 8643,
      "hedge": 8644,
      "jamming": 8645,
      "popsicle": 8646,
      "anticipation": 8647,
      "responding": 8648,
      "Photograph": 8649,
      "dummy": 8650,
      "duty": 8651,
      "passionately": 8652,
      "pamphlet": 8653,
      "physical": 8654,
      "awkwardly": 8655,
      "Batman": 8656,
      "Hotel": 8657,
      "kabobs": 8658,
      "pompoms": 8659,
      "##hetti": 8660,
      "overhang": 8661,
      "accessories": 8662,
      "execut": 8663,
      "refreshments": 8664,
      "Colorful": 8665,
      "occurring": 8666,
      "fingernails": 8667,
      "Berlin": 8668,
      "rectangular": 8669,
      "Newlyw": 8670,
      "evergreen": 8671,
      "normal": 8672,
      "ukulele": 8673,
      "hundreds": 8674,
      "Autumn": 8675,
      "choreogra": 8676,
      "backflip": 8677,
      "paragl": 8678,
      "lobster": 8679,
      "amplifier": 8680,
      "Emergency": 8681,
      "Outside": 8682,
      "Pokemon": 8683,
      "Target": 8684,
      "rainstorm": 8685,
      "torso": 8686,
      "would": 8687,
      "spaghetti": 8688,
      "promoting": 8689,
      "00": 8690,
      "15": 8691,
      "18": 8692,
      "24": 8693,
      "3rd": 8694,
      "Bal": 8695,
      "Bur": 8696,
      "Bush": 8697,
      "Cel": 8698,
      "Circ": 8699,
      "Comp": 8700,
      "Central": 8701,
      "Don": 8702,
      "Emp": 8703,
      "Fl": 8704,
      "Flor": 8705,
      "Gate": 8706,
      "Game": 8707,
      "Har": 8708,
      "Hel": 8709,
      "Ike": 8710,
      "Jim": 8711,
      "Kn": 8712,
      "Karate": 8713,
      "Lou": 8714,
      "Love": 8715,
      "Ore": 8716,
      "Ocean": 8717,
      "Offic": 8718,
      "Pit": 8719,
      "Pre": 8720,
      "Tall": 8721,
      "Tri": 8722,
      "Tattoo": 8723,
      "able": 8724,
      "astride": 8725,
      "cent": 8726,
      "cust": 8727,
      "cris": 8728,
      "et": 8729,
      "fights": 8730,
      "fift": 8731,
      "fright": 8732,
      "faded": 8733,
      "gri": 8734,
      "goose": 8735,
      "hide": 8736,
      "hound": 8737,
      "halloween": 8738,
      "ign": 8739,
      "jour": 8740,
      "jag": 8741,
      "lighter": 8742,
      "mp": 8743,
      "mort": 8744,
      "poun": 8745,
      "pensive": 8746,
      "panda": 8747,
      "rad": 8748,
      "rip": 8749,
      "suck": 8750,
      "sashes": 8751,
      "times": 8752,
      "want": 8753,
      "ya": 8754,
      "yells": 8755,
      "##gen": 8756,
      "##iate": 8757,
      "##iformed": 8758,
      "##phed": 8759,
      "##ok": 8760,
      "##oting": 8761,
      "##okes": 8762,
      "##oft": 8763,
      "##uz": 8764,
      "##ucking": 8765,
      "##tying": 8766,
      "##hy": 8767,
      "##had": 8768,
      "##hold": 8769,
      "##horn": 8770,
      "##wag": 8771,
      "##ygen": 8772,
      "##AR": 8773,
      "##ST": 8774,
      "##vo": 8775,
      "##vin": 8776,
      "##ances": 8777,
      "##erry": 8778,
      "ink": 8779,
      "##len": 8780,
      "##arks": 8781,
      "##arian": 8782,
      "##ndy": 8783,
      "onion": 8784,
      "onions": 8785,
      "##alian": 8786,
      "##omino": 8787,
      "##edes": 8788,
      "##ettes": 8789,
      "##onial": 8790,
      "whist": 8791,
      "##ida": 8792,
      "##opus": 8793,
      "boom": 8794,
      "##ada": 8795,
      "doberman": 8796,
      "peoples": 8797,
      "chats": 8798,
      "chandel": 8799,
      "##irly": 8800,
      "frog": 8801,
      "##unity": 8802,
      "##umb": 8803,
      "##uments": 8804,
      "hoe": 8805,
      "##asm": 8806,
      "##urst": 8807,
      "##kswag": 8808,
      "streaks": 8809,
      "bud": 8810,
      "budd": 8811,
      "streetlights": 8812,
      "##ilot": 8813,
      "downwards": 8814,
      "roast": 8815,
      "##enta": 8816,
      "taped": 8817,
      "##ctopus": 8818,
      "necks": 8819,
      "skips": 8820,
      "swad": 8821,
      "swirl": 8822,
      "##indle": 8823,
      "##inders": 8824,
      "trink": 8825,
      "##urely": 8826,
      "handc": 8827,
      "##inker": 8828,
      "##ourful": 8829,
      "##icked": 8830,
      "basin": 8831,
      "waking": 8832,
      "came": 8833,
      "arid": 8834,
      "alter": 8835,
      "alread": 8836,
      "hazard": 8837,
      "braces": 8838,
      "law": 8839,
      "topping": 8840,
      "unc": 8841,
      "uncut": 8842,
      "colourful": 8843,
      "surve": 8844,
      "comb": 8845,
      "##ube": 8846,
      "reen": 8847,
      "reun": 8848,
      "reindeer": 8849,
      "##olf": 8850,
      "##olin": 8851,
      "##dled": 8852,
      "paramed": 8853,
      "midriff": 8854,
      "walkie": 8855,
      "darkly": 8856,
      "plowing": 8857,
      "signals": 8858,
      "towing": 8859,
      "compact": 8860,
      "##icef": 8861,
      "slump": 8862,
      "sweatsuit": 8863,
      "barred": 8864,
      "barbed": 8865,
      "capes": 8866,
      "shocked": 8867,
      "treks": 8868,
      "forearm": 8869,
      "ribs": 8870,
      "desper": 8871,
      "lighthouse": 8872,
      "boarder": 8873,
      "created": 8874,
      "##brador": 8875,
      "##lock": 8876,
      "turf": 8877,
      "smokey": 8878,
      "mex": 8879,
      "mean": 8880,
      "meals": 8881,
      "breed": 8882,
      "volcan": 8883,
      "equipped": 8884,
      "##rical": 8885,
      "beds": 8886,
      "##autifully": 8887,
      "edges": 8888,
      "paddy": 8889,
      "seriously": 8890,
      "controll": 8891,
      "rode": 8892,
      "animated": 8893,
      "notice": 8894,
      "steers": 8895,
      "steaks": 8896,
      "concerned": 8897,
      "necktie": 8898,
      "Station": 8899,
      "potty": 8900,
      "director": 8901,
      "drawer": 8902,
      "fixed": 8903,
      "desktop": 8904,
      "talkie": 8905,
      "pedest": 8906,
      "examined": 8907,
      "diners": 8908,
      "Indians": 8909,
      "fairly": 8910,
      "reflected": 8911,
      "assign": 8912,
      "assists": 8913,
      "packing": 8914,
      "suspension": 8915,
      "Workmen": 8916,
      "donut": 8917,
      "panels": 8918,
      "exciting": 8919,
      "embank": 8920,
      "glit": 8921,
      "completed": 8922,
      "figur": 8923,
      "guarded": 8924,
      "napkin": 8925,
      "entertained": 8926,
      "carpent": 8927,
      "fabrics": 8928,
      "dollar": 8929,
      "kissed": 8930,
      "designer": 8931,
      "ceramic": 8932,
      "campers": 8933,
      "trumpets": 8934,
      "planter": 8935,
      "charging": 8936,
      "headbands": 8937,
      "cropped": 8938,
      "croquet": 8939,
      "coolers": 8940,
      "wildflowers": 8941,
      "socialize": 8942,
      "solider": 8943,
      "Uniformed": 8944,
      "billboards": 8945,
      "Beijing": 8946,
      "pressing": 8947,
      "huddles": 8948,
      "vacuums": 8949,
      "joyfully": 8950,
      "badges": 8951,
      "flatbed": 8952,
      "decals": 8953,
      "decides": 8954,
      "dropped": 8955,
      "seminar": 8956,
      "graduate": 8957,
      "slabs": 8958,
      "recorder": 8959,
      "poorly": 8960,
      "cameramen": 8961,
      "attendees": 8962,
      "removes": 8963,
      "removed": 8964,
      "crashes": 8965,
      "defends": 8966,
      "explores": 8967,
      "rifles": 8968,
      "lockers": 8969,
      "comforting": 8970,
      "soapy": 8971,
      "keeper": 8972,
      "sparkling": 8973,
      "util": 8974,
      "assistant": 8975,
      "searches": 8976,
      "seaside": 8977,
      "Island": 8978,
      "steaming": 8979,
      "officials": 8980,
      "explains": 8981,
      "returns": 8982,
      "navigate": 8983,
      "navigating": 8984,
      "oxygen": 8985,
      "toilets": 8986,
      "bumpy": 8987,
      "strawberries": 8988,
      "NYC": 8989,
      "##ustrated": 8990,
      "slingshot": 8991,
      "ornamental": 8992,
      "olympic": 8993,
      "grimaces": 8994,
      "launching": 8995,
      "rushes": 8996,
      "Italy": 8997,
      "frolics": 8998,
      "Labrador": 8999,
      "Camer": 9000,
      "Gras": 9001,
      "heated": 9002,
      "separated": 9003,
      "hedges": 9004,
      "##aeolog": 9005,
      "article": 9006,
      "Athle": 9007,
      "Athletes": 9008,
      "##ription": 9009,
      "shells": 9010,
      "arrangement": 9011,
      "Vegas": 9012,
      "##innie": 9013,
      "cluster": 9014,
      "Christian": 9015,
      "footprints": 9016,
      "pineapples": 9017,
      "Summer": 9018,
      "##ximately": 9019,
      "surveys": 9020,
      "turbans": 9021,
      "pinstriped": 9022,
      "llama": 9023,
      "bodies": 9024,
      "Palest": 9025,
      "neatly": 9026,
      "granite": 9027,
      "Individuals": 9028,
      "tussle": 9029,
      "specimen": 9030,
      "lingerie": 9031,
      "##volution": 9032,
      "intensely": 9033,
      "lemons": 9034,
      "screwdri": 9035,
      "government": 9036,
      "peacock": 9037,
      "Celtic": 9038,
      "Florida": 9039,
      "Ikea": 9040,
      "jagged": 9041,
      "mp3": 9042,
      "yawns": 9043,
      "already": 9044,
      "embankment": 9045,
      "14": 9046,
      "23": 9047,
      "28": 9048,
      "40": 9049,
      "?\"": 9050,
      "Austr": 9051,
      "CD": 9052,
      "Cat": 9053,
      "Coun": 9054,
      "Cra": 9055,
      "Class": 9056,
      "Center": 9057,
      "Dav": 9058,
      "Fest": 9059,
      "Ha": 9060,
      "Hall": 9061,
      "Hum": 9062,
      "Hund": 9063,
      "Just": 9064,
      "Kay": 9065,
      "Mardi": 9066,
      "Nur": 9067,
      "Pl": 9068,
      "Pink": 9069,
      "Port": 9070,
      "Pops": 9071,
      "Power": 9072,
      "Ri": 9073,
      "Sing": 9074,
      "Side": 9075,
      "Under": 9076,
      "Wet": 9077,
      "airline": 9078,
      "cad": 9079,
      "cuddle": 9080,
      "dau": 9081,
      "dips": 9082,
      "dachsh": 9083,
      "fal": 9084,
      "fives": 9085,
      "famous": 9086,
      "gone": 9087,
      "gut": 9088,
      "karaoke": 9089,
      "lace": 9090,
      "lamb": 9091,
      "mixture": 9092,
      "octopus": 9093,
      "pis": 9094,
      "pra": 9095,
      "rou": 9096,
      "ram": 9097,
      "rum": 9098,
      "racks": 9099,
      "reno": 9100,
      "swo": 9101,
      "tier": 9102,
      "vent": 9103,
      "vista": 9104,
      "went": 9105,
      "##OR": 9106,
      "##aic": 9107,
      "##nal": 9108,
      "##ga": 9109,
      "##gl": 9110,
      "##grown": 9111,
      "##ec": 9112,
      "##iator": 9113,
      "##bird": 9114,
      "##uing": 9115,
      "##uge": 9116,
      "##upp": 9117,
      "##tch": 9118,
      "##tuce": 9119,
      "##kirt": 9120,
      "##cards": 9121,
      "##ccess": 9122,
      "##ye": 9123,
      "##down": 9124,
      "##dlers": 9125,
      "##daughter": 9126,
      "##fic": 9127,
      "##Pants": 9128,
      "##AN": 9129,
      "##inated": 9130,
      "##erts": 9131,
      "##ites": 9132,
      "##heast": 9133,
      "##aran": 9134,
      "##acled": 9135,
      "##ona": 9136,
      "##oura": 9137,
      "whale": 9138,
      "##isley": 9139,
      "##iced": 9140,
      "##rouch": 9141,
      "tobo": 9142,
      "##aders": 9143,
      "china": 9144,
      "chief": 9145,
      "chores": 9146,
      "##ste": 9147,
      "blacktop": 9148,
      "beak": 9149,
      "beautifully": 9150,
      "##uma": 9151,
      "##ume": 9152,
      "##umbling": 9153,
      "hoisted": 9154,
      "##ury": 9155,
      "##urry": 9156,
      "##urance": 9157,
      "bucks": 9158,
      "buoy": 9159,
      "coal": 9160,
      "##ims": 9161,
      "##resso": 9162,
      "grains": 9163,
      "outer": 9164,
      "upcoming": 9165,
      "swung": 9166,
      "ballroom": 9167,
      "flutes": 9168,
      "florescent": 9169,
      "overgrown": 9170,
      "##onges": 9171,
      "##tock": 9172,
      "spool": 9173,
      "sponges": 9174,
      "##iance": 9175,
      "conical": 9176,
      "bake": 9177,
      "##inky": 9178,
      "##ires": 9179,
      "grasses": 9180,
      "based": 9181,
      "##phony": 9182,
      "camcor": 9183,
      "scri": 9184,
      "scored": 9185,
      "##outheast": 9186,
[...]
